[PAD]
[UNK]
[START]
[END]
!
"
#
$
%
&
'
(
)
*
+
,
-
.
/
0
1
2
3
4
5
6
7
8
9
:
;
<
=
>
?
@
[
\
]
^
_
`
a
b
c
d
e
f
g
h
i
j
k
l
m
n
o
p
q
r
s
t
u
v
w
x
y
z
{
|
}
~
¡
¢
£
¥
¦
§
¨
©
«
¬
®
¯
°
±
²
³
´
µ
¶
·
¹
º
»
¿
×
ß
à
á
â
ã
ä
å
æ
ç
è
é
ê
ë
ì
í
î
ï
ð
ñ
ò
ó
ô
õ
ö
÷
ø
ù
ú
û
ü
ý
þ
ā
ă
ą
ć
č
đ
ē
ĕ
ė
ę
ě
ĝ
ğ
ġ
ħ
ĩ
ī
ı
ł
ń
ň
ŋ
ō
ŏ
ő
œ
ř
ś
ş
š
ţ
ũ
ū
ŭ
ů
ų
ź
ż
ž
ƒ
ơ
ư
ǀ
ǁ
ǃ
ǎ
ǐ
ǒ
ǔ
ș
ț
ɑ
ɒ
ɔ
ə
ɛ
ɜ
ɡ
ɣ
ɨ
ɪ
ʃ
ʊ
ʌ
ʒ
ʔ
ʰ
ʷ
ʻ
ʼ
ʾ
ʿ
ˀ
ˈ
ˌ
ː
˙
˚
˥
˧
˨
˩
̀
́
̃
̅
̇
̍
͡
ά
έ
ή
ί
α
β
γ
δ
ε
ζ
η
θ
ι
κ
λ
μ
ν
ξ
ο
π
ρ
ς
σ
τ
υ
φ
χ
ψ
ω
ό
ύ
ώ
ϕ
а
б
в
г
д
е
ж
з
и
й
к
л
м
н
о
п
р
с
т
у
ф
х
ц
ч
ш
щ
ъ
ы
ь
э
ю
я
ё
ѕ
і
ի
մ
ְ
ִ
ֵ
ֶ
ַ
ָ
ֹ
ּ
א
ב
ג
ד
ה
ו
ט
י
ל
ם
מ
ן
נ
ס
ע
צ
ק
ר
ש
ת
ء
آ
أ
إ
ئ
ا
ب
ة
ت
ث
ج
ح
خ
د
ذ
ر
ز
س
ش
ص
ض
ط
ظ
ع
غ
ـ
ف
ق
ك
ل
م
ن
ه
و
ى
ي
َ
ُ
ِ
ّ
ْ
پ
ک
گ
ی
ं
क
त
द
न
प
म
य
र
ल
व
स
ह
ा
ि
ी
ु
े
ो
्
র
ก
ข
ค
ง
จ
ช
ญ
ด
ต
ท
ธ
น
บ
ป
พ
ฟ
ภ
ม
ย
ร
ล
ว
ศ
ษ
ส
ห
อ
ะ
ั
า
ิ
ี
ื
ุ
ู
เ
แ
โ
ใ
ไ
่
้
์
န
ა
ნ
ក
ស
ា
ḍ
ḥ
ḩ
ṃ
ṅ
ṇ
ṛ
ṣ
ṭ
ạ
ả
ấ
ầ
ẫ
ậ
ắ
ằ
ẵ
ặ
ế
ề
ể
ễ
ệ
ỉ
ị
ọ
ố
ồ
ổ
ỗ
ộ
ớ
ờ
ợ
ủ
ứ
ử
ữ
ỳ
ỹ
ἀ
ἐ
ἰ
ὑ
ὰ
ῖ
ῦ
‐
‑
–
―
‘
„
†
•
…
‰
′
″
‹
›
⁄
₩
€
₹
ℓ
№
™
←
→
↓
↹
⇧
∀
∂
∆
∇
∈
∑
−
∓
∗
∘
√
∞
∣
∥
∧
∨
∼
≈
≠
≡
≤
≥
⊂
⊆
⊕
⊙
⊞
⋅
⋮
⋯
⌘
⌥
⎙
⏎
■
●
☉
☰
♠
♪
♭
♯
⚙
⟨
⟩
、
あ
い
う
お
か
が
き
く
け
こ
ご
さ
し
す
ず
た
だ
ち
つ
と
な
に
の
は
ふ
ぶ
ま
み
め
も
ゃ
や
ら
り
る
ろ
わ
を
ん
ァ
ア
ィ
イ
ウ
ェ
エ
オ
カ
ガ
キ
ギ
ク
グ
ケ
ゲ
コ
ゴ
サ
ザ
シ
ジ
ス
ゼ
ソ
タ
ダ
チ
ッ
ツ
テ
デ
ト
ド
ナ
ニ
ネ
ノ
ハ
バ
パ
ヒ
ビ
ピ
フ
ブ
プ
ボ
マ
ミ
ム
メ
モ
ャ
ヤ
ュ
ョ
ラ
リ
ル
レ
ロ
ワ
ン
・
ー
一
七
三
上
下
不
世
中
主
之
九
事
二
五
井
京
人
仁
代
会
佐
你
佳
信
元
先
光
全
八
公
六
内
军
制
力
化
北
十
千
南
原
友
台
司
合
吉
名
味
和
員
四
国
國
圍
園
土
在
地
城
堂
場
士
夏
大
天
太
女
姫
子
字
学
學
安
宗
官
宝
宮
家
宿
小
山
島
川
州
布
帝
師
常
平
年
府
建
式
役
御
徳
德
心
志
忠
思
恋
想
愛
我
所
手
技
放
政
教
文
新
方
日
明
星
春
時
最
會
月
有
朝
木
本
机
李
村
東
林
株
棋
業
楽
機
次
歌
正
武
死
氏
民
水
江
沙
法
洋
洞
派
流
浦
海
清
温
港
源
灣
火
焼
煮
物
玉
王
理
生
田
电
男
白
百
的
皇
真
社
神
福
科
空
立
統
絵
線
美
者
航
花
若
英
華
藤
行
西
見
親
記
話
語
谢
豆
赤
超
身
軍
道
郎
郡
部
里
重
野
金
鍋
長
門
間
阿
陈
限
院
陳
隊
集
雪
青
飯
香
馬
马
高
가
강
개
고
공
교
구
국
군
기
김
나
내
냐
다
대
도
동
라
랑
레
로
리
마
만
미
민
백
보
부
사
산
서
선
성
소
수
시
신
씨
아
어
에
연
영
오
원
유
육
은
의
이
인
일
있
자
장
저
전
정
제
조
주
지
찌
치
트
파
하
학
한
해
현
호
화
ﬁ
ﬂ
️
＊
＋
，
－
�
𒀭
the
to
you
and
of
in
is
it
that
for
your
with
on
this
was
we
do
as
are
be
have
or
can
he
not
if
what
at
they
by
from
but
me
an
re
she
so
my
will
all
there
about
one
her
like
out
know
just
when
up
get
has
his
no
more
time
were
who
them
ll
how
did
here
which
want
him
people
now
would
had
some
their
also
been
may
other
make
go
think
ve
see
these
well
tom
right
into
then
first
could
need
our
us
where
than
take
back
because
should
after
two
going
got
only
over
way
good
use
new
help
any
its
very
let
come
most
something
why
even
look
down
work
before
does
such
world
years
tell
many
day
##s
said
much
say
really
find
life
used
too
ca
being
off
never
through
things
those
around
little
give
water
while
man
still
made
keep
try
long
sure
gonna
feel
three
place
every
might
same
yourself
year
doing
between
thing
home
put
last
each
better
name
during
talk
own
best
another
both
person
away
part
again
love
different
called
thought
must
always
old
body
high
under
since
anything
until
great
am
found
mean
family
school
few
number
yeah
left
someone
without
oh
call
lot
known
actually
using
ask
women
once
important
system
often
next
start
china
told
okay
example
show
night
states
10
open
however
house
together
end
enough
later
change
maybe
united
ever
money
father
small
done
south
leave
born
second
today
kind
city
getting
000
days
came
children
everything
stop
against
human
nothing
side
food
big
times
please
making
within
friend
able
cause
believe
looking
government
wo
set
state
north
having
country
care
including
area
trying
stay
group
mr
war
less
skin
went
wanted
others
include
took
doctor
live
power
remember
problem
minutes
friends
mary
four
mother
head
blood
men
room
understand
hair
become
bad
already
five
idea
national
guy
yes
face
mind
hard
point
party
real
else
order
hand
instead
based
working
company
several
play
seen
means
coming
control
case
don
top
job
american
talking
university
game
move
taking
information
car
possible
least
kill
light
health
business
hey
early
became
##a
whole
president
run
girl
hours
social
free
20
woman
million
music
saw
though
laughter
common
turn
sometimes
form
sorry
started
large
god
type
usually
avoid
process
child
team
public
bring
close
course
yet
hear
guys
death
treatment
wrong
story
dead
30
half
heart
week
ago
makes
pain
following
young
eat
wait
west
international
general
east
along
line
book
de
son
far
due
happened
thinking
air
probably
white
either
vietnam
chinese
oil
phone
poland
hold
everyone
soon
age
likely
support
fact
bit
inside
lost
red
needs
late
countries
months
##e
low
list
according
district
saying
local
whether
15
law
matter
check
full
alone
history
heard
sir
dog
single
boy
especially
sleep
read
plan
future
create
says
learn
meet
film
hands
self
energy
given
morning
asked
question
killed
eyes
computer
outside
language
six
rather
political
earth
level
word
black
baby
wife
german
anyone
happy
research
study
cut
comes
knew
space
thank
almost
add
century
data
click
listen
club
brain
consider
village
building
drug
experience
pay
town
video
term
police
pretty
problems
gave
released
works
percent
although
past
12
looks
risk
miss
major
longer
true
nice
central
rights
wants
won
hope
watch
relationship
brother
rest
development
office
reason
##i
happen
clean
ready
front
short
among
series
lead
certain
taken
feeling
medical
began
100
natural
speak
class
across
per
safe
die
effects
available
died
behind
buy
clear
near
myself
living
french
symptoms
deal
cold
write
military
english
eye
dry
lives
attention
parents
allow
moment
fine
chance
western
special
present
third
ways
hot
choose
test
period
cat
break
easy
similar
fight
uh
difficult
words
sense
result
positive
weeks
worked
##o
drink
polish
position
walk
disease
population
save
main
march
kids
king
gone
sea
cases
security
art
daughter
amount
non
quite
hell
areas
questions
strong
##n
games
role
situation
increase
km
service
focus
japan
star
news
trust
exactly
member
personal
pressure
america
act
weight
remove
door
dad
middle
answer
follow
economic
lower
education
gets
market
whatever
located
products
season
contact
running
hit
technology
met
goes
partner
further
al
center
named
married
2016
physical
program
cells
50
june
tomorrow
knows
sun
stand
simply
sound
bed
key
needed
john
specific
held
simple
2011
online
step
hurt
model
cell
land
paper
reduce
science
africa
prevent
force
playing
higher
box
provide
project
capital
drive
fire
2015
couple
changes
built
wanna
media
tried
feelings
2012
hour
sit
beautiful
store
completely
members
release
brought
treat
court
normal
build
community
developed
2017
song
region
2014
action
file
seems
spend
field
street
quickly
cancer
deep
return
plant
negative
studies
husband
healthy
send
itself
##r
levels
october
apply
11
figure
share
month
fish
guess
sign
size
##y
seem
takes
ice
above
september
stuff
effect
wish
date
created
fun
writing
sister
county
lose
pick
##d
society
color
growth
considered
july
2010
students
april
tonight
product
practice
january
moving
afraid
serious
effective
meeting
received
various
approximately
army
design
##t
surface
##ing
production
19
didn
access
giving
august
sent
mom
entire
continue
2018
japanese
activity
begin
hospital
himself
girls
patients
exercise
2013
themselves
york
feet
heat
total
gotta
25
trade
truth
results
parts
kid
systems
minister
popular
perhaps
protect
dark
wear
value
former
upon
cost
related
ground
november
offer
shot
current
touch
foods
moved
minute
window
fall
choice
foreign
telling
global
interest
fast
ones
cup
green
published
december
eating
finally
somebody
2004
picture
blue
issues
ok
college
supposed
seven
16
2009
led
trouble
necessary
regional
river
everybody
final
decided
18
tv
stress
14
worry
ten
species
gmina
asking
cover
rate
ii
internet
piece
account
loss
behavior
cool
evidence
europe
press
warm
windows
acid
generally
addition
mouth
caused
happens
daily
fear
african
conversation
culture
park
bottom
sort
planet
administrative
training
books
changed
played
waiting
professional
lies
written
types
select
24
13
involved
infection
##ed
screen
looked
source
ai
address
particular
career
summer
television
imagine
environment
report
temperature
groups
turned
page
sold
throughout
album
potential
mass
2008
immediately
record
february
felt
services
eight
grow
voice
drugs
served
reach
leaving
modern
view
original
goal
beginning
movement
poor
notice
produced
conditions
india
method
numbers
version
active
forget
ability
anymore
alive
dr
companies
nature
##l
shall
animals
private
voivodeship
activities
event
code
typically
starting
terms
worth
coffee
mine
drop
sex
places
shows
individual
interested
site
bank
post
la
associated
2007
decision
message
2006
director
search
solution
attack
text
tree
image
lady
nobody
directly
damage
range
learning
machine
table
win
thoughts
40
appear
diet
events
football
develop
road
network
patient
british
wrote
billion
wall
management
degree
department
gun
forward
particularly
spent
female
ideas
official
shown
title
thus
currently
increased
stage
seeing
growing
letter
17
towards
discovered
european
produce
easier
2019
clothes
reported
tea
teacher
designed
material
policy
gas
difference
announced
thanks
worse
seconds
dinner
plants
france
location
sugar
island
##er
interesting
unless
visit
eventually
price
complete
forces
option
significant
lived
organization
gold
goals
track
regular
pull
quality
anti
extra
issue
medication
stories
response
animal
below
station
fat
easily
helps
northern
finished
wash
train
whose
causes
comfortable
crazy
largest
success
asia
enter
theory
secret
london
alcohol
tap
note
loved
improve
co
union
association
larger
condition
##ly
software
movie
names
included
enjoy
church
sick
complex
floor
expect
square
reading
rules
described
points
kilometres
perfect
rich
sounds
stars
variety
function
explain
straight
russian
style
established
humans
yours
spread
peace
dance
rule
huh
industry
multiple
wearing
boys
average
recent
card
legal
learned
agent
character
forms
master
structure
keeping
sexual
leaves
older
determine
kept
onto
signs
founded
board
sitting
apple
freedom
standard
allowed
award
favorite
economy
approach
korea
germany
memory
prison
decide
standing
basic
gives
round
options
glass
vietnamese
leading
protein
traditional
anyway
powerful
app
greater
applause
ahead
bag
website
base
cross
queen
despite
##m
pass
opportunity
followed
respect
device
direct
nations
earlier
anybody
player
therefore
salt
severe
2005
league
dollars
meaning
radio
recently
bar
watching
sales
subject
object
catch
performance
speaking
slow
somewhere
added
kingdom
dangerous
button
stick
chief
russia
section
fresh
finish
twice
financial
ship
meant
happening
muscle
smaller
double
bacteria
doesn
hate
lie
administration
knowledge
lines
heavy
walking
beyond
captain
rock
speed
becoming
showed
milk
workers
##u
therapy
distance
lord
soil
features
shape
medicine
includes
primary
chemical
200
resources
realize
shut
paid
scale
dream
21
band
depending
miles
accept
uses
soviet
require
foot
aware
calling
student
returned
professor
500
join
sell
nearly
southern
60
arms
caught
honey
menu
promise
match
successful
shoes
birth
arabic
content
commonly
nine
plans
studied
busy
allows
handle
drinking
travel
##k
languages
depression
except
syria
pomeranian
jobs
ensure
lack
##es
developing
division
feels
holding
impact
battle
responsible
boss
reasons
camera
putting
wide
meat
brand
corner
bought
additional
arm
command
ran
2000
##h
civil
purpose
acting
22
helped
legs
universe
tend
individuals
broken
em
actions
hang
recognize
leaders
spot
remain
carry
contains
limited
bill
article
items
contain
skills
passed
funny
occur
count
plastic
fruit
charge
toward
anxiety
highly
border
fighting
changing
virus
brown
leader
huge
careful
becomes
province
reaction
yesterday
opened
climate
strength
safety
required
cream
breathing
none
fit
helping
slowly
shoot
teach
museum
2003
mental
quick
separate
23
digital
ocean
finding
killing
nintendo
via
teeth
thousands
##in
email
committee
lots
emotions
upper
fully
instance
unit
stupid
ancient
smell
ass
push
reality
believed
castle
cultural
moon
surgery
iron
speech
closed
actress
causing
appears
likes
angry
medications
missing
plane
programs
throw
otherwise
reached
italian
understanding
boston
combination
serve
calm
famous
amazing
formed
brothers
cities
neck
mix
council
mark
web
sweet
continued
trial
appeared
ring
rise
waste
identify
mistake
paris
republic
draw
target
anywhere
seek
eastern
essential
wind
generation
library
yellow
joined
wake
google
pop
burn
mrs
soft
nation
challenge
turns
bottle
mission
sources
expected
influence
nose
property
creating
objects
religious
stopped
calls
materials
serie
wonder
opening
placed
fill
willing
prime
mostly
nuclear
highest
male
setting
flight
hotel
st
broke
planning
authorities
failure
tired
ourselves
slightly
costs
seat
supply
trees
interests
values
stomach
sports
maintain
officer
emotional
independent
defense
artist
apart
taught
affected
relationships
ball
useful
##c
trip
effort
advice
competition
prepared
raised
steps
previous
repeat
australia
worried
arts
ended
muscles
treated
korean
listening
flow
talked
fell
vegetables
pieces
singer
damn
families
san
breath
length
marriage
emergency
files
schools
welcome
construction
faster
congress
race
compared
map
feed
pictures
institute
presence
saved
methods
rice
eggs
fix
progress
recommended
remains
beat
glad
approved
showing
factors
grew
novel
thinks
clearly
2001
examples
hole
england
elements
failed
fly
measure
26
losing
etc
bodies
connected
images
spanish
27
liver
2002
justice
jack
audience
bigger
users
2020
federal
suggest
herself
dogs
secretary
ride
units
solar
carbon
raise
lucky
crime
ministry
direction
introduced
protection
schedule
tools
whom
scientific
prize
el
performed
provided
smart
violence
appointed
bird
laws
accident
awards
garden
dress
records
00
details
extremely
writer
super
till
quiet
agree
block
players
elected
gain
tissue
certainly
28
switch
metal
infections
election
hide
van
properties
kinds
campaign
receive
statistics
bridge
honor
sleeping
weather
honest
lying
chest
royal
clothing
communication
connection
hundred
scared
bus
politics
phase
tests
unique
washington
clinical
magazine
james
canada
commercial
forced
core
staff
foundation
covered
murder
exist
winter
requires
possibly
confidence
latin
signed
sides
overall
california
mobile
status
discuss
george
situations
um
applied
##g
application
notes
selling
lunch
channel
grand
beijing
proper
judge
appropriate
closer
americans
dna
impossible
weapons
attempt
songs
benefits
increasing
task
indian
referred
bureau
spending
frank
evening
nervous
host
balance
cycle
removed
citizens
critical
pet
stores
fever
mood
starts
driving
leg
models
scientists
horse
revolution
beauty
cook
purchase
basis
juice
layer
conflict
user
prince
wet
david
fourth
counter
concept
facebook
limit
confirmed
helpful
greatest
path
worst
efforts
kiss
stock
connect
occurs
strange
spring
democracy
originally
zero
fault
appearance
operating
smile
respond
oxygen
fair
lawyer
wonderful
knowing
photo
crisis
previously
painting
plenty
completed
covid
download
boyfriend
szczecin
income
mid
operation
relatively
escape
specifically
hong
vision
frequently
gently
rid
devices
expensive
pre
wedding
hall
biggest
vice
environmental
wine
boat
festival
goods
recorded
##p
affect
mountain
collection
zone
vitamin
acts
scene
soap
alternative
disorder
relations
stone
prior
officials
birthday
demand
tells
adding
decisions
studying
##on
equal
arrived
mixture
achieve
prepare
80
excuse
icon
literature
communist
labor
truly
gift
meal
proud
hundreds
normally
opinion
perform
liquid
motion
spray
taste
suddenly
warsaw
solve
1999
agreement
aid
plays
terrible
exchange
appreciate
cars
manage
leadership
uncle
upset
investment
parties
census
rare
defined
thousand
camp
pregnant
review
ends
statement
bet
shared
cats
instructions
dying
focused
benefit
bone
stuck
blow
basically
tax
rain
relax
majority
staying
manager
sad
forever
magic
copy
cooking
widely
seriously
doctors
link
##us
credit
absolutely
concerned
michael
girlfriend
internal
sky
90
analysis
300
islands
carefully
experiences
galaxy
nearby
29
lake
claim
correct
kong
conference
empire
favor
seeds
realized
pair
plus
feature
anger
fingers
ma
throat
luck
empty
organizations
actor
initial
forest
uk
walls
capacity
edge
towel
academy
naturally
films
colors
industrial
pregnancy
leads
tank
volume
display
prove
journal
paul
bringing
degrees
1998
mexico
firm
totally
obviously
bowl
responsibility
wound
brush
claims
pacific
italy
survive
branch
ex
hearing
spoken
reports
afternoon
smoking
strategy
visual
diseases
dear
equipment
allowing
princess
settings
projects
attended
techniques
letters
bear
chair
native
shop
doubt
shower
mainly
advantage
arrested
lab
powers
sensitive
port
cleaning
coast
greek
oral
actual
danger
democratic
flowers
label
peter
intelligence
chain
jump
bleeding
prefer
suppose
surprise
injury
mg
criminal
enemy
fellow
adult
increases
express
computers
decades
dose
factor
reduced
regularly
photos
characters
harder
hero
directed
authority
entered
hi
pot
##an
ear
remind
resistance
agency
keeps
paint
signal
vote
whenever
pro
thin
1997
cash
joint
numerous
unlike
victims
contract
cards
root
filled
kitchen
tool
turning
##ia
smoke
chicken
walked
stated
surprised
threat
apartment
begins
flat
artists
entertainment
nor
soul
provides
orders
##b
replace
initially
faith
neither
matters
ngc
3d
definitely
launched
capable
properly
70
bath
domestic
asian
stronger
tiny
exposure
senior
soldiers
45
dealing
crush
missed
applications
ingredients
grown
traffic
mad
assembly
identity
paying
weak
lay
receptor
clock
offered
bright
silver
younger
400
advanced
evil
transfer
testing
document
historical
breaking
remained
winning
replaced
syndrome
solid
pack
indeed
1994
primarily
tape
operations
restaurant
entirely
minor
agreed
seemed
engineering
infected
interview
los
teaching
1995
encourage
fashion
metres
ray
tough
youth
executive
##z
buildings
isn
patterns
wild
chart
circle
suffering
debut
password
arrest
cutting
millions
destroyed
worldwide
1996
cast
estimated
hello
mac
measures
letting
calories
shift
finger
affairs
flying
kim
planned
lights
typical
launch
serving
perspective
concern
gentlemen
owned
secure
victim
personality
prices
secondary
background
newspaper
managed
teams
routine
sodium
hungry
ah
shirt
amounts
rose
airport
treatments
confident
marry
destroy
carried
organized
palace
quit
agents
controlled
sites
spoke
##2
1990
burning
daddy
deputy
containing
picked
christmas
ladies
represented
concerns
gender
guard
medium
resulting
dreams
profile
creative
killer
combined
mixed
harm
syrian
##na
selected
weird
beach
fruits
storm
egg
31
breathe
chronic
journey
describe
rinse
breakfast
breast
buying
forgive
trained
atmosphere
customers
##f
immune
beer
observed
adults
invited
##1
##en
abuse
author
fluid
wood
birds
classes
ordered
desire
governments
identified
opposite
dish
existing
promotion
sharing
extreme
pattern
besides
exact
studio
suggested
involves
roots
mentioned
mistakes
noise
promote
chosen
remaining
laugh
institutions
wave
happiness
1992
farm
rates
advance
nerve
closely
engine
politician
formula
tested
visible
regions
assume
liked
expression
guns
knife
facing
processes
mirror
bomb
com
employees
commission
formation
mention
fields
friendly
suit
supported
runs
19th
coat
grab
noted
dropped
movies
folder
hydrogen
communities
experienced
mountains
35
blame
brazil
cheese
functions
witnesses
determined
massive
asleep
bread
teachers
challenges
everywhere
iii
dirty
fixed
meals
1989
awarded
powder
messages
giant
spirit
tight
era
represent
##ra
spain
marketing
falling
painful
proposed
roman
##is
request
settlement
nguyen
reducing
roll
southeast
route
twenty
orange
technique
vinegar
urban
william
chances
grade
relative
romantic
engage
listed
choices
obvious
armed
excited
depends
religion
bathroom
constant
thick
aim
robert
trials
pool
swimming
noticed
permanent
possibility
sending
hiding
promoted
split
annual
distribution
hanging
attacks
guide
manufacturing
mode
centre
commander
context
complicated
hat
usual
constitution
parliament
pleasure
storage
drinks
sat
pulled
dust
solutions
sentence
snow
1993
lee
sight
familiar
experiment
driver
effectively
inner
singing
cotton
reactions
container
height
vary
markets
compound
tasks
fifth
truck
accounts
literally
##al
recognized
1991
format
unable
policies
relief
20th
answers
championship
forgot
investigation
musical
##ka
exercises
theater
weekend
##ic
cm
illegal
swelling
jesus
sale
valley
christian
differences
significantly
trigger
category
providing
unknown
afford
ted
locked
loves
hanoi
houses
owner
golden
tokyo
treating
partners
machines
sing
soda
streets
territory
baking
tower
electric
gotten
illness
suicide
organic
fuel
sam
emperor
mask
occurred
promised
recording
presented
tongue
android
desk
excess
unfortunately
aside
duty
lock
linked
exposed
ultimately
immediate
print
consequences
faces
tour
architecture
blind
##0
procedure
lift
standards
drops
opportunities
mike
##ta
mess
businesses
chemicals
cloth
mail
microsoft
cry
hurry
bunch
dating
achieved
platform
strike
accepted
guilty
pan
washing
ben
hiv
navy
saint
buddy
dude
loose
sets
fishing
risks
refer
holds
rapid
struggle
theatre
adopted
technologies
videos
cooperation
figured
rub
stayed
saving
suspect
importance
fiber
jim
producing
intended
decrease
origin
creation
butter
jail
meters
appointment
external
understood
recommend
shaped
##x
nail
cbs
keys
extended
factory
increasingly
obtained
pour
shopping
carrying
urine
##v
charles
homes
officers
shoulder
documents
drunk
periods
positions
swim
philippines
therapist
earned
fake
roof
moves
net
##te
medal
subsequently
cloud
parent
mayor
mild
olympics
joke
suffer
hidden
tall
tone
independence
damaged
32
decade
visited
introduce
monitor
sunday
trick
committed
puppy
babies
granted
surrounding
planets
sharp
supreme
neighborhood
sees
genetic
weapon
structures
researchers
chile
discovery
mm
versions
strategic
poetry
contrast
claimed
customer
divided
graduated
largely
##man
detective
indicate
1980s
childhood
quarter
un
components
officially
sisters
owe
bite
experts
antibiotics
constellation
dancing
inflammation
rural
uncomfortable
heads
sector
1945
convention
insurance
stable
alongside
chose
fail
hoping
fan
henry
suggests
concentration
biological
drama
inch
sample
waves
equation
transport
lemon
rapidly
vessels
smooth
##le
mechanism
communicate
inspired
profit
applying
circumstances
crew
deeply
memories
troops
cops
stood
continues
calcium
episode
paste
rising
shooting
tie
wrap
aircraft
consumption
existence
kidney
install
refers
edition
perfectly
physics
headed
item
budget
del
brings
buried
harry
license
##ness
1988
centuries
fought
governor
substance
vehicle
cop
ill
sand
technical
constantly
papers
protected
fired
youtube
competed
excellent
producer
cake
apps
couldn
consists
entry
establish
hormone
doors
hill
nigeria
healing
ms
##la
ears
combat
debt
deserve
heading
featured
apparently
gods
##3
definition
academic
engaged
hardware
catholic
corporation
ships
comfort
gate
somehow
1990s
gradually
crying
potentially
row
formerly
disorders
loud
recovery
asean
admit
ease
proof
prescription
warning
attend
massage
resolution
talks
championships
roughly
assistance
rome
topic
colombia
formal
difficulty
experiencing
temperatures
injection
derived
browser
nausea
wondering
necessarily
revealed
witness
equivalent
intake
bond
battery
diabetes
ending
pounds
oils
fiction
75
reward
trap
gained
satellite
incredible
maximum
client
proteins
views
cable
movements
offers
plate
respectively
dragon
drawing
fundamental
orbit
##ne
coronavirus
falls
fund
inches
automatically
gene
1986
relieve
victory
egypt
aspects
mars
tip
1987
detail
blocks
##4
diagnosis
coach
remote
sequence
taiwan
britain
jewish
console
fda
marketed
moments
swear
assistant
behaviors
supplies
package
reference
holes
returning
charges
expressed
figures
removing
roles
stands
1980
banks
incident
tradition
element
philosophy
imperial
peak
shock
vaccine
composed
steal
winner
participated
candidate
transition
electricity
1970s
angle
supporting
survival
bay
injured
nuts
pages
stadium
electronic
guest
habit
physically
1985
cape
conducted
maria
performing
radiation
thomas
articles
deliver
manner
shortly
sudden
ticket
unusual
ideal
whereas
deaths
elections
particles
improved
issued
portion
reform
score
latter
150
fool
permission
reaching
suffered
argument
steel
belong
glasses
heal
stem
bob
cute
differently
gentle
lips
pants
receiving
regarding
exciting
pills
false
raw
audio
bound
frame
iphone
kick
acquired
latest
martin
flash
successfully
principles
recognition
richard
valuable
attached
bc
pocket
contribute
oliver
passing
chocolate
frequency
innocent
moisture
stain
wasn
exists
toxic
produces
facial
lean
1975
da
1979
desert
hired
symbol
component
focusing
watched
ml
nurse
sauce
corruption
concert
economics
minimum
pure
ordinary
collect
dates
offering
personally
turkey
bones
holy
joe
steam
cultures
essentially
representative
°c
friendship
matches
monster
relevant
checked
copies
installed
attacked
density
founder
deeper
waters
load
pen
prisoners
seeking
cure
forth
lungs
math
temple
temporary
florida
regime
colonel
journalist
sunlight
intense
smith
feeding
frozen
eaten
evolution
receptors
classical
occupation
potassium
spots
barely
sport
fabric
opposed
declared
participate
soak
universal
dirt
thirty
##ki
chairman
texas
activist
dedicated
explore
flag
rescue
wipe
##ng
editor
ph
prominent
server
consumer
entering
flower
index
friday
naval
1983
grandfather
printing
similarly
angeles
broad
humanity
plain
poverty
rooms
farmers
naked
facility
fairly
transferred
electrical
habits
joy
1984
captured
ignore
talent
creates
discussion
finds
piano
refused
mouse
##ma
charged
charlie
mathematics
moral
tournament
expert
limits
dollar
column
facts
abroad
moscow
burned
interaction
poet
attitude
classic
confused
contemporary
moderate
traveling
cd
worker
adjust
max
seed
wealth
##ie
48
acute
oldest
physician
additionally
involve
opposition
dynasty
disaster
networks
##5
represents
apologize
breaks
capture
cups
hardly
incredibly
ambassador
horses
lung
1982
governorate
everyday
forming
ho
ages
principle
activists
subjects
thailand
attractive
consult
supplements
1960s
faced
practices
crash
phones
sword
aggressive
shame
skip
argue
invite
tropical
branches
cheap
motor
alpha
monday
murdered
ate
ha
spouse
magnitude
nutrients
presidential
enemies
literary
##da
ad
distinct
homework
layers
pink
processing
reduction
writers
allergic
defeat
excessive
jehovah
occasionally
claire
connections
enzyme
locations
tab
abandoned
bacterial
goddamn
sub
kilometers
marked
rabbit
vomiting
champion
principal
vast
explained
outer
stole
tail
agriculture
artificial
belief
whoever
##ers
goodbye
nails
shadow
violent
gather
600
debate
conduct
meetings
sheet
sore
notable
stretch
crown
inhibitor
wow
grant
dishes
israel
bloody
drawn
measured
estate
ghana
interact
interactions
robot
singapore
bedroom
guards
somewhat
antibiotic
lovely
prescribed
rough
headache
stream
bike
confirm
covers
driven
underlying
boost
courts
fewer
rarely
soup
speaker
surrounded
##um
senator
dressed
fears
wire
feedback
tension
eliminate
multi
hunt
thoroughly
neighbors
approval
arrive
centers
grandmother
purposes
reflect
repair
semi
titles
classified
convince
rocks
accurate
beta
colleagues
concrete
soldier
vulnerable
wars
##os
laid
##7
1976
attorney
channels
chicago
guitar
brief
binding
drag
slide
virtual
aids
criticism
hunting
improvement
minds
accused
jane
passion
belongs
cage
follows
output
theme
cousin
gay
signals
tied
graduate
frequent
idiot
marine
treaty
obama
speakers
discover
disk
earn
input
consistent
rank
beings
makeup
mile
bags
ceremony
conversations
grace
wing
funds
bullet
clay
cluster
molecules
statements
aunt
protecting
pulling
ross
sooner
characteristics
chris
dutch
finance
sons
random
session
engineer
lesson
headquarters
maritime
peaceful
serves
bother
delivery
underneath
apparent
iran
stages
berlin
compare
doses
household
meditation
psychological
shell
picking
tennis
ought
##6
acids
crowd
desktop
expand
fate
francisco
le
operate
stability
vehicles
ghost
touching
beneath
considering
dependent
sciences
innovation
decline
brave
clubs
script
flavor
heavily
opera
regret
skill
define
examine
narrow
spectrum
cameras
extent
shoulders
800
alex
ratio
cuba
heaven
involving
forgotten
overcome
survey
vacation
arab
consume
expectations
checking
emotion
australian
influenced
chemistry
fbi
regardless
scientist
tracks
mama
folks
louis
panic
delivered
toys
olive
covering
pretend
santa
secrets
surveillance
dig
puts
boundaries
corporate
cough
courage
garlic
ruled
tooth
##ch
depend
adam
bell
exam
separated
ya
assets
brains
cabinet
update
cooked
saturday
argentina
mate
fans
shake
##9
##ri
commitment
pursue
kg
react
toilet
beans
extraordinary
expecting
lifestyle
log
facilities
infrastructure
phenomenon
shampoo
tears
practical
sake
64
jupiter
seasons
visiting
succeed
survived
1981
divide
grateful
lied
brazilian
grass
laughing
fantasy
fed
seal
defeated
diarrhea
isolated
clients
cognitive
rachel
settled
subsequent
1973
36
drain
minh
weekly
consumers
explanation
jackson
maintaining
telescope
trump
attempts
iraq
haven
telephone
yoga
pray
societies
tons
##ism
belt
printer
stolen
##w
1974
comment
darling
efficient
pandemic
sections
twitter
venezuela
1978
laboratory
strongly
anxious
pollution
scott
senate
communications
default
inflammatory
broadcast
controls
furniture
printed
celebrate
cuban
desired
distributed
employee
grains
marks
colored
residents
synthetic
uganda
alliance
canadian
crimes
adverse
beliefs
dried
rent
invented
nowhere
tablet
radius
trauma
handed
nasal
prompted
landscape
opens
wise
##8
cuts
titled
continuing
invest
ties
begun
clicking
depth
trusted
underground
boxes
gel
improving
placing
convinced
organisms
unlikely
variable
institution
joseph
lifetime
prevention
protests
silent
tumor
universities
enjoyed
humor
poison
usb
agencies
assigned
compounds
critics
purchased
pushing
reverse
awareness
contained
newly
presentation
threatened
wouldn
1972
administered
avoiding
respiratory
1939
steve
stressed
educational
laser
payment
gravity
defend
resulted
1970
balls
jealous
silence
closing
settle
toy
disappear
introduction
knee
##ko
plasma
samples
greatly
mutual
ants
agricultural
kidding
pilot
destruction
diameter
gray
guests
##th
acknowledge
acne
angel
consciousness
rash
speaks
stroke
appeal
raising
reputation
tube
absence
afghanistan
grain
sink
chi
interior
lieutenant
threw
affects
biology
privacy
searching
yo
afterwards
injuries
molecular
rejected
requirements
sarah
competitive
##able
paintings
admitted
compassion
ethnic
phrase
yard
caribbean
id
minimize
substances
chess
citizen
diplomatic
spreading
jimmy
kit
kraków
asks
persons
spaces
intellectual
loan
knees
nights
error
rush
collected
joining
outbreak
description
na
representing
1960
outcome
removal
stones
1977
commit
controlling
taxes
enable
hits
joey
rely
shelter
vet
associate
awesome
choosing
manufacturer
mystery
protest
sheriff
sweat
1st
expanded
tech
combine
funeral
scratch
wanting
woods
dozen
laptop
meanwhile
burns
string
zealand
65
alright
lessons
websites
99
daniel
jean
bars
evolved
assumed
believes
linux
maría
needle
punishment
safely
retired
trace
selection
hire
iv
##to
gap
nominated
recover
sought
abilities
attracted
badly
directions
disappeared
scan
stored
arthur
baseball
genes
poem
##rs
chamber
christ
dairy
oven
pushed
silly
ceo
extension
fortune
expansion
trading
velocity
ward
restore
awake
jews
sixth
texts
topics
circulation
housing
popularity
scheduled
stopping
threatening
vacuum
caffeine
dramatic
organs
registered
tracking
55
comments
reveal
sufficient
mi
plug
potatoes
corn
darkness
overnight
partnership
seats
##no
occupied
prisoner
revenue
summit
contest
grows
interface
objective
insects
pepper
reduces
drew
gloves
indicates
reasonable
##ine
monthly
resource
absolute
domain
panel
18th
advertising
extend
resistant
tear
viral
compete
dare
dye
keyboard
psychology
struck
supplement
axis
demands
chat
thai
bachelor
boring
detailed
insulin
sara
curious
elsewhere
percentage
ta
twelve
##el
1968
crack
delete
industries
upstairs
beef
fallen
honestly
nest
sustainable
fold
scrub
1944
cleaner
voices
witch
yogurt
devil
drives
shy
cap
topical
xi
mount
observe
stir
tissues
funding
##ya
comparison
rat
tries
ranked
trapped
bible
loving
obtain
viruses
1950s
38
comedy
extensive
hama
hip
judgment
painted
riding
smells
anna
gym
opinions
shares
spell
generate
preventing
crossed
generated
insert
ours
suitable
villages
alarm
bleach
experiments
ongoing
1971
proved
spiritual
albums
chapter
en
netherlands
proposal
creatures
finishing
lonely
patch
stops
filter
grave
neutral
wherever
replacement
guilt
stations
tickets
##wa
1950
conscious
reserve
33
ban
discussed
mechanical
regarded
rubber
trash
belly
collective
dies
traveled
discomfort
composition
entrance
tends
harmful
harvard
holiday
irritation
procedures
fatty
generations
peru
usa
##ni
instrument
responses
strategies
##ist
attempted
designer
indicated
johnson
sum
##re
entitled
investors
slip
strip
vital
1967
shorter
handling
hence
pig
publishing
qualities
1962
beating
junior
ruling
derivative
edward
intensity
allies
plot
trail
coal
inn
threats
attract
concepts
episodes
sacrifice
vitamins
champions
historic
productive
strengthen
throwing
actors
continuous
francis
informed
muslim
nigerian
surgical
##ro
1941
awful
chilean
parking
employment
federation
legend
##ba
bastard
converted
crucial
processed
strain
struggling
wheel
wooden
34
bronze
employed
kepler
rays
relaxed
steady
artistic
boil
candy
lands
molecule
visitors
daughters
pageant
flu
hunger
litter
1965
37
brilliant
exit
solo
counting
parallel
reviews
sweden
translated
ups
designated
divorce
enormous
regulations
collaboration
fox
pride
sheets
sorts
volunteer
addiction
mathematical
bo
li
lowest
drove
founding
nazi
stranger
argued
programming
et
remarkable
synthesis
dong
educated
instruments
priority
250
cambodia
depressed
intention
nasa
pitch
switzerland
tony
dvd
earliest
equally
mercury
merely
odd
sized
exhibition
runner
barry
diversity
engaging
passengers
1969
conclusion
currency
testosterone
egyptian
dominant
marie
olympic
pets
targets
alternatively
crossing
meaningful
resolve
succeeded
terminal
carrier
designs
detect
northwest
proceed
qualified
wii
1964
germans
hopes
initiative
uniform
hormones
puerto
clinic
landing
offices
tan
widespread
dean
environments
extract
invasion
os
releasing
suggesting
waited
disputes
preferred
returns
ugly
alexander
climb
dynamic
earthquake
flesh
proven
traditionally
categories
installation
slave
smiling
transportation
aged
elizabeth
essay
organize
participants
pc
refuse
residence
surely
terrorist
translation
victoria
aspect
heating
photograph
preparing
supports
throne
featuring
filling
mold
pill
professionals
snake
##ian
imagination
indonesia
lately
liberal
magnetic
metabolism
singles
surfaces
##se
42
fluids
gang
owners
specialized
spare
beneficial
borrow
characterized
collapse
database
mature
practicing
120
prescribe
anniversary
doc
intelligent
membrane
neighbor
stealing
vertical
accompanied
alert
arrow
backup
complications
males
sega
1963
describes
fantastic
grounds
weakness
demonstrated
gum
hunter
northeast
rivers
cholesterol
jones
scary
wax
borders
existed
kills
realistic
chase
dialogue
organ
usage
charity
fats
sergeant
barrier
clouds
judges
lighter
lists
shots
dancer
dioxide
efficacy
hung
tract
blocking
contacts
duke
enforcement
hospitals
neurons
purple
varieties
warned
wolf
assist
bush
healthcare
versus
95
dam
duration
heritage
inc
knock
regard
santiago
##as
dan
dentist
explosion
precious
representatives
challenging
firms
fort
screw
styles
wisdom
constructed
managing
reader
decreased
faculty
gates
impression
links
winds
hug
idlib
notably
pole
resist
spider
1959
dawn
quantum
superior
calculate
forests
marshal
mexican
populations
reaches
candidates
chip
circuit
invisible
portuguese
relaxation
tourism
1956
basketball
billy
importantly
logic
pressing
protective
touched
awkward
outcomes
repeated
slept
solving
1961
campus
chloride
passes
radical
recipe
sang
flour
pope
withdrawal
1958
contributed
danny
economies
linear
robots
satisfied
sexy
territories
viewed
advised
engineers
genius
shoe
spin
wings
embassy
pakistan
scored
thumb
wounds
carl
diagnosed
enterprise
kitten
lawyers
pin
theories
absorbed
atoms
esteem
stays
capabilities
functional
gentleman
jamaica
territorial
##ry
accomplish
emerged
tips
von
actively
ink
pizza
politicians
rio
°f
arranged
leather
acted
behavioral
provinces
correctly
horrible
affair
courses
pointed
retail
rubbing
suspected
assault
authors
balanced
closest
encouraged
gallery
guarantee
2nd
cave
examination
exception
remembered
wilson
gdp
gear
ruin
##or
1966
cope
creativity
scare
worn
establishment
grocery
preparation
wireless
absorb
grey
hoped
releases
##ha
costa
exercising
jar
nt
pleased
disappointed
encounter
feminist
roads
squeeze
assess
edges
engagement
spelled
starred
treats
distant
escaped
flows
triggers
circular
concentrations
consisting
denied
gut
inhabitants
manufactured
miami
promoting
rings
scroll
transmission
wishes
licensed
malaysia
pm
##ies
colombian
fleet
garbage
39
appetite
attending
efficiency
lip
magazines
monica
personnel
publicly
custom
exclusive
kenya
lasting
observations
calendar
elevated
ginger
newspapers
concluded
medicines
passage
prevents
replacing
reporting
walks
abdominal
behalf
detected
hook
21st
harsh
lens
1946
answered
compliment
jacket
whoa
coconut
crap
fancy
rolling
nerves
retirement
turkish
knight
minerals
rope
##é
basement
brands
calorie
discharge
scholars
1954
amazon
predict
rats
bored
clever
defence
explains
framework
jewelry
selective
bills
calcio
hosted
hurts
occurring
##ar
1949
counselor
flies
patent
swedish
virginia
##ga
1948
apples
motivated
nam
odor
participation
pork
protocol
publication
renamed
suspended
vaginal
cardiac
grid
locate
potent
restaurants
restrictions
cemetery
laundry
novels
votes
accounting
stairs
1943
approaches
difficulties
embrace
folk
fried
partial
scenes
snack
##ity
asshole
civilian
galaxies
globe
leaf
measuring
pace
router
sentenced
southwest
varies
bye
copper
electronics
heroes
itching
pie
triangle
females
happier
di
lt
poems
##li
##mi
casual
classification
constitutional
glucose
revenge
thereby
bonds
crops
dwarf
harvest
maintenance
masurian
silk
toes
wounded
matrix
odds
relegated
virtually
4th
demonstrate
desperate
ireland
perception
praise
stake
1955
drying
inspiration
perceived
peroxide
recall
urge
vera
1942
delta
relation
alien
classroom
discipline
dispute
dumb
mechanisms
warming
blocked
executed
maps
mineral
worrying
chips
kissing
connecting
dosage
effectiveness
garage
identical
operated
pad
ridiculous
curve
jan
railway
recovered
reliable
miracle
shapes
conservation
delay
diverse
enzymes
localities
monitoring
700
architect
custody
developers
posts
rejection
ultimate
disc
integrated
pulse
tag
vessel
billboard
concentrate
convert
deals
eu
flip
precise
vegetable
warmian
adventure
blank
circles
intend
tablets
tuesday
virgin
##et
bend
occasion
quest
rape
documentary
estimate
pencil
##j
##ol
43
bladder
fatigue
hopefully
ingredient
loop
wheat
anime
estrogen
export
mommy
spiral
boiling
cookies
freeze
gratitude
headaches
peoples
potato
staring
zinc
belonged
lighting
observation
1952
1953
1957
amongst
assuming
canal
logo
mothers
priest
shops
signature
conventional
memorial
palm
sizes
unexpected
blade
dimensional
glue
hitting
sandwich
variations
antagonist
attempting
matt
nick
towns
17th
3rd
experimental
notion
overseas
rude
contents
fee
juan
tobacco
##do
44
conflicts
labour
partially
temporarily
wrist
1947
creature
greece
prone
regulation
structural
evaluate
hearts
maintained
meter
seventh
##ton
1940
ballet
bow
coin
competing
confusion
emerging
enhance
indigenous
influential
invitation
jazz
jokes
manual
posted
savings
arrival
foster
guidelines
lid
punch
sheep
sin
bits
briefly
carbohydrates
magnesium
measurements
pharmaceutical
reforms
sacred
sometime
malaria
monkey
possibilities
rifle
aimed
vocal
relatives
wore
youngest
carpet
jumping
opponent
ownership
scalp
aren
breasts
elderly
racing
saturn
sentences
spoon
teaspoon
traditions
washed
clan
explorer
gifts
tommy
torture
cares
conditioner
delicious
drivers
involvement
consuming
modified
programme
safer
simultaneously
symptom
thrown
trunk
bubble
relaxing
bears
controversial
corps
deck
herbs
lightly
motivation
restricted
soccer
veterinarian
52
blog
equality
lets
morgan
myanmar
scent
fits
photographs
warn
commerce
exploration
legislation
noble
presents
pump
##de
athlete
atlantic
criticized
filed
manga
masters
moist
surgeon
##land
adequate
amateur
ed
socks
strangers
mining
moreover
flew
furthermore
pat
shade
trend
intervention
negotiations
thursday
complexity
prompt
rating
romance
squad
85
civilization
cleaned
genuine
sessions
targeted
47
aspirin
emotionally
enabled
expenses
posture
abstract
alter
dopamine
snacks
colony
diamond
dizziness
emissions
historically
hurting
midnight
narrative
transform
aloe
amino
behave
handsome
liberty
musician
quarantine
walter
burden
destiny
displayed
traits
72
partly
redness
bicycle
masks
mercy
trillion
consumed
buddhist
coastal
commonwealth
crystal
debris
failing
fraction
strengths
swiss
wasting
workout
wrapped
##ina
bandage
comb
orbits
pipe
refugees
wallet
##ter
pleasant
sweetheart
##ally
1000
kindness
lightning
sovereignty
curse
displays
elevator
substantial
##ca
brian
chandler
embarrassed
empathy
fusion
gathering
healthier
jumped
sexually
draft
fame
landed
binary
dialect
libraries
nahiyah
woke
austria
bucks
continent
exile
forum
lincoln
pillow
supportive
elite
gathered
induced
josé
particle
ranging
spy
successor
precisely
sensation
ceiling
mice
resort
substitute
tale
andrew
banned
carlos
emily
enjoying
intimate
wins
counts
hills
pronunciation
repeatedly
##za
caring
dental
distinguished
kevin
las
mixing
nobel
sadness
##ling
asthma
compatible
expanding
nitrogen
texture
convicted
distinction
graphics
ipad
liar
norway
quang
rational
achieving
inform
victor
belgium
chains
edit
intentions
shelf
symbols
wider
acceptance
adapted
alice
au
bbc
buenos
finals
miller
scheme
accessible
characteristic
duties
eliminated
honour
medieval
meets
mucus
scenario
unhappy
waist
farmer
hmm
outfit
strict
16th
boot
genre
hobby
productivity
slight
ukraine
www
footage
inhibitors
nevertheless
performances
rear
refrigerator
register
senses
contributions
dictionary
dominated
investigate
stimulate
towels
automatic
calculated
dave
dropping
fighter
il
playstation
activated
conservative
cooler
accidentally
beaten
cardiovascular
fifty
nancy
shave
tunnel
warrior
##less
couch
hydrated
islamic
measurement
organisation
profits
reflection
affecting
atom
corresponding
hd
hollywood
missile
preserve
shirts
bang
bees
kicked
lit
pal
platforms
acetate
administratively
boats
contribution
insane
pointing
prostate
suck
tricks
aging
bee
eh
interfere
legislative
pound
revolutionary
stains
stressful
transformation
kings
savage
visits
collecting
flexible
impressed
ranking
variables
estimates
johnny
lasted
serotonin
variation
decent
declaration
discrimination
ford
guidance
hated
loyalty
pigs
producers
skull
accomplished
considerable
fence
flood
jury
monsters
scholarship
solved
wondered
bearing
cinema
cleared
dense
jet
mysterious
outdoor
painter
situated
surprising
##ns
ashamed
cia
czech
distract
incorporate
ios
khan
thief
voted
worthy
deny
eric
gulf
packed
planted
rico
aires
assignment
processor
serum
toast
arguments
bishop
carries
colonial
detention
downstairs
hcmc
kate
losses
nathan
quote
urgent
##ce
cheaper
freely
jersey
monument
scotland
serial
sticks
albert
chrome
closet
worlds
concentrated
fibers
lesser
unhealthy
writes
zones
beg
damp
investments
passive
suspicious
thermal
toe
utility
blew
chaos
inventory
ip
listened
mint
responsibilities
trans
##ts
gaining
slaves
socialist
bold
consequence
easiest
engines
infant
nutrition
observatory
pronounced
tourist
bands
bottles
breaths
butt
debuted
eccellenza
execution
impressive
umbrella
wikipedia
affection
charts
contrary
labels
representation
seoul
steak
wealthy
acceptable
appearances
defensive
generic
lion
sweating
technically
unclear
welfare
##ge
46
bug
co2
enterprises
fifteen
labeled
mini
polite
width
1951
amy
consistently
destination
longest
planting
ram
rip
strikes
bugs
burst
deficiency
dozens
graduating
olsztyn
owns
sustained
1938
assessment
blowing
legally
premier
spinal
grief
jordan
oz
peel
sierra
4mi
gross
poles
prints
requested
tattoo
triple
agenda
approaching
beside
cheating
constipation
mum
papa
pose
responded
accepting
arc
carolina
dryer
fastest
freezing
robin
sealed
slavery
specialist
##sa
fatal
onset
winners
boots
eddie
errors
liberation
pond
preferences
rocket
simon
visa
##ation
abnormal
announcement
buttons
comic
discussing
multiply
offensive
shouldn
subtle
themes
ancestors
argentine
artery
consideration
divorced
intel
masses
assure
billions
consent
electron
generous
legacy
mainland
progressive
treasure
agonist
celebrated
cigarette
codes
compromise
someday
1930s
achievement
backed
congo
fi
minority
##id
appearing
banana
brick
evaluation
floating
focuses
guardian
han
hannah
incorporated
optical
retain
timing
allergies
bombs
carter
con
ft
turtle
workplace
arrangement
baked
cattle
colour
envelope
faint
hop
sole
##ate
encouraging
freak
journalists
setup
sphere
tightly
yield
51
descent
provincial
regulate
stating
climbing
dip
excel
interpretation
readers
salad
sends
slice
adapt
composer
coverage
ds
ltd
transplant
volunteers
coral
georgia
internationally
judicial
legitimate
lover
microwave
ranks
terrorism
trim
atomic
bites
handled
originated
tens
##ke
##va
altogether
diary
employer
implement
sensitivity
signing
statue
walker
wednesday
5th
loyal
pale
arrange
deserves
drum
epidemic
expressing
geometry
golf
prolonged
##ting
avoided
banking
flights
guinea
passport
pete
##ti
abdomen
airlines
apology
impacts
manufacturers
participating
plates
separation
tomb
translate
companion
cuisine
dimensions
drill
horizontal
irish
minimal
powered
transit
##co
customs
forehead
sculpture
siblings
taylor
evenly
loaded
municipal
nearest
adopt
amendment
anonymous
eve
myth
orbital
prevented
recipient
uprising
voting
##ja
bury
oxford
provider
41
attraction
bin
delayed
equipped
planetary
1918
54
highlight
hygiene
ruler
sperm
tendency
49
animation
blown
clinton
irregular
pause
ritual
shallow
trains
56
admire
ali
blend
distinguish
fled
republican
soluble
songwriter
technological
anne
arise
asset
developer
formally
frustrated
halfway
isolation
pores
reportedly
resembles
rhythm
severely
creams
jurisdiction
neo
oceans
portugal
susceptible
tribe
believing
criteria
influences
poorly
quantities
resume
unnecessary
##go
jin
patience
resident
suits
##ized
##son
achievements
conversion
exhibit
imagined
overwhelmed
passionate
ports
silesian
delicate
lecture
persistent
predicted
ruined
rumors
spirits
tourists
toxicity
1936
beast
improvements
stems
tense
darker
mario
pile
quarters
upcoming
fifa
highway
hips
investing
seizures
stepped
absorption
cigarettes
completing
imaging
lap
navigate
taxi
venture
xbox
##ey
andy
arguing
districts
itunes
referring
reporter
resting
tragedy
transmitted
worship
yourselves
##io
arctic
dump
quantity
responding
russians
twin
venezuelan
betrayed
colleague
corporations
identifying
invention
leak
madrid
screaming
swing
53
62
adaptation
chasing
develops
elimination
irritate
lakes
lunar
occasions
petroleum
pit
practically
szczecinek
1920
du
firing
instagram
nursing
adds
cord
differ
elementary
fc
functioning
ion
puzzle
roger
worries
1937
camps
gaming
genome
recommendations
scar
##me
1919
distracted
donald
howard
infinite
modeling
mortality
mud
zoo
15th
brushing
eats
fleas
ions
kidneys
knocked
omega
passenger
sticking
wildlife
certificate
hitler
jr
allergy
chin
convenient
dehydration
designers
embarrassing
nucleus
packaging
pokémon
profound
reign
reset
snap
describing
dressing
dual
micro
quietly
updates
verbal
arrangements
bid
damaging
findings
ignored
indicating
magical
reserves
sweetie
voltage
##at
agreements
arena
battles
crop
exports
gordon
martial
melt
penalty
shed
tumors
##ji
ba
basin
beard
clip
concerning
des
er
funded
northwestern
orientation
salary
scholar
##st
dialects
outdoors
pulmonary
williams
cruel
pdf
photography
transformed
weigh
##ide
##ion
##un
devoted
genesis
grams
implementation
comprehensive
dated
herbal
instant
protesters
tanks
blanket
obesity
peruvian
satisfaction
shield
sophisticated
thyroid
tolerance
beverages
bucket
chef
eleven
expose
mall
payments
soy
stocks
strictly
boom
bruce
collar
collections
craft
detained
directors
forcing
glory
inflation
integration
purchasing
reminds
sony
tomatoes
yeast
desires
fraud
graphic
updated
cherry
integrity
koszalin
planes
answering
bat
horror
logged
slower
arthritis
downtown
einstein
guatemala
lawn
negotiate
origins
politically
selfish
underwear
venus
addressed
emission
flowing
implemented
ken
overly
shine
swollen
thesis
trinidad
##ov
98
forty
invested
likelihood
maker
membership
missions
moisturizer
survivors
##q
boundary
cellular
checks
humanitarian
intermediate
oriented
parliamentary
upload
##ization
##ur
autumn
cooling
flush
jason
uefa
unity
arriving
auto
fights
helium
illusion
permanently
promises
salmon
thanh
tub
68
abortion
beam
colonies
infrared
lyrics
menstrual
reflected
roses
algorithm
contributing
discussions
followers
insight
promising
stare
toxins
tray
bowel
bull
caution
columbia
pneumonia
poisoning
restored
screwed
strongest
surviving
tune
##ite
advocate
affinity
clue
dignity
frightened
hawaii
heated
hybrid
shipping
smallest
submit
13th
contracts
dietary
disability
fairy
possess
spine
tables
trends
useless
##ier
aired
couples
designation
duck
horizon
outstanding
presidency
publishers
terror
theoretical
alternatives
denmark
expense
fees
grip
pairs
prey
scores
seas
servant
urinary
breeding
confront
dough
eighth
equations
fork
murderer
publications
stimulation
tick
vein
1930
cancel
churches
cow
immigration
lagos
alleged
ana
binh
crowned
drainage
ecosystem
jake
swallow
volumes
##il
1929
breed
diego
farms
immigrants
kyoto
peripheral
ryan
14th
coalition
managers
patches
shaving
starring
57
alternate
analyze
belonging
catherine
critic
exclusively
graph
hypertension
jam
samsung
sits
vaccines
05
addresses
campaigns
creator
declined
deposit
firmly
helicopter
jaw
scope
smartphone
##ment
10th
algae
certified
digging
fascinating
grades
jeans
opt
readily
rica
sunscreen
##ck
##ted
activation
atmospheric
determining
outlook
overwhelming
rabbits
tribes
catching
deadly
honored
imprisoned
kissed
mines
musicians
polar
portrait
unpleasant
ammonia
bent
citrus
corners
crystals
disputed
distress
dramatically
establishing
fails
fitness
lifting
lotion
shaking
warmer
59
airplane
coordinates
editing
excitement
gps
gram
positively
privilege
pursuing
sticky
unwanted
6mi
bare
genus
lend
relate
shore
triggered
unconscious
wales
##men
88
accordance
batteries
cab
explaining
rick
stretching
tremendous
##di
bilateral
claiming
forgiveness
humidity
nowadays
occasional
radar
stark
tender
th
therapeutic
##ble
##ów
1933
centered
expressions
homeless
limitations
realm
requiring
significance
admiral
bitter
bride
cited
detergent
expertise
handful
identification
interacting
laying
purse
stalin
subdistrict
consecutive
ecuador
locally
mao
portal
references
rises
travels
varying
vector
ethics
globally
historian
messenger
puppies
tomato
bamboo
bench
habitat
lane
loans
screens
58
challenged
cortex
emerge
farming
hypothesis
parks
surround
tablespoon
tastes
terrorists
uncertainty
unemployment
wears
##ley
##one
accidents
advise
ash
athletes
doug
lisa
possession
punish
remedies
severity
attributed
digestive
divisions
hungary
joints
outline
sulfate
teenager
valid
acidic
armies
heels
indication
obsessed
roy
switching
wang
##lin
1928
1935
capitalism
celebrity
demon
designing
flooding
migration
phd
rival
routes
spacecraft
teen
1932
containers
fossil
initiated
loses
luxury
metals
monkeys
stellar
suggestions
vienna
blast
choszczno
compress
fertilizer
flirting
heights
ibm
optional
pays
phoebe
pockets
scales
warrant
alan
attach
bulk
chemotherapy
coup
emails
embedded
hates
hepatitis
imposed
infectious
metabolic
pharmaceuticals
prosperity
satellites
talents
vegas
adams
adoption
cared
conscience
enhanced
frankly
fur
governance
intent
lasts
shark
steroid
supporters
twist
wells
##am
activate
applies
bait
bass
bullets
commands
nasty
placebo
propose
rwanda
toothpaste
underwater
ambulance
astronomy
controller
exploring
harassment
logical
neural
operates
paragraph
racial
rosa
tide
absent
altered
bust
consensus
decreases
fry
haiti
hosts
inhibits
junk
marathon
persian
propaganda
spite
##ize
anderson
consisted
consistency
guessing
hood
pennsylvania
praised
prayer
souls
specified
tablespoons
06
bind
capability
curiosity
exhausted
flea
lithium
mentally
perry
sugars
são
voiced
##chi
##it
##tion
96
bananas
bobby
handy
investigating
mindfulness
peer
preserved
altitude
astronomical
chuck
diplomacy
indians
smarter
traumatic
tubes
upside
villa
wages
wi
alike
avenue
cocaine
coping
drank
investigated
permit
photographer
vampire
##ft
bedtime
continental
evolutionary
gastrointestinal
nightmare
objectives
scream
veins
yöu
180
backwards
cabin
colleges
decay
dissolved
emphasis
insect
manhattan
matthew
researcher
sexuality
tensions
12th
abusive
cannot
cardinal
compliments
deciding
disagree
emma
iranian
openly
orbiting
surrender
warfare
beloved
broader
dreaming
ministers
patrick
profession
rotation
shanghai
gamma
grill
interrupt
operational
organizing
perfume
tent
valve
wayne
adjacent
asteroid
aviation
dessert
fires
floors
garment
pathway
piercing
rewards
stephen
wasted
accent
addressing
aims
fitting
instances
journalism
lewis
requests
abandon
alcoholic
fridge
instruction
oxide
pursuit
razor
thi
twins
wives
yen
08
computing
documented
jungle
lega
lime
pasta
rounds
selecting
transparency
##tic
conducting
controversy
dealer
divine
indoor
intact
mainstream
onion
proportion
reception
resolved
samuel
surroundings
talented
ukrainian
vi
deer
equilibrium
gases
hostile
interviews
philosopher
tactics
ankle
bleed
criminals
implications
innovative
merged
oblast
approached
bark
examined
gums
induce
mammals
mere
mosquito
negatively
peninsula
rob
sickness
unstable
900
angels
businessman
comparing
dull
economist
inspector
lily
retreat
waking
cancers
defending
harbor
johannesburg
kidnapped
lavender
tapping
7th
acquire
bubbles
carrots
destroying
detection
epic
gambling
inequality
kennedy
limiting
miserable
oatmeal
sung
viewing
1934
61
annoying
chewing
freezer
hurricane
meantime
organism
risky
subsidiary
tim
67
assumptions
autonomous
backing
elephant
garcia
ibuprofen
ignoring
majesty
permitted
phrases
renaissance
thrive
verify
breakup
cracks
crushed
namely
secured
separately
solely
beats
complain
dealt
earning
indo
laughed
merger
productions
provisions
shocked
##ll
gary
obstacles
ohio
orchestra
peppermint
philadelphia
pierre
residue
shadows
skilled
static
ton
6th
begging
diploma
hebrew
inevitable
momentum
noon
streaming
suspects
threaten
trucks
uv
##izing
ant
cooperate
determination
eager
factories
gardens
hardest
import
leo
peppers
preliminary
questioning
schizophrenia
stool
sulfur
advantages
commercially
conditioning
cycles
deaf
judging
martha
punished
qualify
stargard
##ah
aggression
barbara
incidents
jelly
jerk
pity
reflects
sponge
texting
traps
##hi
charter
columns
jeff
neighboring
newer
rains
rolled
specialty
accuracy
clark
davis
essence
gains
harold
heir
intensive
mistress
strips
transparent
trips
behaviour
cardio
civilians
cookie
decreasing
dimension
disabled
equals
fortress
glands
marshall
modest
muslims
rot
tales
amanda
chew
chlorine
onions
practiced
resigned
sectors
sedative
studios
susan
timeline
understands
1922
algebra
antibacterial
competitors
cruz
deposits
hid
lamp
mushrooms
phoenix
publisher
scissors
screening
##ze
crust
downloaded
hungarian
inhibit
noodles
porn
scratching
cavalry
cube
digit
diplomat
israeli
mistaken
nonetheless
org
peanut
shells
stack
uncertain
##lo
##nt
1912
array
assumption
bro
cent
diagnose
gesture
hemisphere
hostage
informal
insist
rebuilt
sensory
submitted
66
aluminum
dots
enables
estradiol
forbidden
fungal
madam
massachusetts
ointment
optimal
publish
rebellion
refugee
respected
soothe
yearsactive
accordingly
bipolar
discontinued
hosting
imported
intravenous
lacking
nut
priorities
reveals
zoom
01
allen
annie
astronomers
attributes
basket
boiled
citizenship
credited
decides
diagnostic
distractions
facilitate
fathers
introducing
nurses
paulo
switched
typing
7mi
alleviate
ann
austrian
broadcasting
cathedral
celebration
electrons
fragile
insomnia
mechanics
panama
patrol
prototype
strains
sydney
##berg
2mi
barrel
barriers
complaints
kinda
margaret
min
murders
renal
reply
vocals
associations
elevation
hank
indoors
likewise
perimeter
scars
telenovela
77
hairs
insisted
recommendation
relegation
revenues
salts
seemingly
segment
slope
soothing
tackle
tiger
torn
walt
1900
1914
63
ar
blister
collapsed
congestion
departure
dismissed
elder
interactive
orally
paths
predominantly
recipes
stiff
traces
upward
veterinary
entrepreneurs
interpreted
margin
motors
philippine
servants
1927
attacking
draws
drawsko
frost
greenhouse
nephew
psychologist
sail
antonio
colin
communicating
distraction
governmental
homs
jesse
mediterranean
municipality
ranges
saudi
seller
sensors
slices
ultra
undergo
architectural
enrolled
independently
inhibition
loneliness
loosen
mentor
pee
realizing
remedy
suggestion
weights
wished
yelling
##ville
86
employers
gb
instantly
marijuana
nap
observer
premiered
rainfall
reconstruction
sunny
comparable
counsel
diagram
encountered
erase
finite
governing
hai
havana
hobbies
jay
nebula
pla
registration
reminded
sportiva
widow
abu
arizona
bce
cargo
cents
coma
fortunately
mankind
manufacture
ninth
phenomena
probability
remembering
##ium
algorithms
confirmation
doll
inter
lethal
mister
mole
retained
assertive
athletics
blessed
combining
grandma
hasn
injections
lining
ra
shrink
supermarket
tier
73
ctrl
denial
erosion
hammer
jong
lawrence
luis
microbes
needing
quitting
receives
sean
socially
sting
subway
syrup
transactions
unsure
##ny
1925
administrator
anytime
appeals
brighter
congratulations
departments
employ
florence
guaranteed
islam
jerry
lifted
lima
races
sinus
snakes
sprinkle
sue
voters
wage
blisters
demanded
dot
expedition
extending
extends
hormonal
inability
reproductive
ridge
watering
04
76
acquisition
anemia
buddha
burial
cambridge
configuration
cooperative
hiring
hoa
makers
mirrors
offense
prosecutor
rna
07
1913
aboard
brooklyn
buyer
cinnamon
cpu
developments
guided
melting
metropolitan
nonsense
pressed
shifting
taller
tuna
benjamin
bothering
comet
conjunction
luminosity
marrow
sporting
tops
witnessed
##ir
1924
armor
concerts
deficit
dive
elbow
inherited
linda
oily
philosophical
portions
putin
sd
silesia
stuffed
systemic
visualize
vs
84
annually
beds
boxing
demonstration
deng
dependence
entrepreneur
fountain
ipod
pablo
pretending
promotes
raymond
respective
restart
stubborn
thread
varied
advances
colours
crowded
hotels
operator
pearl
religions
respectful
tempted
venue
boarding
c2
chick
coincidence
completion
gravitational
interval
lazy
portable
rounded
sounded
1921
ace
borrowed
donated
fabrics
ideally
jessica
lenses
penny
plaque
privately
suppress
wheels
79
advisor
antibodies
boards
considerably
drawer
fog
gauge
helen
meats
mri
ottoman
phil
toothbrush
viewers
101
availability
breakdown
cheek
efficiently
filters
fulfill
integral
metaphor
pinch
shifts
sri
teaches
teenagers
thirds
tran
accessories
accountable
angles
binds
chapel
christians
commissioner
confession
enters
hamster
indirect
karen
quicker
seeks
struggles
130
82
8th
consist
dung
firefox
goat
impress
improves
mill
nato
raises
tyler
##wood
1917
analog
appreciation
bases
cairo
cheat
chen
complaining
iodine
knights
lowering
manipulate
pyramid
reserved
spotted
wagon
workshop
1920s
ally
animated
bacon
bra
counseling
cried
emphasize
pads
reads
thicker
tibet
yards
09
aleppo
demanding
ecological
franchise
honorary
janeiro
nicholas
sprays
striking
sustain
thea
volcanic
##by
anesthesia
bulb
filming
genres
grammar
https
metre
pa
pardon
pharmacy
printers
refined
reminder
allied
architects
bias
chairs
coordinate
coughing
distinctive
dreamed
economists
friction
frustration
graduation
limb
milan
napoleon
queens
warriors
whilst
accurately
bonus
dial
diets
fixing
interference
kittens
labs
silicon
synthesized
vault
violations
##be
##ler
##les
91
dresses
empress
evolve
forecast
precision
regiment
reject
repeating
se
stamp
terribly
toronto
violation
wool
1910
71
antibody
collectively
consoles
flexibility
heroin
insult
luke
migraine
providers
spit
thirteen
unprecedented
unsub
wired
1931
ads
cameron
defines
distances
dynamics
gland
honesty
itchy
jealousy
laurel
ounces
systematic
toss
warts
##ous
alzheimer
chambers
eagle
elaborate
favorable
hu
indicator
medals
robbery
sells
sherlock
someplace
streams
alfred
ambitious
buddhism
charming
chores
corrupt
entity
ester
fiscal
ian
professors
questioned
sins
sour
underwood
valued
variant
vascular
##ow
analysts
artwork
destructive
goddess
interpret
nickname
opponents
oranges
roller
seizure
uncommon
##pa
1923
biopsy
chopped
complaint
confess
consequently
construct
consulting
deployed
dissolve
ensuring
heavier
justin
laura
leverage
minus
navigation
restoration
saigon
seized
speeds
transported
ugandan
##ek
350
continuously
disposal
elastic
homeland
kaliningrad
marker
monetary
optimistic
paperwork
poznań
satisfy
sławno
97
angela
audiences
badge
charlotte
convincing
costume
dc
defining
finch
hack
imagery
inappropriate
irritated
jacob
pollen
rotate
ruins
teenage
11th
94
atlanta
connects
coward
damascus
entities
ep
flame
ladder
loser
lucy
nodes
portrayed
vincent
chancellor
dragons
endangered
generating
inspire
installing
kelly
physicians
platinum
ribbon
ss
warmth
alphabet
autism
coordination
dragged
eternal
fella
fictional
genetics
mattress
mighty
perceive
spiders
360
dominican
ego
literacy
needles
notebook
protects
spends
sponsored
tolerate
travelled
wholesale
arteries
bridges
cardboard
chop
cleanser
divisione
failures
feared
feminine
fist
harmony
loading
nationality
pine
##ee
approve
astronomer
autonomy
farther
finest
foolish
ulcers
edited
extinct
illnesses
messy
milky
morocco
neptune
oak
overdose
progesterone
radial
recognizing
residential
strings
1926
89
attitudes
baker
butterfly
considers
extraction
fighters
fungus
gestures
preference
teddy
trafficking
vu
commissioned
probe
rage
regulated
regulatory
sa
sweater
tragic
washcloth
wizard
78
adhd
carriers
colon
enabling
fond
humble
layout
matching
michigan
minded
oath
opioid
partition
persuade
recommends
settlements
strengthening
thorough
911
anthony
balloon
batch
biting
celebrating
fade
ghosts
rebuild
theirs
whip
##ve
110
breakthrough
coins
disney
ethical
regards
reservoir
soundtrack
arabia
candles
ccp
cider
directory
foundations
herschel
imports
motions
predators
rail
ratings
suitcase
thinner
tin
##ai
##ski
##ty
backs
bless
downward
foreigners
ghanaian
icloud
inserted
methyl
mit
poster
potter
rocky
salvador
servers
stove
tunisian
acetaminophen
conspiracy
contaminated
convey
escort
excuses
figuring
font
grandpa
parameters
peers
shooter
sudan
92
arrives
calming
cracked
hers
marty
parish
reid
shrimp
soaking
spelling
temptation
vague
140
74
bedding
bullying
cheeks
compact
consultant
contacted
halls
infants
leap
nomination
packing
swab
telescopes
weaker
1940s
allegedly
champagne
depicted
fundamentally
holmes
larry
physiological
spinach
steep
sterile
worms
accommodate
anesthetic
grasp
holidays
imprisonment
initiate
proceeding
scattered
searched
spices
tai
vocabulary
yell
##ura
03
afterward
decorated
giants
killers
parker
poisoned
rebels
rumor
suicidal
suited
transaction
##ana
##ner
2000s
exhale
expelled
geography
injected
millennium
nm
obey
pesticides
scandal
shifted
syringe
uterus
barcelona
cables
derivatives
differs
founders
horn
instrumental
justify
kits
lacks
palmer
purely
raped
renowned
##ists
accompany
compromised
constraints
ecosystems
endless
favour
inhale
maid
marcus
mortal
mounted
mythology
op
ripe
shiny
statistical
steroids
straw
supplied
ultrasound
yang
69
baltic
cliff
competitions
deemed
ethiopia
houston
novelist
preparations
rescued
sensor
shin
spill
unfair
świdwin
83
abbreviated
bartoszyce
belgian
clearing
conviction
crab
greg
intersection
investigations
ooh
relating
saturated
seafood
sec
spicy
##yl
160
accomplishments
argues
canvas
dos
geographic
intervals
machinery
maternal
monsieur
pioneer
plague
siege
summary
81
athletic
aye
builds
charging
dab
finland
genital
guts
intimacy
joking
mosquitoes
mutation
newton
organised
psychiatrist
rebel
sovereign
spectral
tempting
troubled
troubles
writings
93
9th
bump
candle
condoms
grabbed
jamaican
mites
mutations
predecessor
presidents
professionally
requirement
soaked
suite
tenth
topped
yuan
##rd
02
airline
attendance
defeating
drums
exceptions
extensively
greens
incidence
melted
networking
phosphate
prussia
psychologists
raid
relay
relieved
robbed
shipped
spinning
targeting
toll
usd
assured
exams
louise
madame
missiles
nutrient
progression
removes
scottish
seated
sneak
steer
therapies
thereafter
watches
withdrawn
##line
betty
caracas
combinations
confusing
constituency
cult
der
distribute
dock
donor
earthquakes
eliminating
foam
gaps
gideon
gmail
hometown
overweight
paradise
presenting
username
##sh
brightness
broccoli
climbed
dennis
doctorate
fluoride
foreman
immunity
nelson
netflix
overhead
percy
surprisingly
tanzania
warehouse
authorized
cabbage
clearance
counted
delivering
equity
festivals
ivan
katie
lined
messed
messing
metabolite
occupy
philip
reef
tortured
##ut
abraham
cam
casino
clues
cramps
crater
cyber
debts
disturbing
douglas
elena
fertility
filmed
hollow
infantry
liquids
noises
nutritional
reflecting
regimen
secretly
slipped
stretches
thirsty
tuberculosis
weekends
aerobic
blaming
copyright
deceased
diamonds
fellas
float
homemade
lamb
lebanon
leone
lions
mango
museums
remainder
sweep
theft
towers
additive
carol
commitments
compression
displaced
extinction
fiona
franklin
harvey
heartbeat
households
kernel
manuel
roosevelt
stanford
unesco
unions
wrocław
zip
##ria
bombing
cereal
cues
discount
euro
footballer
forgetting
lobby
nepal
née
reporters
sketch
slot
touches
tribute
bangladesh
cancelled
canned
careers
deliberately
disappointment
eczema
enjoys
invasive
java
karl
moses
mrsa
noticeable
numb
orthodox
patented
poses
pressures
prestigious
pricing
retention
skirt
sworn
vitro
wires
##que
chili
clusters
confrontation
formulation
luckily
offshore
picnic
pistol
raining
sanctions
simplest
ticks
trainer
##field
babe
bean
dysfunction
folded
haircut
individually
nes
observing
outlets
threshold
tracked
unlock
##han
barn
camping
danish
freestyle
hay
oxidation
strokes
traced
bake
bathing
calculations
conclude
delhi
folders
impulse
incentives
kitty
liking
liu
marrying
meta
nacional
nationwide
poured
prohibited
psychiatric
smelling
wandering
attachment
coke
commune
downloads
electoral
gardening
neat
packages
simpler
submarine
sunset
typhoon
wonders
##ff
1911
appealing
carrie
dinh
disrupt
documentation
excluded
exterior
grandparents
merchant
metric
mindful
posting
purchases
squash
suspicion
testimony
vegan
welcomed
##si
87
arcade
bore
buyers
closure
colorado
earl
extensions
fu
fuels
mon
parade
pathways
posed
prayers
recordings
renewed
russell
saliva
starving
substrate
supervision
swift
virtue
vladimir
whites
##au
archive
asylum
blades
cement
donate
genocide
obtaining
poll
reasoning
rican
ron
sores
spontaneous
stimulating
succession
tibetan
treason
upright
wolves
worsen
bloggers
buildup
catalogue
compensation
compost
developmental
functionality
gabriel
glow
goodness
gryfice
intestinal
inviting
metro
packs
prostitution
rows
shades
sharks
##tor
abundance
acoustic
civic
contributes
cosmic
declare
exhibited
formats
grandchildren
hats
ideology
initiatives
instructor
julia
runners
spike
stepping
temper
tunisia
viet
abused
bypass
crashed
freaking
genetically
globalization
lice
moore
nicely
panels
rated
ribs
shorts
slowing
swimmer
##ius
affordable
artillery
broth
christianity
coupled
ct
degradation
drought
frederick
lateral
mobility
portfolio
presenter
restrict
soften
springs
terrain
terrified
wiped
##rin
##ss
9mi
administer
anchor
convenience
copied
crude
determines
dislike
exhibits
gorgeous
gothic
inspiring
interrupted
lance
nitrate
norwegian
obligations
policeman
precursor
rod
saline
stance
supper
##bo
##shi
##zi
amid
appreciated
browse
carmen
cyst
interviewed
kafr
noah
opposing
phu
romans
sober
stanisław
suspension
teens
violated
wart
weed
announce
arrows
betray
bloom
bluetooth
christopher
condemned
digits
doubts
emergence
flames
fracture
hectares
highness
mindset
pilots
problematic
rack
responds
spark
travelling
tricky
##ive
anatomy
censorship
demons
duc
encourages
fragments
frontier
gasoline
investor
malcolm
negotiation
orphan
penal
railroad
seattle
sequel
span
##ho
abundant
bastards
bully
charcoal
editions
flare
happily
impaired
laboratories
laos
mp
nightmares
pillows
pipes
pus
tire
withdrew
##ku
acres
aligned
cheer
discoveries
dj
legends
shining
vodka
whale
##pe
apartheid
bumps
coating
collision
conclusions
dictatorship
inhibiting
missouri
motorcycle
nineteenth
parasites
plateau
rainy
theorem
turner
unified
wheelchair
##nd
##ot
breastfeeding
cart
exotic
genuinely
geographical
html
jon
keen
leukemia
niece
oval
simulation
solidarity
tunnels
whales
acknowledged
algerian
backyard
benzodiazepine
bydgoszcz
cleanse
corresponds
dragging
favourite
fetch
historians
lawsuit
norman
norms
remover
rolls
scoring
scrape
shaft
alley
burnt
commanded
confined
currents
delegation
friendships
learns
lovers
lucas
mtv
orchid
penguin
periodic
premiere
retailers
sixteen
tones
viable
visualization
wrinkles
5mi
americas
brussels
cambodian
capita
clerk
crosses
cured
darwin
dividing
dumped
grandson
journals
mega
microphone
monastery
orleans
projected
rap
reinforce
respects
shoots
suffrage
undergoing
##he
##im
bio
blamed
coworker
credits
disable
dug
editorial
eldest
essays
explored
fashioned
gaze
heel
intercourse
irrigation
jefferson
jung
ligue
livestock
marking
pornography
prosecution
refrain
tidal
authentic
bolt
caesar
drawings
evaluated
excellence
gryfino
hint
isolate
julie
nicotine
primitive
retire
revealing
rivals
skinny
survivor
symmetry
withdraw
ashes
committees
congressman
dangers
demonstrations
ethan
frog
fungi
highlands
hue
illinois
illustrated
inadequate
obsession
ranch
segments
storms
textbook
timer
1908
cole
countryside
democrats
enlarged
exceed
feces
fortunate
frames
iso
khmer
parked
phosphorus
polymer
potency
recurring
refuses
resignation
rituals
scout
sqmi
ye
##ica
##ised
adjusted
desirable
disturbed
drift
imagining
inferior
jerusalem
locals
manchester
manners
massacre
neurological
pancakes
protagonist
seasonal
sliced
termed
unfortunate
urged
uruguay
##mo
algeria
auction
cycling
grease
herpes
hunters
icons
implies
instinct
lithuanian
maintains
manually
nude
recycling
republicans
richer
spice
template
ultraviolet
volleyball
125
archives
blonde
browsing
canceled
celsius
comedian
coulson
countless
dash
defended
derek
fishermen
fred
guides
helmet
hiking
legislature
obligation
regain
sire
synagogue
upgrade
##ay
##ye
assisted
brigade
bud
calculation
castro
ceased
contested
deserved
execute
ham
ideals
kicking
mapping
necklace
pimple
praying
precededby
reservation
roommate
rotten
salon
steven
supernova
thieves
traitor
activism
aftermath
arbitrary
cane
charm
cows
deepest
herd
numbness
organizational
palms
paralysis
preservation
qualifying
recovering
reviewed
robust
swallowing
symbolic
vulnerability
1905
apollo
appropriately
associates
buses
comfortably
daylight
embarrassment
favors
graves
kansas
ki
kołobrzeg
mandarin
pots
riot
singers
sucks
surveys
temples
terry
assembled
coined
comics
contagious
costly
deadline
diving
duchy
handheld
launching
listing
nang
petition
poker
radioactive
sadly
sincere
ski
tags
turtles
whistle
yi
##bi
##head
##ino
3mi
accustomed
athens
automated
broadly
curves
differential
limbs
linking
miguel
mississippi
naive
passports
prospect
ragnar
specially
sympathy
thickness
##der
adventures
ambition
associazione
automobile
beforehand
cautious
condom
corpse
cortisol
cruise
decree
gossip
info
iris
misunderstanding
mob
monitored
occurrence
pains
picks
proposals
punk
quoted
traded
woo
450
androgen
antarctica
appointments
ashley
explosive
flaws
maximize
membranes
microscope
preview
strand
stripped
titan
watson
##sis
adapter
brightest
brutal
cavity
cease
deleted
doctrine
dome
downloading
electromagnetic
hallucinations
leafy
mason
perfection
reefs
rehabilitation
reproduction
sandy
succeededby
vent
weakened
amber
berries
brass
bulbs
cartridge
circus
clots
cooper
cracking
dermatologist
dining
elders
jonathan
neil
oscar
ripped
rulers
scenarios
successes
teresa
thermometer
##ping
admission
aquarium
blows
cakes
disabilities
fisheries
liquor
nu
ordering
oregon
passages
penicillin
physicist
prussian
bargain
casting
erected
exhibitions
gifted
harmless
harris
identities
inclusion
juices
linguistic
nina
prima
rally
sibling
spectacular
straightforward
sunshine
supervisor
##den
##jo
adhesive
austin
barack
blankets
democracies
easter
maggie
marketplace
mist
recognised
repression
stained
sushi
universidad
weaknesses
##lla
##ul
biodiversity
burma
casualties
cubes
digest
digestion
donation
exposing
foil
gameplay
hierarchy
hose
instructed
lesbian
merit
motivate
ounce
penguins
possessed
stade
struggled
tours
variants
vegetarian
##ise
##ls
antihistamine
assassination
authoritarian
benign
cheated
chickens
definitions
eligible
ellen
flee
freedoms
fulfilling
influenza
isaac
kidnapping
locker
pension
pouring
proximity
recalled
vanilla
##est
##owo
##wo
##án
2021
abuses
adobe
bundle
carbonate
choir
critically
educate
exploit
flirt
hans
lengths
poets
proton
superficial
thy
advisory
anticipate
audition
beth
buck
feathers
hazel
judged
lecturer
mediated
metabolites
nsaids
organisations
parkinson
prodrug
revised
rooted
rushed
shortness
sided
speeches
storing
tenure
thankful
tilt
ulcer
wavelength
yahoo
aliens
c1
chapters
curriculum
curtains
eclipse
examining
explicitly
itch
les
modify
moroccan
y��u
##ps
bricks
cartoon
chamomile
conferences
contamination
creepy
descendants
disasters
disgusting
drone
faithful
graham
hostages
hub
maryland
minecraft
ming
moss
negotiating
preferably
pulls
pursued
simplified
sugary
tampon
tenderness
wrestling
chan
commented
connor
constructive
evident
floss
formulated
loads
memorize
michelle
paranoid
premature
recruited
suppression
zambia
blessing
calculator
clarity
competent
constitute
drown
financially
gradual
incentive
inclined
moons
nationalist
pins
robinson
screenshot
stan
voluntary
willingness
##ad
##led
1915
acceleration
anticipated
collaborated
congressional
dancers
debbie
discrete
ecuadorian
honors
inspection
institutional
mekong
ned
precipitation
proliferation
resonance
sanctuary
sensations
unrelated
venice
##kin
240
aesthetic
catalog
chunks
contestant
coworkers
decimal
echo
explosives
hatch
lectures
liters
ls
marines
poultry
thigh
tpp
##gi
aristotle
brad
celestial
chromosome
cylinder
deter
exchanges
flags
homicide
ineffective
kamień
nickel
pedro
plastics
rebecca
reed
ser
seth
shakespeare
starling
steering
surprises
twisted
zimbabwe
łódź
##ger
##ón
11mi
1500
angular
assemble
backward
bonnie
donors
elephants
endure
ethanol
felicity
fries
gotham
holder
housed
insecure
josh
listener
loosely
manila
murray
renewable
richest
rinsing
sediment
sync
thighs
trailer
transgender
vapor
applicable
complained
curved
declining
dominance
economically
explode
insufficient
lanka
lydia
manages
manipulation
philosophers
pupils
recreational
relocated
rig
sequences
strands
strive
sunglasses
telecommunications
terrestrial
terrifying
twentieth
##nia
accumulation
advocates
almond
carved
ce
championnat
clarify
compass
cubic
disturb
fellowship
ivory
ji
legendary
lighten
mushroom
noting
outlet
peaked
periodically
powdered
proceedings
roma
stabbed
yale
##tte
1909
afro
arsenal
autistic
belarus
blake
boxer
cafe
colorful
contracted
cue
fitted
geneva
ignorance
incorporating
jogging
peas
precautions
reacting
recruit
sultan
supposedly
accounted
allegations
antidepressants
arises
banner
bathe
capsule
cravings
drained
drowning
endorphins
hr
irritating
knives
locks
mantle
metabolized
mongolia
monk
offspring
peptide
prescriptions
rendered
rigid
smartphones
spreadsheet
sufficiently
toner
verse
aiming
analyzing
anh
breach
cerebral
chairperson
chemically
commodity
cowboy
cultivate
deposition
flavors
helpless
hurdles
laptops
lowered
manifest
observers
patents
pentagon
portraits
rainbow
rodríguez
salicylic
subjective
tighten
tofu
urinate
venom
verb
volunteering
workforce
wu
##rt
##tes
1904
aaron
assassin
assignments
clinically
colder
coloring
commercials
cooled
craving
damages
devastating
feast
gauze
grapes
holocaust
impacted
monks
naming
obese
recession
reluctant
remembers
shout
slam
sponsor
stefan
substantially
verdict
weeds
1901
aggregate
bloodstream
desperately
ebola
enlightenment
feeds
hesitate
highlighted
linkin
magnificent
mia
midst
modes
monopoly
mutually
persecution
reactive
reese
resemble
retrieve
speculation
subjected
tribal
violet
wan
warfarin
##ong
airways
bizarre
capitol
continually
conventions
courtesy
equator
http
jinping
kingdoms
negativity
puberty
resilience
saves
shaw
swings
tapes
##ea
bomber
caps
classmates
collagen
consciously
dallas
earnings
fertile
germs
grammy
hubble
inflamed
instincts
lymph
mat
meds
molly
necessity
newborn
ngo
positioned
receiver
rode
sixty
vegetation
##á
bangkok
bitten
discharged
doubled
elegant
elevate
gong
inexpensive
irrational
osaka
outbreaks
pelvic
possesses
shelves
sympathetic
transferring
unsuccessful
visions
1907
backpack
caves
cleansing
confronted
conquered
criticize
curry
invaded
lukewarm
malawi
mesh
predictions
promozione
rag
sailing
skiing
smoothly
steadily
sustainability
tactical
tonnes
transmit
visitor
vistula
yields
##cy
##dy
##ish
1902
analyzed
andrea
delegates
diabetic
ecology
es
impose
instability
luggage
misery
monuments
noticing
parasite
pathetic
phases
revival
shortcut
theatrical
undergraduate
upwards
villagers
zhang
##zo
advancing
antiviral
backgrounds
barney
battalion
creek
directing
draining
editors
encounters
exceptional
gloria
hindu
illegally
intentionally
interventions
lam
leonard
lithuania
perspectives
practitioners
proposition
relies
reversed
rotating
scarf
thrilled
1916
adaptive
asteroids
białogard
bogotá
byzantine
comrade
cursor
discovering
duct
fascinated
lessen
marco
pastry
patriotic
populated
proprietary
roast
snapchat
squares
stretched
ussr
witches
##ds
3ds
alaska
analgesic
busted
catalyst
celebrities
conceived
demographic
enforce
envy
forbes
governed
hatred
imaginary
incomplete
interrogation
lesions
liability
peculiar
pirate
prediction
proves
quarantined
seize
sunrise
swept
swipe
thompson
##ron
agrees
antidepressant
apec
biography
bowls
carbs
cola
crawl
eyed
finishes
flora
frequencies
insights
militia
myths
norm
outward
peacefully
pirates
profitable
prompts
rogue
runway
saul
scoop
sleepy
spraying
tendon
##mer
##ure
##ó
accessed
archaeological
den
descended
discouraged
engineered
fernando
honduras
indies
jacques
juvenile
leon
nsa
pham
porch
psychic
routinely
shortage
specialists
temporal
trait
unveiled
viewer
vigorous
warden
##ky
##sen
advocacy
boris
chill
dealers
exploitation
favored
foul
gallon
gdańsk
generates
groom
hamilton
healed
invent
kang
madness
median
mesopotamia
mimic
moisturizing
mt
mustard
pests
pops
registry
rented
shouting
squadron
tobago
volatile
whiskey
worthless
##isation
abc
africans
apologies
borne
duo
escaping
eyebrows
highlights
hugo
inevitably
inorganic
intuition
latitude
lava
nairobi
nationalism
northeastern
packaged
pianist
planner
priests
puzzles
rand
rim
settlers
tennessee
testify
thoughtful
wuhan
wyatt
##ford
90s
adviser
anxiolytic
blockers
bodily
centimeters
circuits
combines
conception
confuse
diaphragm
fierce
handles
holdings
integrate
mandatory
morphine
nana
optimism
ovulation
penetrate
petersburg
poke
pools
rapper
reacts
refusing
relates
sap
seconda
supplier
thirst
void
weighs
wilderness
##ini
##ita
benzodiazepines
bolivia
committing
detroit
dickon
edible
explicit
extracted
filthy
floods
glorious
goats
grape
inhabited
inmates
inspect
intellectuals
leaning
lou
melbourne
nicaragua
noisy
proving
routines
safest
scanning
settling
shinoda
shocking
sim
smash
stakes
url
whatsoever
wrapping
##ful
abe
algebraic
bile
bunny
caroline
citing
cleaners
compassionate
compiled
compressed
coronary
cousins
dehydrated
descriptions
diana
drilling
enjoyable
enthusiasm
grounded
hydra
indirectly
injustice
irrelevant
mercedes
merchandise
minorities
morality
performer
petals
ping
plains
promotional
refuge
risen
ruth
stimulus
sumerian
tasty
wicked
##ou
analogue
bats
beverage
bounce
compliance
cursed
dermatitis
entries
hears
humanities
jennifer
methane
premium
pumping
relying
sociology
structured
trusting
undercover
##sky
accountability
bordered
clips
coated
compelling
contraction
dubbed
exoplanet
flooded
intestines
isabel
joshua
madison
outgoing
peach
performs
personalities
reflective
remarks
ringing
showers
soo
superman
tease
tha
veteran
wary
##ak
accountant
alt
ancestry
barrels
carrot
curb
despair
evan
garcía
geometric
hdmi
heartburn
herb
hotter
ideological
implementing
induction
logistics
meditate
neutron
otto
pact
proto
sack
separating
thee
warner
##ham
1906
ac
ammunition
amor
approximate
bail
butler
cervical
concentrating
disposable
dispose
distracting
freed
glacier
immense
incorrect
jenny
lad
mortgage
mosque
motive
phobia
placement
prefecture
seldom
spreads
treasury
vomit
wakes
worm
##ber
##ska
##ō
acupuncture
blink
blues
clot
constitutes
crawling
damned
dances
databases
elliptical
evolving
hacked
infestation
passwords
programmed
sausage
searches
softer
sonic
spatial
sprouts
subtract
thunder
triumph
trophy
untreated
unusually
łobez
bruno
communism
comprises
defendant
filing
fortified
furious
hottest
innovations
mai
maturity
patron
protestant
provision
pyongyang
ranger
rewarded
stamps
textbooks
trivial
vicinity
vicious
antarctic
antiseptic
broadway
calmly
depressive
displacement
fearful
kai
module
nba
paradox
rang
safari
skype
tutor
1903
adjustment
antihistamines
assign
babylonian
baths
contexts
dai
defects
flowering
gilgamesh
hooked
juana
legitimacy
lifelong
marcel
markers
neighborhoods
nevada
pharaoh
racism
riley
specializes
stella
swap
torpedo
unpredictable
ventilation
wasp
whatsapp
workshops
##ice
##so
ab
anterior
conversely
cottage
delighted
galactic
halloween
intervene
kilograms
lightweight
multiplication
obstruction
oppose
peaks
permits
similarities
smiled
stimulates
su
zeus
##ang
adjustments
affiliated
antioxidants
aw
cameroon
conquest
daytime
discard
ensures
ether
finances
inclination
inherent
jill
landscapes
leagues
licensing
logan
monarchy
nazis
philippe
premises
protocols
randomly
spells
starch
turmeric
##ik
accelerate
adjusting
analyst
balloons
battlefield
betta
clarke
comply
daisy
dea
educator
eventual
gaba
gu
haitian
heck
hypothetical
inaugural
indications
infinity
inquiry
knots
manuscript
physiology
pineapple
prevalent
psycho
roberto
simplicity
sip
stimuli
tallest
trademark
tsunami
tu
undermine
valentine
violin
2030
220
80s
barking
basics
bennet
bravo
curtain
disciplines
forged
fulfilled
hull
italia
knocking
louisiana
marvel
mouths
obstacle
paradigm
rider
sandwiches
scans
sculptor
sensible
signaling
sounding
strawberries
suppliers
yep
##ant
accompanying
amsterdam
aqueous
balancing
brody
broker
cocktail
confessed
delegate
dilute
dominate
executives
faction
frightening
grants
immortal
nah
overlap
parental
potting
prizes
saddle
scarring
slides
stewart
suffers
tails
tuck
##her
adopting
airway
barnes
bothered
clinics
comets
correlation
dinosaurs
dwell
eighteen
felix
fourteen
gonzález
idol
leash
lgbt
librarian
namibia
norepinephrine
operators
owes
perceptions
phantom
regimes
singular
stranded
strep
sucking
tribunal
veterans
warren
##we
70s
abducted
accumulate
accumulated
arch
arrogant
atp
bros
cans
collins
corridor
crate
defender
depths
disturbance
enhancing
favorites
jo
keith
reactor
senegal
sewing
sino
stared
swore
weighing
##ene
12mi
adenosine
alliances
arose
babylon
bankruptcy
boils
calculating
chemist
collaborative
cos
europeans
euros
evacuation
ghb
gradient
hockey
jiang
kinase
medicinal
monarch
munich
oracle
passions
plaza
profiles
projection
rifles
scanner
tore
traders
uploaded
whichever
##mann
accelerated
amazed
bathtub
blender
bruising
buffalo
cosmetic
cysts
devastated
diesel
discourage
dries
hacking
heroic
hut
judy
pathogens
patricia
pipeline
reckon
servings
solvent
sophie
spoil
stirring
swell
turkic
uranium
##om
aquatic
blogs
campbell
catches
convent
disappears
distilled
fingerprints
headlines
jamie
libya
lo
neglect
politely
preserving
privileges
rides
salty
secondly
shipment
shrine
stigma
surge
tearing
tiles
translator
utilize
weren
##ging
##ial
##wski
acknowledging
apartments
buys
canyon
cultivar
disruption
exploded
fitz
hoang
hudson
imperative
incoming
jorge
lotus
mentions
nixon
peasant
remotely
reproduce
resign
sculptures
secular
sheldon
skeleton
slim
ubuntu
unchanged
vase
workouts
aerial
alexandria
batman
bernard
conquer
crises
cuddy
detector
ditch
filmmaker
gastric
geological
greet
humid
indicators
katowice
liberia
offs
prejudice
reasonably
recognizes
replicate
scarlett
schooling
shepherd
summoned
surgeons
toolbar
waxing
3000
accusations
api
avocado
bitcoin
blunt
bout
controllers
covenant
dana
dosing
energetic
ethernet
fetus
fujiwara
generator
intestine
kingston
lords
maarrat
manny
margins
matched
moisturize
pharmacist
ratified
sally
snail
southwestern
spartacus
sweets
terrific
uniforms
volcano
##km
##su
##ue
anthem
baseline
basil
chooses
contestants
converting
cucumber
dime
displaying
greeks
habitable
impairment
inject
insecticide
kindly
kirk
lara
maya
minnesota
naples
nationals
numbered
offended
playful
resilient
romania
santos
scrap
slowed
smiles
sylvia
te
teasing
tri
unaware
##ei
##ent
abnormalities
berkeley
bidding
cactus
christina
compatibility
defenses
devote
domains
emphasized
gatherings
hike
honeymoon
journaling
lamps
lipstick
mare
mug
nursery
objection
owed
pomorski
quoc
reconciliation
rosemary
satisfying
stray
wander
baroque
brushes
compelled
crackers
crowds
dim
drip
drowned
idiots
modification
odors
procurement
prominence
proxy
rafael
reinforced
seals
shook
slavic
smoked
snails
spasms
thou
trajectory
transfers
vpn
##min
750
chronicles
clara
clown
encouragement
footprint
gen
halt
inactive
installer
intuitive
klaus
lease
motives
nuclei
olds
poisonous
porter
processors
reflux
resides
rhetoric
screws
sights
startup
subscription
suburb
tailor
treaties
utc
whereby
##oid
##ring
ammonium
angola
betrayal
booth
botswana
bryan
certification
clash
drones
epilepsy
excreted
financing
fingernails
formulas
generals
hazard
hopeless
illustration
paralyzed
pledge
posterior
programmes
prune
rendering
seismic
slap
sprinter
straighten
superhero
wade
##gen
##nce
##ung
bonding
cutter
denying
formatting
gamecube
graduates
hopeful
inventor
joan
muhammad
node
nokia
owing
pellets
qualification
retailer
rom
sprint
stanley
stimulant
textile
zhou
##burg
##ii
105
autopsy
branded
fahrenheit
immigrant
magician
mills
multilateral
ngoc
ozone
pierce
prioritize
prophecy
repaired
scripts
secretion
stitches
therapists
toured
violating
weaken
##em
abolished
adrenal
alexandra
banker
barley
casually
circulating
encyclopedia
fractures
józef
knot
lousy
merlyn
multinational
neighbourhood
neuron
niger
notification
obsolete
predator
pumpkin
puppet
sheer
sings
specifications
spilled
surplus
veggies
yearly
##res
bells
burger
butcher
differentiate
elbows
frustrating
guarantees
hallway
headphones
infect
limestone
mound
neighbours
nipples
oftentimes
reagan
robotic
sharply
shuttle
sofa
somalia
southeastern
stripes
styling
truong
unacceptable
venues
vinyl
volunteered
warnings
wilhelm
##yo
adrenergic
ankles
astronaut
awfully
belts
bloating
chased
coats
coordinated
diplomats
donations
evacuate
framed
hazardous
hispanic
jackie
karate
login
loudly
mabuchi
marble
merchants
ovarian
partnerships
pivot
polls
prague
predictable
quo
sleeps
wisconsin
##tan
addicted
advocated
ahmed
apache
armenian
assert
baltimore
bandages
circa
climates
coding
connectivity
copying
costumes
derives
duel
dyes
frogs
grilled
lenticular
lester
louder
lublin
microscopic
nike
openness
operative
polio
pressured
pumps
reflex
rewarding
skies
solitary
unbelievable
valleys
versa
vibrant
worsening
yu
##ell
##nm
128
bleaching
buds
cloudy
coordinator
credibility
disappoint
dwelling
expectation
fractions
greeting
handwriting
kung
lottery
motel
mozambique
nests
nominations
notation
persuaded
plato
pottery
prisons
proceeded
proceeds
resentment
retina
sleeve
spa
tended
theaters
unfamiliar
unite
unlimited
##je
absurd
albeit
anc
attribute
calf
choking
chromosomes
dedication
definite
deployment
diaper
encoded
flavored
flown
freshwater
haunted
hindi
lure
merge
mysteries
performers
persist
pimples
poorest
prophet
pupil
regent
samurai
staple
submarines
trustworthy
turks
uruguayan
vinh
volcanoes
wavelengths
##ities
##uk
almonds
bald
bennington
botanical
bulgaria
cdc
communists
corticosteroid
courageous
criticizing
fingertips
gabaa
ghetto
gosh
habitats
hee
innocence
lin
magnet
measurable
mw
ninh
platelet
plural
pomorskie
preceded
promptly
reconsider
rectangular
strawberry
swords
tar
torso
toxin
##well
abuser
aches
advancement
ambitions
assassins
attorneys
begged
bmi
chicks
chongqing
cisco
coca
counterparts
deed
dizzy
drowsiness
esther
expects
gallons
harvesting
inheritance
lacked
legumes
lump
lymphoma
microbial
mp3
nobility
numerical
orgasm
posters
ptsd
regrets
replied
ricky
salesman
scofield
skeletal
soils
testament
thanksgiving
wishing
##fa
##tt
academics
ancestor
apparatus
autoimmune
biała
calculus
correspond
dismiss
ferry
hackers
inbox
judgement
meanings
messaging
noun
pesticide
rests
sellers
skeptical
stabilize
vain
##ac
##ani
##tive
##zing
accidental
annoyed
barracks
beers
boredom
christine
collector
commentary
congregation
consultation
cox
cultivated
flint
fuller
govern
granddaughter
homo
inclusive
indonesian
julian
melody
mouthwash
ngos
oklahoma
playoffs
practitioner
publicity
realise
recycled
repairs
rwandan
saharan
simpson
sinking
splash
splitting
staged
titleholder
underwent
villain
voyage
wa
wright
##ver
1898
airports
altering
amusement
antifungal
brunei
carriage
cartel
cartridges
demo
dissidents
earrings
farewell
fragrance
gm
grabbing
namco
obscure
olga
olives
possessions
pretended
promotions
relieving
rivalry
securities
soapy
sock
soups
strengthened
taiwanese
throws
unlocked
##che
##po
##tz
20s
avatar
breeds
bruises
danced
darcy
eccentricity
erased
giang
harrison
hypnotic
incision
jars
lanes
lg
notifications
pending
princeton
racist
rental
sars
sc
semester
standardized
stationed
sunburn
undo
urination
utilities
##ard
##ating
##ks
##mine
arithmetic
assaulted
assyrian
attracting
augustus
cathy
comeback
compilation
decorative
demonstrates
depicting
disagreement
edo
elites
fills
glimpse
kent
killings
landmark
leftover
offset
payroll
pharmacies
pits
prism
prom
pronounce
prospects
slovakia
sorrow
soviets
tournaments
upgraded
vaccination
visibility
wen
batter
blah
carpenter
edgar
equatorial
fabulous
famine
indiana
junction
kindergarten
lobe
malignant
manageable
meth
montreal
moods
mulch
overlapping
photographed
pixel
pod
readings
silicone
silva
superpower
tougher
unemployed
unrealistic
verge
vigilante
woody
##up
##way
buffer
cocoa
compensate
credentials
demonstrating
dreamcast
emblem
eternity
fellows
fluctuations
gospel
grande
grieving
hangul
hydroxide
judiciary
lan
leaks
linguistics
marginal
modem
nets
politburo
remarkably
requesting
resumed
reunion
skye
tabs
tang
vendors
vinci
wreck
zdrój
##ev
adrenaline
airborne
align
altar
aspirations
bahamas
biomass
blindness
carlo
ceremonies
childbirth
coli
companions
complement
consolidated
correspondence
decorations
deposited
holders
hospitality
hunted
inputs
invade
laughs
lick
maiden
metallic
miranda
natal
notorious
peanuts
plugged
popping
positioning
realities
render
rhythms
ronald
sha
sol
tangible
wrists
yemen
zombie
##cs
##iness
artifacts
bottled
bounty
capitalist
coffin
competitor
counterpart
erotic
explanations
fibrosis
helicopters
holly
incapable
interfering
jae
kyle
liter
nod
ontario
parenting
pawn
petty
pruning
rashes
resin
risking
runny
screenwriter
suburbs
troy
unofficial
visually
vivid
wardrobe
wendy
##ase
appliances
behaving
biking
carb
counteract
evans
fools
franco
groceries
heavens
ins
laden
licenses
mantra
masculine
omar
otc
paired
pittsburgh
prc
prefers
presumably
scarce
schemes
sliding
spokesman
subscribers
tolerated
translates
vampires
vivo
xuan
zen
##ins
##vi
170
announcing
bargaining
bristol
cereals
chung
commanding
crow
deir
doubles
fe
gi
hassan
hillary
hydrate
iu
jeremy
kazimierz
leaking
mali
neighbouring
outright
overcoming
oxytocin
popcorn
provoke
receipt
shove
soaps
spencer
stereo
subset
weighed
##tti
##ua
alibi
carson
categoria
ceramic
conscientious
deploy
disappearance
dissent
futures
hacker
harness
heightened
indulge
irony
lockdown
locking
migraines
milligrams
modernization
obliged
pi
pinpoint
probable
relied
similarity
slogan
symphony
tides
tying
upsetting
usan
##nes
##ński
1894
1895
allergens
anthropology
authorization
bending
bran
casey
cecil
constituent
contracting
cooks
curls
deeds
definitive
deserted
humility
internally
io
mansion
mathematician
punched
sebastian
skating
starve
stew
strait
sulfide
tactic
tb
##ín
aas
alabama
analytical
anglo
bach
blocker
chang
combustion
comforting
conrad
corp
craig
deputies
destined
discretion
dolphin
gamble
garrison
grooming
histamine
inland
jets
lengthy
lf
nonprofit
penalties
rif
riots
robertson
shutting
skipping
supernatural
thrust
transforming
tweezers
underworld
yoon
##ated
afrikaans
barred
bhutan
blogger
chalk
commons
cone
donna
enclosed
exported
finn
fooled
gravel
guitarist
hotch
iceland
interestingly
internship
jew
joins
leonardo
macro
marta
moles
peasants
rankings
regulating
restless
securing
slows
sucked
suppressed
surpassed
tor
undertaken
vatican
whipped
acquaintance
alberto
anabolic
bailey
baron
basal
breeze
cal
capsules
centres
computational
contractor
deprivation
deprived
diluted
diner
ducks
empowered
falcon
flushing
gaon
implant
jurisdictions
lauren
luminous
mandela
microorganisms
neglected
orchids
owen
para
pixels
ralph
ratios
realization
replication
researching
rusty
scaring
secrecy
shyness
sinuses
stockholm
theoretically
travelers
##ae
##ary
1896
accessory
avoidance
bromide
clog
closes
continuum
creep
curl
damon
drains
ensemble
fluent
folding
generalized
guatemalan
lent
manor
martinez
nicknamed
pens
realizes
reggae
semifinals
successive
toyota
withstand
##ding
##lli
16mi
1885
60s
adequately
aloud
cologne
comprising
confederation
considerations
corticosteroids
disappearing
discourse
dryness
encryption
est
expresses
flux
garments
gateway
glance
grapefruit
latex
lowers
madagascar
megan
mortar
multiplayer
narrator
qualifications
quiz
reminding
simmons
sleeves
slopes
smashed
socket
solomon
underestimate
unwilling
uterine
##era
advertisements
amnesty
antidote
barber
beaches
cartilage
cleveland
crushing
debates
decisive
diffuse
dilemma
empower
empowerment
expired
faults
filament
globular
gregory
heparin
ibn
inherently
ivy
judgments
marching
merry
mo
moderation
osteoporosis
partitions
pest
radically
recurrent
reputable
revelation
slaughter
surgeries
swallowed
sweaty
teas
trails
trung
vanessa
victories
vocalist
##ability
14mi
1893
alignment
anticonvulsant
attendant
attic
birmingham
bribe
carnival
cds
comparative
consort
denominator
enforced
exfoliate
extracellular
fainting
forearm
forums
headline
headquartered
humiliation
imbalance
intramuscular
jang
klein
lang
leisure
mounting
nicer
oceanic
personalized
pituitary
prick
retaining
robotics
scrubbing
seventeen
spared
sticker
underway
##ec
addict
adorable
agreeing
arrests
bushes
catastrophic
chatting
cheers
clover
cristina
crystalline
decoration
deliberate
depot
enacted
evacuated
exchanged
exiled
famicom
gminas
guyana
incumbent
localized
mmm
nhs
pancreatic
pastor
reboot
reckless
rita
sacrificed
salamiyah
shampoos
shaping
shores
spratly
systematically
tweet
unsafe
vest
władysław
1897
advent
ag
assertiveness
automation
bing
bloc
brotherhood
cohen
compartment
composite
connecticut
coupe
dementia
dinosaur
diuretics
drastically
edinburgh
elect
eucalyptus
experimenting
hadn
illustrate
jewel
justified
kale
lloyd
maurice
neuroscience
outlined
pakistani
piles
presentations
rested
rust
sclerosis
sentiment
shareholders
slipping
stresses
supermarkets
unrest
vents
##ker
##tin
abbey
absorbing
accusing
activates
analogy
beautifully
bookstore
courtyard
dilettantistica
dosages
embraced
eruption
expectancy
flashlight
frying
goldfish
hugh
hydrochloride
hyun
immature
indigestion
larvae
meaningless
moderately
monitors
myślibórz
oppression
pathology
paypal
proportions
purity
responsive
rum
sacrifices
sparked
stab
stall
token
uncovered
##ud
1890
airtight
arterial
betting
celebrations
complexes
crafts
differentiation
differing
edema
europa
feat
foremost
formulations
goleniów
harvested
heals
helena
hive
iconic
interfaces
interrupting
iowa
keyboards
lifespan
marriages
miracles
monroe
playwright
prix
reviewing
rover
rushing
scientifically
stimulated
stuart
surname
sweeping
truths
tuned
violate
##ms
##off
##oma
acquiring
addictive
adulthood
anthology
collaborate
cosmetics
danang
diane
divides
downstream
drafted
facto
folds
gon
góra
hail
harming
impatient
inscription
jumps
mb
mcdonald
murphy
optic
optimization
pyrzyce
referral
reinforcement
relativity
ruby
scheduling
sensing
skirts
sturdy
unfinished
vertigo
##ning
##work
##ão
aa
baggage
bosses
entertaining
falun
gravy
im
kenyan
kisses
lb
ninety
nostril
prayed
reacted
remix
roofs
shrinking
sophia
submerged
tbsp
unexpectedly
vengeance
##bly
##don
##fish
##lia
accepts
antipsychotic
beckett
bg
booked
bursts
capturing
charitable
containment
counties
demolished
dimashq
disturbances
doomed
empirical
enduring
energies
entertain
folklore
hal
hangs
heather
ingrown
lame
liberties
lone
mashed
physicists
pisces
pledged
raven
reassure
remnants
revolt
scouts
selma
stink
telecom
tires
utilized
vial
vista
wasps
##llo
##net
##nica
##ok
acclaim
aisle
alma
appealed
aroma
buddies
clause
clearer
complication
cramping
crisp
dame
drastic
duncan
forbid
fueled
fuzzy
grayson
greenland
grind
humidifier
intimidating
irritable
jointly
manipulated
mustache
nova
orphans
parole
preacher
preceding
reliance
repay
risked
sanitation
scarborough
simplify
stanislaus
statute
sylar
triggering
vertically
##gan
##town
##zy
admired
advertise
booze
certainty
coloured
conflicting
continents
copenhagen
derive
discovers
dsi
embryo
emitted
extrasolar
finder
fused
glowing
greasy
honorable
husky
insecurity
melts
oneself
overthrow
photographic
postponed
privileged
reconstructed
reverend
righteous
rupture
scented
sedation
sidewalk
sneakers
tits
urinating
welsh
worthwhile
zoe
##house
##per
##ren
alternating
aluminium
amendments
ark
blurred
braniewo
briefcase
churchill
commanders
dang
distorted
diuretic
enthusiastic
filtered
flank
follicles
forge
goose
hepatic
lebanese
luther
maneuver
nutritious
octopus
prostitutes
puncture
recognise
renovation
reuptake
reversible
romanized
si
signatures
socialism
sonny
succeeding
teachings
toilets
verde
whisper
##ane
##back
##ru
##ي
affirmations
aggressively
analogous
andrzej
arguably
bankrupt
beginnings
behold
bookmarks
brakes
chiefs
chopper
cockroaches
corporal
craters
devised
dolls
donkey
doom
geology
groot
hp
infusion
isotope
kentucky
masterpiece
menopause
miniature
monoclonal
nicole
pancreas
paula
rangers
researched
sailors
sank
scratched
seychelles
specialize
spotlight
squirrel
switches
tracing
unix
voluntarily
##ran
accomplishment
acetone
admiration
ak
antigen
blush
bronchitis
claude
commodities
correction
cynthia
deforestation
disrupted
drake
fetal
finnish
fuss
graphical
judith
kara
leaked
loops
makerere
mandate
pinyin
portland
powerless
presently
rebuilding
sage
spf
starter
stern
tonic
vanished
watts
yuri
##00
##cha
1899
allegiance
armenia
baxter
bracelet
bred
brittle
catheter
cnn
discoloration
duong
eighty
ethnicity
focal
gandhi
hedgehog
hugging
hyper
identifies
infested
investigators
istanbul
kin
km2
lorenzo
mates
mathematicians
mechanic
medically
motto
paints
phillips
popped
shi
specimen
stevens
subconscious
tertiary
vii
##ano
##ites
##ken
aided
atlas
buzz
cannon
claws
crane
deception
disconnect
fleeing
greedy
gus
hector
histories
hypotension
interpretations
koreans
maple
modeled
muscular
newest
originating
painters
palermo
paracel
priced
prospective
prostitute
pulp
punishing
reddish
revolutions
sabotage
sen
simmer
sk
sleepiness
slippery
timber
vic
vigorously
watermelon
##ara
##sha
##vin
acclaimed
afghan
aureus
aurora
bac
balm
belongings
borrowing
brace
brake
croatia
decorate
diaspora
dictator
disappointing
dubai
durban
eccentric
embracing
erik
feminism
hardy
helper
henri
hospitalized
hypersensitivity
inducing
institutes
julio
kinetic
obsessive
phuc
plea
prevalence
profoundly
quotes
ridges
salvation
shoal
spam
spokesperson
stalk
sundays
warships
##des
##mide
ache
allowance
anticholinergic
apnea
aromatic
bowling
bruise
chapman
compulsive
dolphins
endurance
exhaustion
fm
forensic
formations
fuji
fuse
happiest
harmed
honours
inward
issuing
kremlin
lagoon
lorraine
manuscripts
migrated
modifications
nun
oats
oder
por
proclaimed
refusal
restriction
sandra
scorpion
seedlings
slit
submission
supervised
thinkers
threatens
tile
triangular
troubling
verification
##bs
##ney
##owski
##ries
1886
25th
absorbs
acre
adolescent
adventurous
assumes
atari
bioavailability
bullied
chester
cloves
conductor
correlated
credible
defenders
deodorant
depicts
diminished
discs
distributions
faded
fare
feasible
fischer
flock
fonts
impeachment
jog
kicks
lending
liz
minimizing
montgomery
nipple
notions
nozzle
offline
petting
playground
pr
rectangle
regained
russo
sincerely
sniper
spaghetti
structurally
suburban
swan
unto
##ira
102
abby
advertisement
airplanes
alkaline
b12
balcony
canopy
cbt
civilizations
competence
evaluating
fantasies
fide
glove
hanged
harbour
imply
installations
intercept
intrinsic
kazakhstan
mar
mauritius
mourning
nikita
orphanage
overlooked
owl
participant
pomerania
powerpoint
preventative
quentin
redirect
residency
saxon
stronghold
subcutaneous
sued
trinity
trusts
ventures
waiter
##ci
##hip
##lan
##py
apologizing
bravery
cervix
contraceptive
contributor
crashing
dams
devotion
digitally
dormant
emerges
ethiopian
ethyl
excessively
fernández
firearms
freshly
frontal
genitals
gliese
imposing
indochina
interpersonal
kilometer
kite
lemons
lettuce
lingering
mba
mock
montana
ninja
nonverbal
palestinian
pea
rabbi
rodents
rug
smoothie
spans
tasked
transient
tuition
valves
vendor
##ians
##ology
academia
accuse
androgenic
antagonists
blacks
bradley
brandy
cache
carcinoma
chills
compose
contractions
crackdown
cuttings
cyclone
distancing
endemic
exaggerated
fascist
fireworks
forgiven
generosity
halo
handing
ignorant
inhaled
ironic
marvelous
med
michel
morris
notify
okinawa
pancake
provisional
pushes
realism
recorder
repetitive
rib
ruining
scents
siberia
squeezed
temperate
tetanus
tingling
uniquely
veronica
weddings
whereabouts
wiping
##10
##ld
##lle
##ola
##ric
10mi
adolescents
bum
chad
confiscated
constructing
disguise
ellis
epsom
extremist
famously
floyd
friedrich
guessed
guild
investigator
johann
kampala
lazio
mating
merlin
misses
negotiated
peek
peeling
probation
restoring
rr
sailor
setbacks
snowball
speeding
substituted
tendencies
thumbs
torres
transcription
trevor
truman
utah
venous
verified
vowel
waitress
##ari
##bar
##ex
##ros
##yah
135
30s
acquainted
beasts
beetle
bi
biblical
biologist
builder
butterflies
casa
cavities
certificates
cetus
cyrus
delays
examinations
feds
fingerprint
giovanni
gluten
guardians
husbands
inhalation
integer
intimidation
inventions
lever
lilly
modules
mol
naughty
outrage
raids
rehab
reservations
robbie
ropes
rouge
scenery
shields
shotgun
slaughtered
specimens
statistically
stickers
supporter
tango
tesla
tortoise
touring
undesirable
##ans
##rum
##ə
108
1868
bacterium
café
congratulate
cosmos
cyp3a4
destroys
distributing
downs
durable
employs
encompasses
erection
esophagus
exclusion
factions
freelance
georges
hereditary
horns
innate
kiev
kuwait
lannister
lint
llc
logging
ly
meditating
nominal
ocd
olivia
openings
overdo
oversight
parenthood
pitched
poetic
prop
psychotherapy
que
respectable
reuters
reynolds
rheumatoid
saltwater
selectively
shovel
slate
specify
squeezing
stationary
subsidies
transporting
vega
winters
yoo
##fer
##tar
104
109
a1
abscess
ample
antimicrobial
bisexual
blu
centralized
cigar
comprised
conceal
curly
diminish
directive
dope
electrolyte
enamel
encrypted
exceptionally
exercised
filtering
hydration
implicated
impulses
jade
logs
missionary
myocardial
peels
pillars
pub
recycle
romeo
societal
spores
statues
summers
urgency
##ich
##ped
##ula
andre
beacon
captive
chu
cooker
corals
creators
crooked
departed
disconnected
employing
ernst
estrogens
eugene
excluding
exfoliating
extraterrestrial
footsteps
glaciers
guayaquil
hao
intends
jose
juliet
lighthouse
marx
mozart
nonsteroidal
nowe
nowy
occupational
overtime
plots
precinct
presumed
qatar
qing
radicals
recipients
recreation
residual
restructuring
schedules
screwing
showering
softly
spear
specializing
starvation
subtype
tributary
undergone
vancouver
veil
##box
1880
akkadian
annexed
arnold
asses
assessed
assisting
becca
bothers
catastrophe
choke
cirrhosis
contraindicated
converts
cricket
doctoral
emigrated
flakes
humane
inverse
ja
keeper
kev
lizzy
marc
methodology
ministries
nile
persists
peterson
pigment
programmers
proportional
pseudonym
psoriasis
psychotic
sanskrit
senators
showcase
sneeze
sorted
sp
tae
tally
tina
tweets
undertake
unused
womb
xl
##ix
##rate
##ten
##tis
apes
attracts
atypical
authored
beck
bikes
binge
casimir
celery
computation
convictions
cords
dat
eduardo
elias
finalist
financed
flashes
guiding
heinrich
hives
imminent
lama
landlord
lemonade
librarians
lotions
luisa
m3
marina
mattered
memorable
prosperous
raided
reunited
rotting
slade
snes
somali
storytelling
sunflower
tracker
tvn
wherein
##ada
##yi
##yn
103
1860
5000
abstraction
accessing
accra
bauer
behaved
brooks
bun
businesswoman
calvin
careless
cellphone
clotting
cpr
ea
emit
flynn
folic
girlfriends
glenn
guarded
guerrilla
harassed
hurtful
interferon
investigative
jewels
joel
latent
lenin
margarita
multiplied
nhat
pascal
petrov
pier
pollutants
potentials
powell
proposing
pros
reductase
reside
restroom
rigorous
seawater
seo
separates
shelters
stylized
sunk
tangent
thu
tolerant
tyrosine
utterly
weighted
##ía
activating
amphetamine
atm
benzoyl
bios
bp
contacting
declaring
deity
diapers
disclosure
disrespect
erin
fa
forgiving
guarding
hints
intentional
invitations
lentils
meteorite
mongol
mongolian
mummy
occupying
outskirts
pediatrician
persona
pradesh
precedent
pubic
purge
sailed
schmidt
smuggling
splinter
staphylococcus
taliban
tasted
thaw
tracy
travis
understandable
unreasonable
winterfell
´s
##and
##eh
##ising
##vo
1800
8mi
admitting
aka
alumni
arousal
automobiles
awaiting
barbecue
beams
carlyle
castor
circumstance
comma
compositions
cons
cultivation
dispatch
díaz
eco
embarked
endured
flattering
hostility
improper
instituto
irritants
jaime
leopard
losers
lunatic
luxembourg
mack
malay
migrants
millimeter
multimedia
notified
onwards
pictured
plum
polynomial
pretoria
psychosis
roland
seventy
shredded
squat
terminology
todd
waterproof
xilai
##cia
##phobia
115
2050
50s
awhile
axes
banning
biased
boosting
brutality
burmese
burrows
conceptual
conditioned
convergence
costing
deficiencies
dengue
diagonal
dialog
disadvantage
dumping
hawking
holi
hughes
idle
invading
jackets
janet
legion
lucia
mikhail
mitchell
moisturizers
morales
moreno
mumbai
netball
penetration
playlist
posing
quantitative
relevance
restraint
revive
ronnie
slightest
sneaking
summon
tighter
tucked
variability
wallace
wand
washes
wholly
wisely
xiaoping
##ab
##board
##gs
##ware
augmented
cannabis
carnegie
cartoons
composers
congolese
coppa
crest
crows
diffusion
disks
egyptians
eli
emergencies
eun
exert
expands
greed
hearings
inanna
iraqi
jeffrey
liga
marched
mastered
medial
mentioning
offend
oriental
perpendicular
policymakers
protons
residues
rewrite
sands
scam
seeker
specifics
telegram
traveler
undergoes
uranus
vastly
xu
##age
##ella
##ux
1891
alexis
alicia
arising
assholes
automotive
barbados
bearer
chaotic
chow
coefficient
comrades
confidential
d2
defect
escalate
everest
exits
frankfurt
franz
gears
germanic
hamlet
hercules
hiro
icing
illustrates
intravenously
knitting
lupus
lust
m2
mart
massaging
narcotics
originate
panties
prestige
reclaim
repetition
retains
roberts
saints
satan
sheila
smartest
sprout
stripper
summarize
tajikistan
toenail
waving
yelled
zucchini
##bin
##mg
1863
1871
apologized
atop
choi
cozy
discarded
disclose
dove
elisabeth
escalating
falcone
fisherman
flagship
germ
granting
heater
hemoglobin
hon
indicative
interpreter
ironically
ldl
licorice
liner
maine
mapped
melatonin
metastatic
miscarriage
mona
neutralize
outfits
oysters
paternal
pigeon
prosecuted
ptolemy
qaeda
quan
reconcile
relapse
rem
revise
revived
roasted
scotch
screened
scrutiny
shaved
shortages
simultaneous
skyler
streak
translations
undertaking
uneven
webb
##ably
##ese
##ged
##worth
##ys
1892
abbott
abusing
aerospace
alarmed
angiotensin
archipelago
astonishing
avocados
awakening
bakery
beetles
belle
bennett
bombers
cedar
continuity
correspondent
culturally
dissolution
dorothy
dreyer
dunbar
glacial
groin
inherit
insulted
irritability
javascript
juicy
kettle
konami
laundering
lesotho
longitude
macos
mafia
maze
mickey
motivations
overboard
pagan
par
pioneering
podcast
popularized
predecessors
remake
riders
salsa
sauces
scares
shear
slime
smelled
spoiled
sponsorship
stadio
stalking
stunt
swamp
tempo
themed
thuy
torch
tuning
việt
wartime
webster
##ata
##jin
##ju
##ona
##ة
175
affectionate
albanian
almamater
anita
antenna
anticipation
anton
arte
attain
attractions
auschwitz
autobiography
bandwidth
bengal
blockage
bolesław
bombed
broadcasts
camel
caterpillar
champ
civilized
coordinating
deities
depleted
detecting
dramas
enjoyment
estonia
galleries
glaucoma
horizons
incorrectly
itchiness
kyung
luna
misunderstood
moron
nylon
orlando
pajamas
paramount
paz
pickup
playable
preventive
pseudo
punching
resurrection
royalty
saucepan
scratches
shattered
skipped
thanked
thinning
tiktok
toddler
tricked
vince
whitney
##bu
##ons
##í
acidity
afterlife
andré
asserted
azerbaijan
ballot
beware
bilingual
binder
buttocks
categorized
coded
condensation
courtroom
crescent
dice
disrupting
elle
emphasizes
fletcher
floral
invites
irreversible
lactose
liable
mohamed
mu
nandrolone
nanny
notch
parsley
patty
pepsi
poking
ponds
poop
prep
randomized
ratification
rhodes
rogers
rookie
semen
strap
takahashi
teaspoons
threads
turmoil
uncover
velvet
vocational
wipes
##bel
##iya
##san
118
17α
a2
ap
bayer
blended
bodyguard
bulgarian
carbohydrate
collateral
commentators
cong
contraception
dandruff
delaney
delight
disgust
drugstore
drummer
dublin
dwarfs
exe
grit
hazards
hearted
heavenly
highlighting
holland
hopkins
insists
lotte
meningitis
migrate
nakamura
narratives
nighttime
overload
packet
photosynthesis
playboy
po
reductions
registers
rivera
smallpox
socialize
spherical
spock
steaming
stylist
tanning
textiles
una
unclos
victorian
walnuts
##ens
##vir
acronym
administering
alexei
ambient
anomaly
attained
berry
biotechnology
bourbon
cecilia
claudia
collisions
commemorate
confirms
corrected
curtis
damien
darkest
deadlines
detainees
diagrams
dipping
dread
escapes
fairness
feng
fisher
freaks
frighten
furnace
gal
honneur
hum
induces
insulting
invaders
jintao
lashes
mendoza
montevideo
nurture
paws
praising
progressively
referendum
repel
resolving
ricardo
singh
slider
sodas
stiffness
suqaylabiyah
terminated
theology
ubiquitous
ventricular
vows
weakening
wesley
##ito
##mic
##tus
1830
365
accelerator
ambiguous
amelia
armored
astrology
blizzard
caffeinated
chopin
clicks
cruelty
desserts
detectives
dl
doubling
eighteenth
facade
freaked
gig
gore
gorilla
greatness
herald
imf
involuntary
irene
katherine
longevity
magnifying
malaysian
nostrils
offerings
pairing
phong
pies
pleasures
portray
princes
probiotics
respecting
romanian
serpent
spontaneously
stitch
strained
supplying
surrendered
suspend
tailored
triangles
tunis
universally
utilizing
vintage
welcoming
wines
##ala
##cin
##dale
##ess
##ا
abrasive
acetylcholine
achilles
adolescence
adolf
antipsychotics
benedict
biskupiec
cain
clutter
coastline
commissions
confirming
disrespectful
drunken
duchess
e3
ee
epa
estates
feather
fluorescent
formidable
fragment
freshman
goodwill
gunshot
insertion
insults
intolerance
lao
layered
melon
meteor
mountainous
nbc
pam
pluto
preferable
presume
prose
qt
recruiting
redemption
representations
rosie
sejm
serbia
slovak
smoother
swinging
tadeusz
theresa
trek
trimming
##pi
##ral
##tal
##ń
1884
1887
acquaintances
additives
albania
benin
białystok
biologically
births
chau
chimpanzees
classics
consulate
cu
denomination
earns
eater
ebay
frankie
fugitive
grouped
gómez
hedge
hooker
hpv
illicit
isotopes
lash
legged
lipid
menstruation
mixes
morphology
palette
pfizer
polluted
projections
proposes
prosecutors
pérez
quebec
respiration
robe
rockets
shortcuts
spies
sullivan
surf
survives
theodore
titanium
topping
tossed
tsp
viktor
wedge
##din
##mar
1865
1888
adhere
airing
amd
approximation
attacker
axe
bandai
bonded
boo
campaigning
cheerful
coercion
collectors
consortium
constrained
cores
crews
denoted
denotes
fearing
fermentation
freight
ga
gala
gels
gmmtv
hairy
haul
humiliated
inauguration
inefficient
inhibitory
insoluble
julius
listens
lookout
masked
melanoma
menopausal
modelling
murderers
murdering
n´t
painkillers
papal
pioneers
postgraduate
reformed
replenish
resisted
romero
rossi
sampling
sentimental
slack
speculated
spikes
stereotypes
strenuous
tapped
tara
taxation
teatro
trader
transformations
transitions
x2
##ose
accelerating
advertised
asbestos
assists
bronx
bundesliga
caller
centimeter
cherries
conceive
confronting
crashes
critique
depended
deported
dictate
disinfect
dvds
dyed
endeavor
esters
eva
exceeds
exclude
flipped
forestry
gigantic
goo
hides
illusions
inaugurated
inserting
interim
isabella
jun
nitrite
ore
outdated
pediatric
penn
positives
psychopath
rainforest
rebound
receptive
sharon
skins
strangely
sudanese
sums
thorn
unione
verses
zach
##hat
##ida
##my
##zone
##ā
1200
1876
abs
agitation
agonists
archer
astronauts
behaves
captures
cello
cha
chlamydia
chunk
corona
cpus
cutaneous
dale
demise
dorm
dreamt
embarrass
ernest
forecasting
funnel
gnu
grail
hawk
ibrahim
implied
impressions
incontinence
incorporates
infamous
ingested
kenneth
kidnap
literal
lobbying
magnets
millennia
naproxen
ni
nuns
pavilion
programmer
protested
ransom
rehearsal
screenplay
shorten
shortened
spheres
swaziland
tampons
telegraph
timely
transmitter
troop
vow
##tta
##tu
##yan
##ī
1889
aberdeen
ada
auditory
blinds
blond
boeing
canary
chun
cleanup
clocks
columbus
communal
concludes
contraceptives
corpses
derby
drifting
dripping
enlisted
environmentally
fermented
flatter
flawed
goggles
halves
hardened
harper
hen
icy
illustrations
jasmine
lai
lcd
lopez
macintosh
mats
oregano
pantry
pinched
pisz
pornographic
posthumously
powders
propagation
raft
recombinant
refresh
rethink
roche
saga
spaced
sparingly
spectators
teaser
templates
timed
transitional
wong
1862
1864
1878
230
allah
ammo
antique
arabian
blackmail
blot
blueberries
breads
brewing
canon
comparisons
culinary
curling
debated
dissolves
doe
dylan
epinephrine
exceeding
extraordinarily
fax
fines
frankenstein
glamorous
governors
hale
heats
hooks
hydroxy
illuminated
indefinitely
infinitely
interviewing
ix
jeopardy
lumps
merck
mhz
multiplying
nineteen
nitric
nope
objections
ollie
organizers
originates
orion
pointless
pony
positivity
realised
rpm
scum
sideways
socrates
swam
swine
syllable
tachycardia
tarzan
tattoos
tinnitus
urges
valencia
violently
virtues
whitening
woven
##pin
##rie
##ris
106
112
1848
analyses
anyways
arresting
aryan
assessing
bella
bohemia
cafeteria
cantonese
carve
cellar
chloe
coaches
collaborating
columnist
congenital
contempt
detrimental
disruptive
dungeon
exceeded
feudal
flats
fumes
greeted
holiness
implants
intriguing
jisr
ju
knowledgeable
kosovo
lp
mildly
noses
painless
partnered
peaches
pharmacological
platelets
platoon
postpone
progestin
progressed
prolong
quarterly
recognizable
refractory
renovated
rigged
rugby
sacked
scraps
screwdriver
secretions
sesame
smokers
thriving
turbulence
vibrations
victorious
xp
##gate
##iest
##nie
123
650
akin
allocated
attentive
beau
beginner
boulton
bts
cancerous
ch
charley
cindy
circulate
clone
colitis
commenting
complementary
conway
cries
disco
distinguishing
dummy
dusty
enrique
existential
fin
fined
fists
flute
fury
gabon
graffiti
intimidated
introduces
isil
jailed
liam
neutrons
playoff
predicting
predominant
pumped
reframe
regulates
resemblance
resembling
savior
sicily
sm
solitude
stump
sucker
thanking
tidy
tnf
translating
unidentified
urging
vacant
vida
visceral
whispering
yacht
##rine
##ui
1870
1883
550
acrylic
billionaire
bolivian
brew
celia
circumference
coarse
coolest
crowley
cyanide
decomposition
depiction
endogenous
explosions
faking
fooling
gallstones
generators
genitive
hamburg
hyundai
jenkins
johns
latino
lionel
lively
mammal
memo
miriam
moms
narrowly
opaque
overwhelm
patriot
peat
poorer
relational
reuse
richie
simulate
simulations
snapped
spotting
stacked
suppressing
tata
telenovelas
titanic
trio
twisting
verbally
vowels
zodiac
##maker
##red
##ters
##yu
##zer
111
abel
administrators
afc
alpine
amends
arabs
ballistic
bangs
blackberry
bureaucracy
chord
claimants
clogged
corrupted
crave
deficits
degeneration
depressing
detachment
empowering
entrepreneurship
eradicate
gown
ia
immortality
incompatible
ingrid
insignificant
iq
jellyfish
limp
meiji
mohammed
mundane
palestine
paranoia
prevailing
reminders
repertoire
ruthless
salaries
santo
scaling
seasoning
shakes
sheikh
solids
spaceship
splendid
technician
trousers
waits
warp
waterfall
yorker
##du
##lands
##let
##light
##sed
##tine
##tone
1834
andes
baghdad
banging
cc
continuation
coronation
customary
daring
delivers
delusions
doin
empires
enhances
fecal
flourish
fossils
hardship
implanted
lactic
lads
lantern
lays
listeners
lópez
nautical
neurotransmitter
ng
nicolas
nsaid
outsiders
overview
paragraphs
popularly
postwar
progresses
qi
rabies
renew
rodriguez
salute
semitic
sewage
specification
sponsors
spying
stunning
sánchez
terra
tinder
topology
transplantation
tsar
tubing
tummy
warmed
yan
##ig
accents
accord
alternately
ambush
amusing
appendix
aura
ayn
bookmark
borax
bribes
capacities
chorus
cling
constraint
curing
cyprus
cytochrome
dependency
deterrent
elijah
endings
endorsed
exhaust
fertilize
gabriela
gao
golan
highways
hydroxyl
hypothermia
inception
incomes
insulation
jaundice
lasers
lynch
madonna
mcgill
meteorological
millionaire
monte
mornings
naomi
odyssey
ops
parsecs
policemen
ponytail
prohibition
prompting
questionable
resolutions
seedling
shah
shedding
shortest
sketches
spanning
spears
spills
sustaining
tendons
textures
theta
thriller
tipped
unarmed
unnatural
unseen
uptake
usable
visualizing
zhu
##lis
##mon
##more
17mi
abduction
abide
apprentice
armpits
atrial
beak
birch
braid
bullies
cataracts
cholera
creamy
cucumbers
dedicate
defunct
detectors
domingo
doo
doris
electrolytes
espionage
excretion
explores
firewall
fortifications
grouping
header
hydrocortisone
hydrolysis
inconsistent
initiating
injecting
injure
integrating
introverts
kenny
lesion
lineage
lobster
lombardy
magistrate
menus
negro
oecd
offenders
ointments
ol
operas
opioids
packets
phuong
piper
prehistoric
presses
pup
randy
retiring
satisfactory
silently
soreness
steamed
tigers
unexplained
utter
wheezing
wrath
yellowish
##bed
##kowo
##ors
107
alto
ancestral
archaeology
armour
assassinated
auxiliary
battling
blending
blinking
browsers
budgets
businessmen
cass
città
climax
coil
colorless
concealer
concussion
conservatives
consul
conure
crabs
crohn
curator
customize
disagreements
disgrace
disinfectant
dispersed
epoch
escalation
evenings
expo
gangs
gia
granite
groundwater
hamburger
herbert
huang
ibadan
infertility
infidelity
inhabit
intricate
kemper
lounge
lubricant
mange
martínez
melissa
parachute
pelvis
persuasive
pointer
prototypes
pry
recruits
regeneration
remnant
roaches
salads
sanders
scraping
senegalese
shaken
shughur
skinned
slums
sprayed
tokugawa
tremor
turkmenistan
voyager
##art
##cki
##hof
##isa
##mia
##ora
analytics
andromeda
armstrong
awe
barium
biosynthesis
bison
boric
bottoms
briefing
broom
caterpillars
conglomerate
countdown
cp
criterion
córdoba
destroyer
fabrication
filtration
fisk
flap
flaw
foreigner
hierarchical
interviewer
ionic
lifts
linger
lodge
lu
luz
mastery
masyaf
methylene
mobilize
modulator
opium
pedal
pedestrian
pervasive
porcelain
postal
protesting
publishes
ramp
resisting
reyes
samantha
scrambled
seasoned
sew
sr
taskbar
theo
thoracic
tung
unfold
uzbekistan
viewpoint
##ena
##nin
##ore
##owa
165
articulate
aung
biases
burundi
caliber
classrooms
cleopatra
corpus
democrat
dire
donating
drawers
dynamite
electrodes
engages
envision
exploited
eyelids
facilitated
filipino
gallbladder
gin
grove
hoffman
huu
hypatia
iaaf
implying
insecurities
interferes
intern
intracellular
judgmental
justification
kay
keywords
leslie
liberals
manifestation
milestone
nico
obstructive
penh
phnom
pilgrimage
proactive
quartz
remy
retinal
sewer
shocks
sloppy
sneezing
socio
speculative
squirt
stash
subunit
tequila
translucent
unpopular
wally
état
##ball
##dine
##ides
##mu
##nik
##out
117
168
1861
280
asparagus
balances
belize
biosphere
blossom
breeder
burner
classmate
cognition
collects
comprise
conserve
cushion
descending
dispatched
docks
droplets
educating
expressive
grinding
harriet
intensely
interstate
jerzy
kindle
liaison
limitation
lola
malicious
mash
metaphors
mildew
nate
neon
novelty
owning
pharma
postcard
primates
prohibit
questionnaire
quinoa
receipts
refill
repellent
retaliation
rightful
robbing
rods
setback
severed
sherman
sparrow
squared
staircase
swat
symptomatic
theorists
treasures
turf
uric
##ein
##hin
##lu
##mba
##sin
1800s
1867
1874
admin
anaphylaxis
antiquity
await
backbone
bowels
budapest
cali
ceramics
commissar
cork
craven
cyclic
dalai
daphne
disadvantages
donnie
escobar
expressway
gallagher
iceberg
implicit
inadvertently
inflicted
inmate
isopropyl
justices
latina
licking
mailbox
marxist
millimeters
motorway
nightclub
offences
plotting
polished
precaution
python
quadratic
rach
ramos
reconnaissance
rooftop
screamed
shipments
slick
smelly
solubility
sparks
starters
stealth
stein
surfing
symmetrical
syphilis
tiffany
trades
trang
transmitting
transporter
trimmed
tusk
undoubtedly
utensils
walkers
wiring
wiser
wit
yankees
##ban
##ib
##million
##nic
##oe
##wise
1835
190
192
agnes
alcoholism
almighty
amp
ape
atrocities
auditorium
augustine
barr
basilica
biologists
blooms
bolster
brushed
bulge
chaired
chromium
clyde
collars
conform
diy
eggplant
elliot
emmy
expenditures
exponential
gout
hilarious
honoured
humorous
josephine
kathy
labelled
latakia
manifestations
marion
messina
mic
miners
morally
myriad
natalie
nectar
nesting
nypd
patrons
poppy
proponents
protector
psych
queer
reconnect
repairing
replaces
restraining
revision
richards
sane
sanitizer
spade
spun
stacks
subordinate
thrill
tiananmen
toenails
trench
trout
tug
vaccinated
vectors
vis
wei
wig
##dia
##ick
##itz
##iyah
##ras
##tra
##à
##ية
1873
adidas
affiliate
anion
archbishop
bourne
bras
chilled
classy
cockroach
consulted
crafting
deserts
discreet
educators
enriched
erupted
executions
fasting
garnered
grim
hainan
hairstyle
intellect
inverted
jaws
kilogram
kneel
lasagna
lastly
laureate
linen
lite
liverpool
mails
mammalian
mariana
martian
medicated
mod
neurotransmitters
nzt
paw
perpetual
quad
rained
recruitment
redesign
restrictive
sammy
shirley
squid
stalks
suffix
synonymous
takeover
tangled
tasting
tau
tuscany
uruk
wawel
wort
##11
##lar
##ular
##van
50th
alarms
alejandro
antioxidant
bartender
booking
caitlin
caloric
ceremonial
cornstarch
dagger
dehydrogenase
delusional
dieting
disciplinary
discounts
domination
driveway
edith
elsa
emphasizing
epithelial
errands
exhibiting
extradition
extremes
eyesight
fart
felony
fluffy
follicle
graveyard
honduran
hunch
infarction
influencing
interconnected
isolating
jess
leeds
leftovers
licence
ling
markings
masculinity
merging
mistakenly
monoxide
mujer
neuropathy
nonviolent
offence
overeating
pandora
pillar
plank
reapply
sac
sanitary
sapiens
scholarships
secretariat
sepsis
skillet
slang
slots
smear
socializing
spur
stings
stools
stressors
suspicions
throats
toughest
upholstery
upstream
watt
##ole
##osis
##win
22nd
256
320
abruptly
adrian
anyhow
appoint
arrogance
audit
beep
bland
bouncing
brink
bunker
commenced
cooperating
criticised
denote
denounced
dent
disastrous
disbanded
eez
energized
entropy
finely
firewood
galileo
geopolitical
georgetown
globo
grappling
grieve
haired
herbicide
heterosexual
hm
homosexual
horizontally
hypothalamus
hypothyroidism
indie
irresistible
kira
langley
linderman
midwife
misleading
mitch
nervousness
observable
parameter
playback
pleasing
premise
primer
progressing
prototyping
query
referenced
remarked
remorse
reusable
safeguard
sanchez
sanctioned
secreted
selves
shady
stainless
stethoscope
stimulants
surrounds
syndicate
tamil
taped
technicians
transfusion
trilogy
uphold
vargas
versatile
zhao
##cio
##ela
##kh
##op
##owice
##port
##rat
##sk
113
1838
1869
assessments
avoids
beginners
bounded
bumped
charities
classify
conduction
contests
dared
degraded
delightful
designate
distortion
emilia
entirety
evelyn
expiration
explorers
faculties
faucet
fiberglass
firstly
fixes
forthcoming
fringe
fronts
gag
galicia
geeta
gina
halted
heh
hernia
hostess
inhibited
integers
irs
isis
lace
león
liars
lisbon
mast
militant
milton
molten
natasha
niche
nikki
outrageous
oxidase
pencils
photon
polymers
porous
portrayal
protease
ref
scorpions
shrubs
soyuz
spacing
staggering
straps
surveyed
swarm
tagged
triclosan
typed
updating
vanity
vigilant
vines
viscosity
wehrmacht
willy
wola
yoko
##ance
##dar
##iec
##ire
##king
##ming
##pan
##rah
##tas
abandoning
amine
appellate
arbitration
assurance
bai
bali
bikini
branding
brothel
captivity
catholics
caucasus
cayman
cheng
childish
clippers
coherent
competes
concealed
conditioners
confinement
convoy
criticisms
dangerously
denver
descendant
dom
experimentation
fashionable
framing
geo
harem
hypoglycemia
impulsive
infused
inhuman
isabelle
joyce
ka
manganese
mecham
metadata
miniseries
monsoon
nicky
objectively
onstage
ovaries
pane
patrols
paycheck
pearls
photoshop
pl
prenatal
prosthetic
pulses
racket
refounded
regenerate
reinforcements
rojas
rorschach
shack
shredder
socioeconomic
sonia
stakeholders
streaks
stuffing
swimmers
tectonic
tess
treadmill
turnover
underside
unreliable
vip
wring
##fe
##gy
##mph
##ła
##��
1882
acetic
advocating
agar
albumin
baptized
basalt
belarusian
bicycles
birthplace
bot
bribery
campania
coaching
cobra
colds
combating
compiler
connective
constituted
contradiction
cools
cornell
depletion
descend
dishwasher
doorstep
elevators
elf
emoji
exacerbate
fireplace
footprints
gibson
gloss
gnome
graft
hippocampus
ingestion
inhaling
injectable
intangible
interacts
introverted
katy
lego
litigation
malware
medina
midfielder
mitigate
molar
monumental
nahiya
nauseous
nomadic
noodle
norton
notices
parallax
piracy
piska
plantation
pregnancies
prentiss
procession
purified
quasi
quickest
rede
reminiscent
rex
scarlet
scholarly
securely
snaps
stressing
sunni
tariffs
terumi
turbine
viii
winding
zeros
zombies
##30
##dorf
##ez
##hu
##α
1858
210
abbreviation
accommodation
achievable
addicts
adversity
agitated
antony
arranging
artificially
asserting
biscuits
bloomberg
blossoms
bohemian
brokers
cellulose
challenger
chords
chávez
cloak
complexion
correa
curfew
currencies
diver
dyeing
eden
emmanuel
fading
fences
fertilization
glen
glutamate
grenade
headset
hemorrhage
hernández
imitate
immersed
inconvenience
industrialized
inscribed
jammed
jules
labeling
lynn
manure
marital
martini
measles
midway
mutant
mythical
nicaraguan
organizer
paddle
parkman
pounding
prolific
recreate
remark
removable
reptiles
rv
sahara
sausages
shh
simulator
solvents
substitution
subtypes
syntax
thugs
ticking
tombs
unavailable
ur
wandered
weber
willingly
wrinkle
yin
##ama
##cing
##nan
##nda
##ser
##vich
##zen
##ان
30th
albedo
andrews
brine
centro
citrate
cradle
cripple
cuff
delusion
dissident
dodge
emirates
enlargement
enslaved
enzymatic
eradication
establishments
extracts
fatalities
fins
flores
flushed
glamour
gomez
gunpowder
hare
hooking
illustrator
inaccurate
inducted
intensified
intermittent
intra
irresponsible
jeanne
joffrey
khanh
lipids
manic
marley
maxwell
mbc
moths
myers
niki
opted
origami
overuse
oxalate
pathogen
pd
peacekeeping
perpetrators
photons
pioneered
plugs
predicts
provoking
quarrel
radiant
railways
reflections
reich
renewal
richardson
ripping
rodent
scanned
scarcity
sigismund
sms
sorting
staining
sweetness
swish
takeda
thrombosis
tightening
timothy
turbo
unintended
variance
watered
yielded
##ńska
amplitude
andrés
apex
authenticity
bahrain
cascade
castles
cayenne
cessation
chelsea
cherish
cns
contrasts
convict
creed
crumbs
debating
dreadful
dudes
elemental
flourished
fulbright
gem
gems
genera
gerald
gil
gran
harshly
humankind
humiliating
hydro
iau
interrogated
isomer
joon
kane
ketchup
knit
koch
launches
lightening
manipulating
mater
mk
muddy
outsider
overlook
panamanian
parasitic
persistence
petrelli
philly
polarized
possessing
queensland
reconstruct
reliability
restricting
runaway
sarcastic
sniff
subside
superiors
swiftly
tipping
tuan
washer
winston
##com
##pur
1850
abrupt
adapting
agile
alps
amazingly
ambiguity
aspiration
attractiveness
avenge
banished
boiler
brighten
calmer
cao
catalina
cfa
cod
collaborators
consolidation
consumes
crafted
czechoslovakia
deceived
dietitian
dislikes
divert
ernesto
finalists
flipping
fractured
frosting
garner
giuseppe
grandmaster
hangover
homage
influx
insecticides
inspirational
instituted
kahlo
katniss
kilo
liberated
ligand
locke
matthews
mayo
memoir
migrant
monaco
moody
mujeres
nationally
natives
nazir
nghe
o2
orderly
partisan
phan
philharmonic
planners
plausible
polo
pudding
refreshed
refreshing
reliever
relievers
respectfully
retrograde
rubble
sal
shouted
sn
soles
souvenir
spatula
stannis
subgroup
suffice
tame
tangles
underestimated
uneasy
unhelpful
validate
verbs
wildly
wraps
xml
##ero
##fi
##ico
##istic
##logy
##ock
##oh
##the
1826
270
aesthetics
aggravate
alarming
alf
analytic
angie
antivirus
beads
blockade
botany
brewery
commute
configured
contractors
converse
covert
cranberry
culprit
descriptive
ecliptic
elevations
enclosure
enix
evaporate
expel
fertilizers
finale
flex
gale
geek
h2o
herrera
ign
inhaler
instruct
interstellar
intoxication
juventus
ln
magellanic
maternity
mayonnaise
meadow
mikey
milliliters
modifying
p450
papaya
pigeons
placenta
pms
prettier
provoked
ranged
rejects
relaxant
rocking
rubbish
sbs
screams
sinks
slapped
specialization
steals
strategically
striving
sweetened
teammates
umm
unbearable
validity
watery
windmill
##aya
##hen
##oc
##sing
##wy
##ر
144
accusation
agony
ale
apocalypse
barwice
bets
blur
brighton
cages
cho
cleavage
clockwise
conditional
crixus
croatian
defendants
delaware
disciples
divergent
ejected
enlist
flashing
fortunes
francesco
françois
freeway
gangster
groove
guru
gwen
hash
hawaiian
horrific
hotspot
informally
insensitive
jihad
kurdish
ministerial
morgue
municipalities
nikolai
notepad
orient
paolo
penetrating
permissions
petrol
predatory
prematurely
redesigned
referee
rooster
salmonella
sarge
smack
soca
starbucks
strainer
straits
synthesize
taipei
texted
thereof
transplants
unmarried
unplug
urea
virgil
##50
##ster
1815
1866
1875
1877
affirmation
amended
bavaria
beatrice
boobs
busting
cheering
chiefly
clayton
colonization
compile
condensed
counselors
crusade
deepening
degrade
denies
disregard
dolores
doppler
edison
enroll
entails
exhausting
expenditure
eyebrow
fig
frances
fructose
gallo
gamers
goalkeeper
gonzalez
grassroots
heavyweight
hickey
hussein
hydroelectric
hydropower
jude
karaoke
kendra
latvia
leaned
magma
manifests
medlock
multitude
nuisance
nurturing
onboard
optimize
oslo
outreach
outspoken
pac
parsons
pcs
persecuted
polanów
prevail
prosecute
quinn
rejecting
retro
reversal
riddle
shoved
steppe
sur
sw
termites
tremendously
unprotected
uploading
usda
vlc
wiggle
##bank
##bility
##ct
##ias
##ile
##kan
##kov
155
1600
algiers
arid
attackers
baptist
brat
communicates
conservatory
cov
dearest
deepen
degrading
depart
disliked
dixon
documenting
easing
elasticity
emerald
entrepreneurial
entrusted
estonian
exoplanets
fibrillation
finer
genghis
gniezno
growers
hayes
higgs
hotline
hydraulic
interpreting
intrigued
kętrzyn
lifetimes
malnutrition
mandated
manifesto
mesopotamian
miao
mop
outpatient
panicked
parchment
pas
paved
peck
philanthropy
photographers
poe
pollination
prepares
promoter
reel
reinforcing
residing
rift
rotational
sediments
siberian
spiegel
stirred
striker
subtly
traction
trunks
turing
ubisoft
ucla
wastes
wheeler
whispered
yorkshire
yugoslavia
##bach
##ego
##gar
##ht
##med
##rn
##uri
##ين
260
2d
ailments
alison
allan
applicants
atrium
becky
believer
biochemical
blinded
boar
cad
carpets
charger
clans
coincide
competitiveness
compulsory
confederate
creatinine
debit
dell
demolition
denise
disperse
echr
eisenhower
exploiting
extremism
faulty
feral
fission
flick
freud
gee
genoa
glasgow
grabs
grime
guinness
hampshire
hover
illumination
incarcerated
informant
insanity
intimidate
italians
landfall
locality
manufactures
moor
nkvd
nominee
obedience
optics
pathological
perfumes
pitches
polygon
preach
reactors
recite
rendezvous
repository
revisit
ruiz
sasha
shareholder
simone
slips
spilling
spratlys
sterilize
subsidiaries
sulfuric
suv
testicles
togo
tylenol
unicef
vogue
yamauchi
##dan
##eo
##genic
##lon
##stein
##sy
adversaries
alberta
alfonso
angina
aortic
aroused
arrivals
assistants
backstage
borough
botanist
circulated
citadel
claus
clones
commodore
concurrently
consolidate
contaminants
coroner
curvature
daunting
dilated
enhancement
escuela
establishes
evaporation
extremities
fevers
fibroids
figs
firmware
glucocorticoid
guillermo
hague
haunt
heed
helm
huynh
hye
ich
imperfect
inflated
interpol
journeys
liberalization
liberian
lineup
loaf
mccarthy
modernity
morals
nerd
ovary
padre
picasso
pinned
pitcher
plumbing
reassuring
scab
sh
smuggled
steaks
strapped
suns
swearing
thuan
trimester
unsuccessfully
ventilated
virginity
wałcz
yea
yolk
##bc
##llion
##making
##nga
##oli
114
225
actresses
adaptations
admits
anaerobic
annoy
apt
arkansas
armpit
blooming
boarded
bunk
camelot
cancellation
carnitine
cheerleader
chronicle
clashes
colonists
copa
cynical
cystic
dampen
dictionaries
differentiated
directorate
distrust
diệm
douche
duplicate
eroded
esophageal
exquisite
fifteenth
fillings
frostbite
genomes
gnrh
hae
haiku
harden
haunting
impoverished
kb
kilos
kor
malik
medellín
mei
mentality
monoamine
monolith
nouns
occupies
outlines
perez
piotr
pivotal
pong
preoccupied
reuleaux
rey
rooting
scaled
scriptures
sequencing
shan
shortcomings
spawned
stinging
stinking
stumbled
sufferers
suggestive
superpowers
tart
til
trojan
upheld
vested
walmart
zedong
##bal
##con
##ics
##ious
##ori
##rus
127
24th
40s
abigail
activision
advisable
amidst
assaults
bankers
barciany
baton
beatles
benny
bins
bitterness
bracket
brandenburg
breached
cashews
catalan
clap
concurrent
considerate
crunch
dalton
dealings
depict
destinations
detached
distributor
doorway
drafting
drc
emits
encoding
endothelial
forcibly
formulate
ghul
grievances
handkerchief
heroine
hubert
hugely
hun
ic
inquire
janitor
landslide
lawsuits
lazarus
metrics
moonlight
moose
mosaic
mucous
nightfall
offending
oghuz
pessimistic
prank
puff
quotation
recurrence
reina
seating
shipyard
sid
società
sofia
sorbonne
suction
superiority
unequal
versailles
visuals
vocaloid
webs
##ap
##bert
##bury
##ily
##ory
##pp
##ties
##wan
##wice
23rd
allison
anatomical
bans
bieber
blackout
blushing
breakage
breaker
brenda
brochure
budgie
builders
bulletin
casing
cauliflower
chul
clare
codeine
comparatively
contingency
crank
creole
crispr
customized
dante
dipped
discusses
disposed
documentaries
dolly
edwards
egfr
eject
eleventh
evasion
examiner
extermination
gorbachev
homosexuality
hà
ieyasu
informing
initiation
jumper
knockout
landslides
lids
linguists
longtime
macbook
madman
mc
meme
nadia
neatly
necrosis
overheard
poly
preventable
provocative
quota
raging
rake
reliably
rhythmic
sling
spleen
stabbing
staples
steroidal
suppressant
swagger
sweeter
tien
toruń
township
undertones
unification
vibration
vicente
visibly
wield
witty
α1
##dong
##eus
##idine
##ids
##ram
##ère
121
124
adultery
allosteric
atrophy
b2
baldwin
benefited
blaze
brute
camels
ceos
cilantro
circulatory
communicated
composing
confidently
contributors
councils
courthouse
cuffs
cultivars
czaplinek
decongestant
defective
denser
diseased
ec
embodied
ethic
euphrates
exempt
fingernail
forgets
fourteenth
fulfillment
funerals
gargle
gladly
glued
grossing
h1
handshake
honda
hui
jonah
k2
laborers
lodged
lozenges
maggots
manifold
manipulative
meg
nodding
ons
orchard
orwell
plaster
preaching
preston
pretrial
probes
quarry
raccoon
reap
refrigerated
reopen
rite
rodrigo
secondhand
shines
simulated
sprain
straightening
stung
stylish
syllables
tackling
taco
tanker
taurus
tehran
thor
tibetans
trinidadian
ultraman
unnamed
validation
whack
wikihow
x86
zara
##cus
##ette
##har
##ified
##nate
1879
1881
abnormally
accomplishing
aggregation
aneurysm
asians
assad
babysitter
biceps
booster
canonical
chaney
chia
cieszyn
clears
constituents
darken
defeats
diminishing
disguised
disposition
doubted
downside
dusk
evidently
fallout
fearless
ferguson
freezes
glare
grasses
hbo
henna
hinder
hypnosis
hypotheses
illegitimate
inscriptions
intercepted
lambert
learner
liabilities
lina
luca
meadows
memes
metatron
mixtures
moth
mourn
oakland
opole
patronage
portraying
postpartum
propelled
pyramids
ramón
reliant
relocate
roasting
sighted
slash
sociopath
spines
spitting
stagnant
stripping
surfaced
taboo
thien
trapping
unavoidable
unfolding
val
westward
wwe
yokohama
##amine
##itis
##zine
122
1795
additions
ahn
anomalies
antigua
appliance
applicator
ari
artes
avant
blanca
blooded
bratwurst
breathable
brightly
brisk
bureaucratic
canals
clipboard
completes
complicate
compresses
compute
condescending
daniels
das
decongestants
dissolving
drifted
duet
dumbledore
ella
entertained
eritrea
eta
euclidean
facilitates
fades
feeder
fishes
flares
ftp
gerry
graphs
hayley
insisting
invoked
kobe
lucrative
mellitus
molasses
nailed
needy
ohpc
oppressed
outweigh
parcel
pickles
pomegranate
primate
primordial
propionate
radiating
randall
reflexes
regina
rehearse
reservoirs
sixteenth
staging
superstar
taxpayers
tay
tel
testicular
thyme
truce
undermining
unlawful
upbeat
vaughn
youthful
##amide
##cho
##dos
##ere
##ków
##lio
##lock
##mate
##ovich
##ses
129
1789
absorbent
accession
accredited
airfield
allergen
athena
believers
biochemistry
bishops
bulls
burglar
buzzing
cabinets
calendars
candies
celtic
chops
coefficients
commonplace
compares
counters
cumulative
detox
dissatisfied
dropbox
eagles
embryos
emitting
ethylene
extremists
fabricated
fils
flammable
flattered
freddie
freddy
fundraising
ginseng
graceful
grazing
habsburg
impacting
implements
intrusive
jeez
jj
kaiser
lbs
marseille
mascara
massively
mentors
miasto
milder
mnet
modular
napkin
nat
numbering
obligated
ordinance
oversee
parted
pathogenic
patio
polynesian
priestess
prof
projecting
prominently
protections
queue
rebirth
replica
respondents
rhino
robber
selfie
sentiments
shutter
skim
soiled
specialised
spectra
starchy
starved
steamer
strauss
subtitles
tents
terminate
topically
topography
torrent
twilight
unleash
venomous
vine
weaving
wick
xenoblade
##bing
##cal
##gh
##ible
##ical
##ova
##ule
116
aforementioned
amounted
androgens
anonymity
approachable
atkins
attire
banie
bello
blurry
bounds
brendan
chartered
choreographer
cis
claw
clove
computed
concessions
congresswoman
convection
corrections
crease
darhk
demographics
devils
dht
diaz
dinners
discontinuation
dissipate
diversion
ectopic
eliot
elm
embroidery
empathize
emperors
epidemiology
errand
eruptions
euphoria
felipe
gecko
grammatical
guangdong
gunn
hairline
havoc
hdl
hoi
homer
hourly
hugs
imitation
incarceration
incremental
insignia
karma
longing
maize
memoirs
memorized
merits
mime
motherboard
notebooks
overflow
override
oxidized
panda
peeled
peg
phenomenal
pilar
pimp
plexus
prefix
pumice
rearrange
relics
riches
ripley
scuba
seminal
shoreline
shortlisted
silica
siri
slum
snip
sonar
stuffy
surgically
suu
syringes
tatra
tempered
tinh
titans
treatable
tvs
ui
urdu
wadi
wee
willpower
witwatersrand
worldview
yong
##20
##book
##can
##fs
##ivity
##las
##nal
##oy
##tel
##tre
##ven
145
1849
19mi
aimé
allocation
amnesia
arbitrarily
astrophysics
bam
bicarbonate
bien
boosts
brainstorm
bui
cassini
chefs
clarification
clicked
colloquially
conducive
connie
contradictory
coughs
crippled
cylinders
daryl
daydreaming
deceive
defy
deliveries
diagnoses
diagnostics
din
dips
dorsal
ecstasy
emulate
ensuing
escalated
executing
exponentially
fascism
ferdinand
frusciante
gangrene
gogh
grout
incompetent
indifferent
infancy
iodide
iwata
joo
keller
leopold
lobes
macau
macrophages
malls
medici
microfiber
neighbour
nobles
nordic
opener
outwards
overturned
parentheses
pendulum
percussion
pragmatic
raul
reps
rightly
scarcely
sergio
shane
sheffield
smoker
snuck
thankfully
transforms
unconventional
urbanization
vale
valle
zack
##ade
##ado
##down
##ika
##ima
##nte
##tein
##uta
1857
akira
altitudes
anticoagulant
apis
arrhythmia
averages
barren
bathrooms
beverly
bids
boruto
bouts
breeders
broadband
burke
busan
cabaret
candidacy
capcom
cashier
chiang
chimney
choreography
cites
cleansers
cmd
contend
convulsions
counterproductive
crib
cytokines
dawson
deacon
deficient
deformation
deterioration
deviation
dialysis
discontinue
dominating
echoes
eminem
enlightened
excellency
exploding
foliage
gs
gustavo
hailed
herr
hodgkin
impending
ingest
initials
kerry
kyi
lactam
lana
mas
metropolis
mite
mule
noir
overwhelmingly
pereira
phoned
pinto
potion
połczyn
principally
pseudomonas
psychiatrists
quieter
rails
reversing
s2
sacks
salted
salvage
sansa
savory
scattering
scotty
shears
shivering
splits
statins
stature
streptococcus
swimsuit
tropics
troupe
unconditional
uninstall
usher
vibrate
vulgar
wojciech
zambian
##12
##ded
##ien
##kowski
##len
##nna
##sia
##sm
##ssa
##uma
apoptosis
arches
ares
arkham
arrhythmias
autobiographical
ax
barlinek
battered
bolton
boyle
bundles
burkina
campaigned
canine
cheeses
concise
convened
conversational
creeping
densely
despise
devastation
devoid
diazepam
disadvantaged
dismissal
dispersion
dorado
downhill
durant
eaters
elliott
faso
fiancé
frizz
gaseous
gif
gilbert
hermann
hiroshima
imprint
inconvenient
invalid
janice
jeep
joyful
krypton
kurt
labyrinth
leaflets
learnt
melioidosis
messier
milestones
minimally
modulation
morale
mossad
mystical
namibian
nd
negligible
novo
outs
ow
paracetamol
persuasion
poisons
procrastination
punches
rags
renting
reopened
sacrificing
scatter
sci
secretive
sect
seminary
seniors
shellfish
sherry
skepticism
soho
sorcerer
sourced
spirituality
sportive
standoff
styled
terminals
tonga
trailing
ts
tyranny
uber
undone
untouched
upgrading
vermont
vol
vowed
witnessing
##ción
##feld
##ification
##lt
##lus
##rm
##zepam
142
1831
1872
admissions
affirmed
alterations
aspiring
awaits
bv
calves
clumsy
coached
commemorating
como
condolences
connector
consonants
copd
corridors
crawford
cyril
deposed
detergents
deteriorated
distinguishes
distressed
endocrine
expulsion
eyelashes
eyelid
fascination
ferrari
filmmakers
folate
frameworks
franchises
gall
geared
genie
geographically
himalayas
hinduism
homogeneous
huy
hybrids
iced
ico
implication
infiltrate
macular
mae
majors
mal
mania
mcqueen
metallicity
methodist
monarchs
naruto
nfl
norse
novartis
optimized
pears
plead
possessive
puree
quart
refine
rep
rosario
rs
salesperson
seasonings
segregation
shuts
smiley
smoothies
subordinates
synthase
terracotta
teutonic
thickening
topological
trainers
truthful
tunes
turbines
tyrant
unleashed
usefulness
ventricle
vibe
viking
weakest
willie
##ain
##aki
##ale
##ert
##ett
##our
##zation
##zu
2025
27th
850
advisers
aleksander
alias
alvin
ascending
atletico
axioms
banda
basque
biennial
biomedical
bleached
boulder
breakouts
camouflage
characterised
characterize
charismatic
cheon
clutch
cobalt
concluding
cones
conferred
crassus
ctu
cub
cuddle
cultivating
dll
doubtful
dressings
endeavors
enormously
estrogenic
ez
fairies
familiarize
fasten
fiancée
fiery
firsthand
forensics
gonorrhea
grudge
handcuffs
harmonic
heartbreak
hegemony
herbie
horrors
husk
hyperthyroidism
immensely
imperfections
impurities
incense
inserts
ira
jasper
kalisz
katrina
krishna
legions
linh
locating
logically
mailing
malta
matte
melanie
methicillin
moisten
motivating
mozilla
nano
nazca
nightly
oasis
parlor
plunge
prednisone
reassurance
recharge
resided
resorts
restarting
richmond
rockefeller
rosen
rt
rudolf
rumours
runoff
scandinavia
seminar
sigma
silvia
slogans
spotify
standpoint
stockings
subscribe
supermassive
tariff
taro
tauri
tito
turbulent
twelfth
universes
unlucky
variously
vibrating
visas
wager
walled
weaponry
whisk
wickham
willow
withdrawing
##bus
##cc
##dt
##hara
##late
##rk
##wick
15mi
1812
1854
accretion
aiding
alec
alfa
anarchy
anthologies
anthropologist
ascent
axon
beirut
bends
bingley
bluff
bobolice
braces
bruised
buckle
burgers
canton
chatter
checklist
cj
colegio
collapsing
comprehend
constellations
cosenza
cruiser
cum
darłowo
detectable
dora
elusive
emilio
enlil
floats
frodo
frustrations
gaga
gestapo
hiroshige
ignition
immoral
inertia
interruption
intersect
intruder
kabul
knuckle
lain
lapse
ligaments
lightheadedness
medicare
meridian
mick
midwest
montes
motivational
narcolepsy
numerator
offender
pancreatitis
participates
perch
pervert
phony
piston
pluck
polyester
pore
poseidon
preservatives
professions
randolph
regulator
ren
revisions
sakes
sandals
seaweed
serbian
seventeenth
shortening
soprano
spouses
stabilized
stamped
supplemental
symbolism
tailed
tao
telemundo
thrombocytopenia
tornado
torturing
transplanted
trembling
turk
unproductive
uss
vanish
winchester
xiao
yielding
zelda
##bit
##ions
##mp
##ned
##tech
##world
##yama
146
advises
anxieties
archaeologists
asymptomatic
attendees
austro
avengers
barefoot
bernie
binoculars
blackheads
bloated
bongo
borosilicate
bragging
buckets
burton
campuses
captains
combs
commandments
conducts
converge
correcting
cosmology
counterfeit
cubs
cuddling
dine
diverted
dominic
drowsy
ellie
encompass
entrenched
epidermal
escorted
extracting
fragmented
gardener
gated
giraffe
grasslands
h2
hanger
homestead
hypothesized
ig
invariably
invoke
jessie
jolly
junkie
lawful
laxative
legislators
libyan
macaroni
malagasy
marsh
marvin
maximal
małe
mediator
metacritic
meteorites
mina
misplaced
moat
muffin
necessities
ninurta
nodded
oddly
omitted
pear
philanthropist
pistols
polarization
propulsion
radios
refund
retinoids
ridden
robes
rollers
saloon
seeming
serena
seriousness
sicilian
sidebar
signifies
slammed
smokes
speck
spectacle
spindle
strife
stumble
supervise
supremacy
teapot
tenants
ti
transmissions
treatise
tulips
valerie
weary
wetlands
yvonne
α2
##ax
##eta
##master
##shan
##wi
##works
##yeh
##zole
1772
accumulating
afp
ala
allocate
ambassadors
amina
annex
antoine
aorta
armando
armory
asymmetric
authentication
autograph
averaging
awkwardness
banquet
barbie
bash
baskets
bengali
blanco
bled
boxed
cameo
chained
cl
contingent
cr
crawled
crocodile
cushing
dec
designations
diphenhydramine
enki
essex
fidelity
fiji
footwear
formosa
francs
frizzy
garrett
glycemic
goodnight
gypsy
hairspray
heap
henderson
herring
hoo
hoover
ignores
insider
interleukin
jacqueline
karol
landmarks
lanterns
lattice
ligament
lowercase
marches
mediation
mermaid
mp4
narrower
ne
nocturnal
obsessing
overrun
pacquiao
pcos
peptides
picky
pierced
polyps
prescribing
purification
quoting
raisins
rampant
realms
reformers
replacements
rinsed
rites
sealing
sentencing
snapping
snatch
snoring
sor
sparkling
startled
statutory
stunned
susceptibility
tending
testified
tet
tex
thinker
tinker
toothed
und
utilitarianism
va
vending
vulcan
weaver
wed
xia
zulu
##ean
##een
##meter
##ological
##tia
##ño
126
148
1853
330
3x
albuquerque
amateurs
ashore
assertion
bandits
barnard
bayonetta
beethoven
blouse
bombings
bon
bosnia
bristles
brutally
cassette
chap
cheesy
chemo
chimpanzee
cite
communion
constantinople
converter
corrosion
cures
césar
decks
declines
directs
disagreed
disclosed
doodle
downfall
doyle
drills
eel
elvis
eminent
encountering
ensured
essentials
ethinylestradiol
firefighters
fluorine
formatted
fraser
funk
garnish
glaxosmithkline
gov
grilling
hardships
harlem
hesitation
housekeeper
igf
importing
indifference
indus
installment
interwar
invaluable
irregularities
irritant
kappa
kgb
kiddo
kun
leningrad
livelihood
lothbrok
luigi
lumbar
lumber
managerial
mathematically
mausoleum
metformin
mil
misfortune
missionaries
mundo
mural
mystic
naps
nash
neuromuscular
newman
nha
nomenclature
nowa
oswald
payload
persia
persisted
phobias
plight
plotted
poniatowski
prophylaxis
ramon
rebounds
rector
refinery
reggie
rhyme
scenic
selectivity
shenzhen
shred
sintering
starship
stevie
stifler
submerge
supernovae
tempt
terrace
tightness
tongs
tow
tractor
transiting
tristan
trophies
unwind
upland
warheads
weave
weep
westeros
whisky
windy
wrestle
yankee
##bird
##face
##graphy
##hill
##if
##izes
##ome
##tos
##tv
##una
##ée
134
1840
2010s
abort
adhesion
adversary
aide
anhydrous
assigning
backdrop
balkans
biały
billing
blessings
bundled
burying
cafes
calluses
catalytic
cation
catnip
chronology
clams
clergy
clifford
cma
coaster
coincided
commence
commentator
compromising
conjugate
courtship
creeps
daraa
denis
descartes
devise
discolored
dissatisfaction
dune
elisa
encompassing
exchanging
fauna
fluently
francesca
gasket
georg
godfrey
granny
harassing
ida
interdisciplinary
inventing
invincible
ishtar
jiménez
kernels
knob
lurking
lysine
manpower
matrices
mend
momentarily
monstrous
mute
necks
nolan
nora
nudity
oort
oprah
oricon
outnumbered
peaking
percentages
periphery
perpetrator
pinochet
polska
prosper
psychologically
quark
quaternary
rectal
reluctantly
reunification
risc
rourke
shuffle
shutdown
submitting
substitutes
synaptic
tanner
tartus
teamed
teller
thrones
toned
tra
typhoid
utmost
veneto
vr
wagons
waltz
webpage
xinjiang
##15
##ag
##ali
##bia
##ets
##nta
##rio
##virus
##ºf
007
137
325
airflow
analogues
ariha
attachments
auntie
averaged
ballad
benson
blends
bouquet
brasil
broaden
brokerage
bursting
butch
ca2
cd4
cephalosporin
citric
clam
coasts
collapses
confidentiality
crappy
creations
cupboard
decency
decipher
deleting
dmitry
drawno
ducati
dueling
emancipation
embolism
emmett
etiquette
evaporated
experimented
flossing
foggy
foreplay
freeing
gavin
ghz
gladiator
gracious
grenades
handball
hind
hourglass
hulk
imaginative
indictment
intolerant
intrusion
jared
jerome
jot
jug
kielce
krzysztof
lizard
lyla
mace
marinade
masamune
mccoy
mesa
milo
mobilized
muzzle
nourish
onward
outsourcing
oxidative
palaces
parallels
pei
perished
pickle
pisa
planck
polly
polytechnic
potted
preheat
presided
progestogen
prolactin
punctuation
qian
raj
rapist
reactionary
roach
rudy
sardines
sergei
sociologist
soybeans
specificity
sterling
subcontinent
tilted
trays
tre
tremors
unauthorized
uncontrolled
unincorporated
virgo
wastewater
waved
windshield
wolin
wrench
ziggy
##aa
##fu
##los
##makers
##ologist
##oo
##use
##ès
17β
1820
1880s
1⁄2
2x
appreciates
archived
aspire
assyria
attaching
audrey
aversion
barczewo
bedside
birthdays
bolts
calderón
cannes
cannons
carving
casablanca
catering
cheapest
clinging
clowns
cob
compromises
concession
condemn
copernicus
dakar
dearly
depictions
diggle
disciplined
dishonest
elongated
emil
epidermis
exceedingly
exploits
extroverts
faked
flaky
forwards
geoffrey
glycoprotein
hoc
hound
housework
hydrochloric
ingenuity
inspires
invasions
ipa
irons
js
judaism
lactamase
lethargy
logos
ludwig
lyon
masan
massages
menthol
mercenaries
messes
micah
misuse
mixer
mutated
nad
nara
narcissistic
negatives
novell
null
occult
paso
pavement
pe
piedmont
piłsudski
predictive
punishments
railroads
ras
resent
ri
robbers
rowing
rubbed
rye
shorthand
siracusa
stabilization
starfleet
storyline
striped
succeeds
takeoff
teased
televised
tenant
tenement
thrush
toothpick
traitors
tutoring
vaccinations
vertebrates
wanda
wedgwood
werewolf
westminster
woken
##all
##ben
##dor
##graphic
##iro
##like
##mas
##of
##tto
##ub
##ves
##zin
133
13mi
185
1856
480
4k
abolish
accompanies
amused
aperture
aristocracy
babylonia
bachelors
brow
bulky
calculators
calypso
canker
castiel
caucasian
caucus
causal
centrally
clamp
clerks
cliffs
cocktails
coldest
collegiate
contrasted
countess
creatively
crunchy
cuticles
dee
desperation
dilation
disabling
dsm
elicit
embargo
empathetic
emptied
encephalitis
endowment
excavated
expeditions
fairs
flattened
flirty
freshen
froze
gaia
goin
gorge
greene
guerrillas
helmets
hesitant
hopping
hustle
igor
imam
intervened
introductory
jams
kissinger
learners
levy
lex
maniac
markov
maroni
marshals
memphis
methamphetamine
mitochondrial
mucosa
nai
newborns
nobleman
obi
objected
overseeing
oyster
ported
prized
profitability
prophets
qin
reborn
reds
redshift
relaxes
renounce
repeats
revert
reviewers
roster
savvy
seduce
seizing
sensei
sidewalks
sis
snart
speculate
speer
sprinkling
statutes
stint
stroll
suicides
superseded
supplementation
synapses
synth
tanya
temperament
transnational
triclocarban
tulip
typewriter
unanimously
unilateral
velocities
wal
wealthiest
wellness
whistling
witchcraft
##are
##car
##dis
##gia
##heads
##via
##ving
##ì
100th
119
28th
370
abdullah
adelaide
advisors
airs
alba
ampicillin
apathy
appraisal
astonished
badass
baudelaire
biodegradable
blueprint
bordering
breech
budding
cameroonian
canoe
caress
carla
carts
charted
clumps
compel
comprehension
consolation
cornea
coupling
crossroads
cydia
częstochowa
deteriorating
diagnosing
disorganized
distinctly
drazen
dunes
enact
epsilon
eso
evade
exacerbated
exporting
factual
fl
flatten
fledgling
forks
fraudulent
fsb
führer
glitter
goliath
grading
greenish
griffin
healer
hugged
icelandic
immerse
immigrated
improperly
incurred
intensify
inuit
judo
kościuszko
legislatures
liners
locus
martins
mexicans
militants
mongols
mono
musk
nicest
nutritionist
objectors
olaf
osteoarthritis
oversaw
oversees
palpitations
paramedics
paramilitary
pastries
pcr
peril
pertaining
pgc
pint
plagued
plunged
protagonists
puzzled
razors
reciprocal
reprap
resetting
revoked
romantically
routing
ruptured
saturation
secrete
seductive
seminars
sexes
starboard
straining
stud
taxpayer
teamwork
teri
tickle
trainees
twenties
ugh
ukiyo
unnoticed
upfront
uribe
valuation
wikimedia
zygmunt
##ao
##bah
##ery
##hr
##osa
##pus
##én
1855
1859
1mi
42nd
accomplice
accumulates
adherence
adorned
alligator
alvarez
andorra
anorexia
antacids
atwood
ballroom
broadcaster
caramel
carbonated
chappie
charms
chronically
clandestine
complimenting
consultants
cosmological
coven
cowboys
cracker
crispy
cultured
cushions
cylindrical
cytokine
della
deluge
densities
donut
dysfunctional
eliminates
endanger
envoy
georgian
gorillas
gołdap
granules
guideline
hallucination
headlights
highland
hydrocarbon
incidentally
intelligible
intimately
inés
ionized
justine
kbs
kde
kinder
ledger
linnaeus
lymphocytes
mackenzie
malick
mangoes
melanin
minneapolis
miraculous
molina
narrowing
neti
nomad
offenses
oncology
ou
pamela
pantheon
parody
penelope
peñarol
piast
plankton
plata
plugging
pollock
potty
pouch
prognosis
quake
radiator
rajneesh
rama
raúl
rebellious
reigned
replicated
rescuing
rhymes
rung
ryu
salem
secluded
shoppers
spasm
splint
stephanie
sterilized
strengthens
suriname
suzanne
tam
tanzanian
theatres
tomography
tongues
tossing
transformative
trujillo
undertook
upbringing
vacations
vancomycin
wh
whey
wits
wording
worsened
yusuf
ángel
##dad
##hn
##ied
##oni
##rated
##rer
##ual
##war
152
1836
29th
adore
advising
alkalinity
amigo
anesthetics
arse
awaken
babysit
bao
batches
bavarian
benchmark
blemishes
buster
censored
chai
charting
cheddar
chemists
cicero
clarifying
clingy
cohesion
constantine
courtney
crowns
crypt
curaçao
d3
dew
diffuser
ding
discus
dolby
drafts
durability
dxe
eleanor
engagements
entrances
envelopes
eponymous
eyeball
fibres
flavour
fn
funky
germination
godfather
hamsters
hideous
hijacked
hilton
hydrocarbons
hyperactivity
inconclusive
indispensable
inversion
jaguar
jeopardize
knuckles
lannisters
laps
lawson
luc
maldives
manser
marshmallow
masking
masovian
masturbation
meltdown
memorizing
mutilation
napoleonic
narrowed
neurologist
nguyễn
ocular
operatives
optimum
paraguay
parakeet
permeability
peters
poised
polymerase
postomino
prejudices
pristine
pups
recalls
rectum
restrain
retreated
retrieval
revered
roe
rumored
scooby
sexist
shrub
sophomore
stabilizing
stalls
statistic
successively
successors
sway
tahiti
tentacles
termination
tonsils
tuco
uncontrollable
unhappiness
warrants
worsens
wrestler
xii
zakopane
zenith
##ator
##boy
##ces
##chen
##lay
##ph
##room
##sse
##und
##woman
##wska
138
143
1833
1841
1900s
4000
actuator
acv
airspace
aldosterone
alfredo
authorize
avid
barbiturate
benzene
beskids
bierzwnik
biographical
bluffing
boulevard
brandon
brock
choked
circling
contemporaries
contentious
dakota
emergent
emptying
epidemics
evangelical
evoke
familiarity
fates
figurines
flaxseed
forefront
generalization
gretchen
hematoma
hereby
hitch
hobbes
hovering
hummus
hydroquinone
illiterate
infecting
inks
jewellery
laxatives
lest
lh
lidocaine
lindsey
lingerie
loki
lymphatic
malfunction
manned
marcos
mimics
mitochondria
mow
munitions
muse
natalia
navigating
neutrality
nga
oaks
ogre
olfactory
ortega
painfully
pensions
pep
permitting
perturbation
pg
plaintiff
pleasurable
plumber
polonia
portrays
principality
proctor
ps
quotas
rapids
realistically
recess
recommending
relocation
repressive
restlessness
retreating
retrieved
rhinitis
rm
roc
roommates
rugged
rugs
scanners
seeded
slender
sophistication
stamina
startling
steins
subtropical
thang
thrift
timetable
transitioning
unanimous
unicorn
unresolved
voter
wallpaper
wonderfully
wretched
yarn
zurich
##af
##card
##fication
##mel
##non
##nza
##rating
##ril
##sie
##time
##ºc
1790
1807
1847
accessibility
acidophilus
acquisitions
admirer
adriana
affiliation
afflicted
agrarian
ahmad
alerted
angelo
angered
aramaic
architectures
artworks
assassinate
atheist
attendants
banners
bari
bart
beaver
bmw
bologna
brackets
brainstorming
brent
buff
carotid
cartagena
celeste
chore
cinderella
cloning
collaborations
connectors
consonant
contemplate
contention
courier
cranial
debs
dentists
deteriorate
deterrence
directional
doping
drizzle
dynasties
edmund
ejaculation
elevating
emeritus
emi
endlessly
englishman
enkidu
equivalents
eurozone
fatima
fertilized
fibrous
fidel
filaments
flemish
fukushima
gait
grin
groundbreaking
gymnastics
hardworking
hurried
ic50
idaho
ignite
incubator
instinctively
inventors
jock
kendrick
kerosene
lair
leakage
lecce
looting
mackerel
mag
magically
magnus
marginalized
marianne
mira
morphological
motivates
netting
nigel
orphaned
overfishing
overheating
padding
pak
passionately
patriotism
peacock
perseverance
pigments
postage
prefrontal
preserves
princesses
profiling
quito
renovations
repercussions
ronaldo
rotates
rue
ruminating
sanofi
scorpio
sender
shaky
stacy
storyteller
sweetest
symmetric
taps
thinly
thunderstorms
toning
tram
troublesome
turin
uncheck
venetian
warns
widows
##aw
##dra
##ibility
##lie
##owicz
##pers
##view
##zyn
##ça
132
2022
37mi
abdul
actuators
addis
aida
alloy
altruism
amniotic
aphids
archaic
asphalt
assemblies
atropine
attaches
auditions
beggar
bender
besieged
blanc
bloke
boycott
bór
caretaker
cater
centimetres
cf
chopping
chopsticks
chrono
cigars
clarence
cleans
congregations
contrasting
craigslist
customization
daydream
deformed
delirium
dexter
dextromethorphan
divers
diversify
docs
dwarves
estriol
etymology
euclid
exodus
eyewitness
famed
fencing
follower
foraging
freeman
frenchman
fsh
grossed
hammett
hart
hawks
henryk
hess
hsv
identifiable
infringement
insistence
interiors
ironing
israelis
kanji
kelp
kyrgyzstan
lander
lena
liberate
limo
lizzie
loaned
locomotive
lviv
lwów
mazurskie
mediate
mikasa
mir
misconception
mrna
muscarinic
muster
ness
nostalgia
outrun
parrot
payback
pepe
perfectionism
pertinent
pontifical
porto
prasterone
preschool
procedural
propagate
qr
radii
radwańska
rations
redefine
relieves
remembrance
rené
routers
scandals
seok
sheltered
shooters
spoonful
squirrels
stalker
stripe
suitcases
superintendent
suse
tanaka
tee
telephones
terminus
thc
toaster
tracts
trance
unsustainable
upgrades
validated
vile
viper
visionary
watershed
widening
widest
zipper
##aro
##caine
##ceae
##cz
##ele
##gu
##illa
##iv
##key
##nne
##nov
##oids
##onic
##ration
##rite
##rol
##ship
1784
1797
1828
31st
5α
aboriginal
abscesses
accommodations
adaptability
advil
affluent
amide
américa
angolan
ao
apologise
aristocratic
attaining
attested
av
bestowed
bogota
bono
bristle
capitalization
centric
changer
chlorophyll
circuitry
citation
cobb
codex
collaborator
collide
compensated
contaminate
cove
cunning
dashed
decentralized
degenerate
delaying
dentistry
dien
disciple
dissection
dissociation
dowry
drier
ducts
dumpster
dungeons
dwight
edwin
ema
emailed
embryonic
enanthate
enforcing
enrich
envisioned
estimating
estimation
evaluations
exterminator
fainted
feline
flourishing
forceful
gemini
genitalia
getaway
glades
grad
grate
grub
healthiest
hermit
hiccups
hiroshi
honoring
horseback
humiliate
humour
hurricanes
hymn
ideologies
ike
improvisation
inbound
inflict
insurgents
interfered
interstitial
jacks
kato
keyword
khirbet
kidnappers
knownfor
laurent
laurie
lawmakers
literate
makeshift
maltese
marino
martyr
mercenary
michelangelo
mickiewicz
mobilization
moi
montagnards
nagging
needless
neu
objectivity
oxidizing
painkiller
pans
pasha
pentium
perennial
phenol
pickled
pipelines
platter
plunger
policing
populous
proofs
prowess
regulators
replicating
roam
rotated
sampled
seti
shrunk
skeletons
slay
slovenia
snacking
socialization
spectroscopy
stitching
substantive
sudo
summarized
synonym
słupsk
t1
tentative
textured
theological
tint
titus
tweak
unaffected
unload
urethra
veto
whispers
whitehall
workplaces
تل
##eon
##hole
##logist
##ments
##rc
##ulation
##ú
1794
1890s
212
abortions
abyss
attainable
backlash
ballerina
batiatus
bleak
booming
branching
casket
catholicism
cincinnati
cipher
clarified
colonialism
corrosive
cowards
crevices
cyclist
cymbals
darius
declarations
defiance
definitively
desks
dewey
disarm
dissertation
druze
dumbbells
earnest
embark
essayist
exaggerate
farrell
fend
fgm
fir
galavan
gardner
geniuses
glossy
glycolic
golbez
gonadotropin
gratification
grumpy
guitars
haley
hiatus
ifn
immersion
injuring
irving
ischemic
janus
jawline
joaquin
jody
judoka
keynote
lag
latch
leah
lieu
lifestyles
luxurious
maestro
mergers
methotrexate
moira
mozambican
muffins
muñoz
nagoya
narcotic
neutrino
nits
notoriously
ordeal
outburst
outermost
palate
pals
paralympics
parra
peggy
phlegm
pikachu
pinkman
pinky
ponce
posse
pt
rahl
reinstated
remarried
romagna
rpg
sandalwood
sandpaper
scabs
sensed
sergey
shingles
shootings
silhouette
sitcom
sleeved
slowdown
spawn
squads
ssris
stocked
tavern
thong
thua
toggle
tribune
triglycerides
troll
trough
unethical
unimportant
unpaid
walsh
warhammer
waterways
wifi
wrecked
wto
yamato
yuki
##fy
##gram
##ip
##kai
##lies
##long
##nde
##skie
##ë
162
1832
1837
201
a4
adaptable
adjustable
amygdala
anglican
armalite
ascension
asserts
audible
auditioned
augusto
badger
barb
battleship
battleships
bedrooms
benzyl
bjorn
blanks
brennan
canadians
cantaloupe
carolyn
cas
casts
cctv
cephalosporins
cham
chechnya
closeness
codenamed
conveniently
convex
corns
cortisone
councillor
culminating
dictates
diphtheria
domestically
dresser
dubious
dumps
economical
elective
endowed
espresso
exposes
feb
fireman
fixation
formaldehyde
fright
gambit
garde
gaza
germinate
gustav
heath
hesse
hokkaido
housewife
humming
hypocrisy
ide
imbalances
indicted
inexperienced
latte
leipzig
majoris
mari
marquis
martín
mechanically
mechanized
methanol
michelin
minced
moisturized
morrison
multitasking
mythological
nearing
nebraska
neglecting
neolithic
newcomer
orb
outlaw
paused
pennies
petitions
pheromones
pieniny
piercings
pilates
plaques
pointy
populist
precipitate
prettiest
prohibits
psyche
rainforests
raphael
relic
restful
rhett
roux
rovers
sagittarius
salazar
samaritan
savages
signaled
slugs
smithsonian
solemn
soloist
sow
squats
stepfather
suede
supergiant
syllabus
tartar
tho
torpedoes
touchscreen
tramp
trumpet
tulu
unjust
unkind
unmanned
unsweetened
uvb
violates
webcam
widen
yank
yoruba
##bie
##del
##fo
##hito
##ify
##just
##tsu
##val
##ː
153
1806
25mi
26th
accusative
acknowledges
ahold
alertness
barrett
basins
bb
beatriz
bedrock
bliss
bolshevik
bows
boyfriends
breathes
bumpy
będzino
censor
chats
chinatown
cleric
clinicians
conclusive
confucian
congestive
contemplating
contour
crook
csf
dao
darn
dias
downloadable
elegance
eminence
endorse
endorsement
eraser
erectile
eurasian
evaporates
exerted
fatigued
filth
fritz
gladys
grenada
groomed
guam
hog
huntington
ie
individuality
industrialization
insides
insufficiency
interrogate
jackass
jakarta
kitts
ku
leann
liao
lucian
lucid
mailed
mainframe
mann
maxim
monotherapy
monty
moto
motorcycles
motorola
namesake
nucleoside
n��t
odessa
ole
oliveira
oscillation
oughta
outflow
overlooking
panther
papua
perish
phillip
plugin
pods
populace
pp
psyllium
pylori
recalling
redundant
refractive
regretted
reigning
relentless
resurgence
ribbons
richness
sandomierz
sarcasm
satirical
scoliosis
sedentary
semiconductor
sims
sorbitol
sorority
stashed
stoned
streamed
substituting
tate
timid
toad
transcendental
tricyclic
twine
twitch
undue
unsolved
varnish
vaseline
vegans
vertebrae
vingroup
vo
volts
warship
weatherstaff
wiki
wilkes
xerox
álvarez
##16
##17
##22
##cher
##ef
##for
##form
##gas
##mes
##pc
##rel
##sch
##vs
##won
##ña
136
1b
aang
advantageous
affirmative
aii
angelina
annihilation
arable
assay
atherosclerosis
atmospheres
bloodshed
borg
borgia
botox
bravely
browning
browns
ching
chronological
claimant
colossal
combing
concomitant
confessions
cornerstone
culminated
d1
deletion
demeanor
dislodge
disparity
disqualified
domesticated
dow
elaine
enlarge
exertion
facet
fiercely
filler
fillets
firearm
fixtures
footing
fragrant
gentler
gimme
greetings
gyms
hammond
hanna
hansen
hearty
hellman
hopelessness
hush
ibd
illuminate
improvise
incubation
inflate
informs
ing
ivar
jamal
jensen
johannes
jonas
justinian
keel
kobayashi
landline
latitudes
libido
lsd
lyric
m1
magnitudes
mitigation
mosquitos
mounds
ornamental
overt
palsy
pauline
pilgrim
podium
proudly
purine
rename
resourceful
revolutionaries
ripen
samoa
scolded
scylla
settles
shaded
sharaku
shun
shōnen
sinclair
slug
snare
standby
stereotype
storey
subtitle
sweaters
tedious
televisión
thames
toppings
torino
torment
torque
totalitarian
toxicology
trophic
undisclosed
unfit
uniformly
unpublished
uva
vacancies
vans
voicemail
waller
werner
yummy
yöur
zor
##24
##das
##elo
##eth
##kar
##lic
##mark
##ml
##mouth
##nko
##od
##sko
##uki
##viridae
##water
##zed
147
1814
1842
1844
310
470
ababa
administrations
afforded
agreeable
analgesics
anchored
anders
andreas
animations
anonymously
aria
ataxia
audacity
axiom
bandit
bayou
behaviours
blair
bleeds
brethren
capitalize
capitals
carpathian
cemeteries
chanting
charleston
checkpoint
conduit
conquering
contradictions
descends
detailing
detain
detects
diocese
distal
dominates
donovan
droughts
drummers
dumplings
electro
elves
enrichment
equitable
exerts
exponent
extant
fab
fanny
farthest
fatality
fishery
forcefully
forecasts
foxes
frontiers
gill
gloomy
gpu
gui
handover
hasan
herman
heroism
highs
hydrating
imipramine
impartial
improvised
incorporation
informative
inhumans
interdependence
intermediary
isle
kat
kutner
lars
leased
lenny
leprosy
liberating
linc
lore
lyme
lyrical
mah
mascot
mondays
narrows
neuronal
nhk
nippon
noticeably
observational
observes
occupations
occurrences
oceania
ocpd
ophiuchi
ottawa
paracels
passcode
patterson
pharmacology
pompeo
prairie
psalm
puke
płoty
rai
rattle
readiness
reformation
reg
reinvent
replay
resize
revolves
rhode
ro
rory
sb
septic
shatter
shaykh
signify
simplistic
sincerity
sparse
speedy
stasi
strata
subdivided
substrates
supergirl
sweeteners
telomeres
thermostat
thicken
toro
trendy
tripled
tripped
vaguely
vantage
vicenza
vicky
villains
warta
winged
withhold
wrongly
##anga
##awa
##die
##eau
##emia
##ep
##fire
##hagen
##hs
##ichi
##iz
##mura
##nas
##nis
##nto
##rone
##wu
149
abusers
accentuate
acknowledgment
addictions
adjunct
affords
alkyl
amuse
andrei
arcs
arginine
atlus
atopic
austerity
avenues
begs
bel
blogging
bong
bossy
braille
bubbling
cadet
calmed
capillary
castillo
clapping
collage
complains
compressions
configurations
cyborg
danube
darren
dashboard
decode
dehydrate
deportation
detach
dhea
dividend
dns
dominion
donuts
downwards
dąbrowa
edits
electronically
everlasting
exaggeration
exposition
familial
fireflies
flair
flyers
fraternity
gabe
gamer
geothermal
goodman
gpa
grated
guesses
guyanese
gymnasium
handbook
handwritten
hatched
heidi
heirs
heist
helsinki
hens
hibernation
huawei
hype
ict
implementations
inferred
innovate
isa
jiabao
jigsaw
joker
kwazulu
lancelot
lather
magdalena
mammary
mammoth
militarily
misconduct
mons
monterey
motifs
museo
mutants
navel
ortiz
outputs
overdue
ox
paranormal
pasture
pedestrians
pines
pixie
plentiful
polishing
portals
prevailed
professionalism
pursuits
reasoned
refining
registering
reshape
responders
richter
rigidity
riverside
rubs
rus
saddam
scorer
seekers
selects
selfless
sermon
sforza
shinto
signalling
sine
singularity
skeeter
softener
solves
spirited
spiritually
sputnik
strontium
subunits
sucre
summons
superheroes
suppresses
susana
tac
talbot
tandem
taxonomy
terminator
therapeutics
thomson
tucker
twists
ulnar
uncertainties
uncles
unfavorable
unscented
unthinkable
utilizes
venezia
vitality
volta
walnut
wards
warranty
wrongdoing
zoning
##25
##28
##40
##bat
##ches
##ensis
##gal
##gel
##hai
##inger
##mbo
1776
1792
1839
1843
258
380
420
abandonment
adalbert
affirm
amassed
anticipating
arisen
assembling
astringent
bahamian
belgrade
blondie
bracelets
brilliance
brownish
bryce
calamine
caravan
carver
cecile
cheaply
chewed
chloral
coleman
compliant
cornered
cymbal
denominations
dependable
detonation
dicks
discounted
disengage
doorbell
dukes
earthly
eclipses
enthusiasts
epstein
escherichia
externally
fang
façade
finalized
gaston
gestational
girone
glaze
goldman
granola
handbag
hemorrhagic
horsemen
increments
infirmary
insulated
intending
iranians
ivorian
iława
jails
khrushchev
laces
lexicon
lila
linens
localization
lunches
macho
manicure
meyer
michał
mimicking
minsk
momma
mushy
nanda
nassau
nhan
nortestosterone
numerals
obe
olympus
parting
pheebs
pillowcase
playtime
podcasts
poo
ppm
pronouns
prostaglandin
protruding
prozac
psi
psp
refocus
resins
roar
robb
rochester
rupees
sails
sarawak
scabies
scrubs
scumbag
sdf
seams
sewers
shameful
simplex
sizing
skulls
sniffing
solicitor
southernmost
sparing
spritz
sql
standalone
stricken
sulfates
sumo
surpass
swedes
terza
thermodynamics
throttle
tightened
tinted
toasted
tragedies
trenches
tres
triad
tutorial
tyrion
unchecked
unworthy
upstate
utilization
vasodilator
vegetarians
warwick
wozniak
##ence
##heim
##ime
##nam
##olo
##olone
##pot
##pt
1787
1813
1816
1821
1846
215
50mi
acidosis
aerosol
ain
alonso
amend
amyloid
antigens
arsenic
avert
b1
barbiturates
blasted
bluish
boast
bonsai
brag
brewer
cacti
carrillo
caspian
catalogued
cinematic
cloths
corrective
cosmopolitan
crimson
curated
curled
côte
dads
debilitating
deciduous
desmond
detonate
deuterium
devout
dexamethasone
diatomaceous
discrepancy
dismantled
dividends
ein
emerson
erica
erythromycin
euler
exposures
extortion
eyeliner
facilitating
farmland
firefly
flaps
floppy
foothills
fragrances
fueling
furry
germain
gg
gh
graphite
guido
gutiérrez
hamburgers
handicap
hawkins
hemispheres
hezbollah
hoffmann
honolulu
hubei
hypotenuse
iceman
idols
inert
inferences
inferiority
inquiries
instructors
irina
jagiellonian
jw
kant
lactobacillus
linguist
lithosphere
mastering
maturation
menace
meredith
microphones
midday
molds
musty
mv
myeloma
nationalists
nourishing
omelet
orexin
ot
outset
panzer
pebbles
pediatrics
perceptual
pharmacokinetics
philosophies
pike
pim
pinching
plantations
pleases
plumes
pratt
precedence
premio
privatization
proclamation
proficiency
qualitative
quarks
rainwater
ramsey
reclamation
recovers
regenerative
resolves
reunite
revolve
seduced
semantic
sheeran
showcased
sigh
silicate
sirius
skate
skyscraper
skyscrapers
sluggish
snowden
snowing
soot
souvenirs
stinks
straightened
stupidity
suresh
symbolizes
taping
terrence
tragically
transcript
tread
tulsa
unborn
unconstitutional
unimaginable
vacuuming
ventured
verizon
verona
virtuous
wallets
warszawa
whining
wielki
wimbledon
workload
xylazine
yao
μm
##18
##21
##aire
##baum
##ees
##nian
##og
##ret
##side
##uo
##vel
##ù
131
156
158
177
1785
1818
abolition
advertisers
aha
ahh
airpods
alas
alcohols
alkali
allende
als
amaral
amylase
angiogenesis
apprehended
argentinian
aries
armoured
aruba
asap
bathed
beards
believable
benches
bermuda
billionaires
blindly
botulism
bourgeois
brandt
breathed
brewed
buffett
bullock
bumping
campfire
cheesecloth
circadian
clicker
constants
cookbook
crotch
crumble
cybersecurity
deb
deploying
deprive
diarrhoea
differed
downloader
duels
dynamically
ecclesiastical
eddy
enigma
envious
eradicated
euthanasia
forgave
gadgets
gelatin
hades
handmade
harass
harmonious
harp
hasakah
hex
hinges
hoax
holistic
hoop
hornets
investigational
jai
jp
kathleen
kirby
kitchens
kolonia
launcher
lectured
lei
liang
linkedin
loft
manslaughter
marduk
markup
mays
mischief
mitsubishi
motif
nicknames
northumberland
nsclc
oblivious
odin
orchestrated
ordinarily
organising
outraged
ovi
partying
patriots
pbs
penthouse
petit
planks
purposely
rationally
reaffirmed
referencing
resko
resumes
revelations
rousseau
sai
sapphire
scarred
selections
sook
spins
spitzer
spree
stale
suwayda
syndromes
tetracycline
theorist
tights
trenbolone
undermined
unpack
ventilator
vernacular
vesicles
wink
workspace
worshipped
wrinkled
wusun
xavier
yelp
yokosuka
yolks
zalewo
´re
ładoś
β2
##az
##bridge
##hood
##ido
##ila
##iri
##kes
##nos
##o4
##sson
##tai
##uka
##ulating
##vis
##ward
##yang
##ówka
##а
##ن
151
1824
1852
1870s
206
4x
adipose
adjective
alkaloid
ambushed
apostles
apron
archie
articulated
artifact
barbed
barge
blames
blueprints
bombay
brexit
briefed
buttermilk
buzzer
cai
campaigner
canning
caption
cardinals
cations
centred
commutative
conjunctivitis
constitutions
conveying
cremated
cubans
decanoate
departing
deserving
dignified
discontent
distort
domes
doubting
dragonflies
dunajec
epicenter
erasing
erratic
erupt
esperanto
feud
filmmaking
fleury
flung
fostering
getty
goodwin
grounding
gynecologist
gynecomastia
hallmark
handicapped
hippie
holt
homepage
horde
hyaluronic
icu
idiopathic
ignacy
imprison
indigo
ingenious
intoxicated
ivoire
janine
jubilee
knocks
ligands
macroeconomic
markedly
martyrs
mazowiecki
melinda
metaphysical
mnemonic
musa
navarro
nero
nichols
nikon
nominate
optionally
pacemaker
palo
pegasus
piacenza
postcards
projector
prosecutions
puck
quirks
r2
rapport
rationale
redeem
refrigerate
reluctance
resentful
roaming
royalties
rubin
salar
saturdays
seabed
semantics
serialized
seung
shaggy
sizable
slab
sockets
softening
soweto
spanned
spoils
stalled
startups
stormed
strangled
strides
subtracting
suckers
sulinowo
swamps
televisions
toby
tr
transfusions
tributes
uc
ulcerative
vanishing
veterinarians
viña
whipping
willis
woodland
wronged
yum
yunnan
´ll
école
##ach
##bag
##eck
##ios
##ista
##lite
##logical
##low
##nka
##oka
##sphere
##tors
##tory
##tro
##tum
##zhou
##zzi
##ū
100m
1080
141
1825
42mi
abbas
aggravated
alibaba
amplify
aq
ara
ascend
atlantis
auspices
avian
baratheon
barricade
batting
bearded
betraying
biographies
biotin
blockchain
bronchial
bs
butts
byproduct
caste
casualty
caulk
cersei
checkers
climatic
coa
communes
compounded
concubine
configure
consultancy
counterintuitive
coupons
cowardly
crete
cruisers
decoy
deem
denounce
destroyers
dictated
digested
directives
dismantle
drape
dre
dreaded
echinacea
enema
enrollment
epiphany
exfoliant
extroverted
farc
favorably
federico
feynman
firepower
fitzgerald
fleeting
fleets
gerd
glide
glutamine
goofy
groß
gunfire
hastings
hinge
hipster
horseshoe
horton
horus
hunts
hysterical
infiltration
innermost
institut
intervening
jfk
journalistic
kamen
koran
kramer
leicester
leigh
leila
longitudinal
lowe
macs
majored
margo
marilyn
mattresses
mayer
messiah
methadone
microbiology
microscopy
mistletoe
mistrust
nodules
notre
nudge
nvidia
nyssa
oman
optimist
osiedle
overactive
pacing
paige
parity
patterned
peptic
plebiscite
plump
poaching
porsche
precursors
psychedelic
punishable
qualifies
reagent
reclaimed
regroup
remission
replies
restarted
roadblocks
rollo
rubles
rudimentary
sardinia
scandinavian
schwartz
scrolls
sebaceous
sharper
silky
sioux
skynet
sleeper
sls
solace
sprung
stables
submissive
sundown
suspense
symbian
synchronized
tilting
timor
tiredness
tong
trending
trillions
turnout
uae
untie
uprisings
urgently
valdés
verdean
vita
vividly
warhead
webos
zeta
��s
##19
##23
##ack
##ato
##ema
##hiko
##horn
##iński
##nen
##rex
##wicz
##zki
##és
1400
163
173
199
22mi
400m
401
950
ablation
admirable
adversely
alejandra
anecdotes
antisocial
antitrust
authoritative
azerbaijani
beets
bloodline
bordeaux
brachial
breakthroughs
bribed
calais
capsaicin
carboxylic
caregivers
chilly
christie
chubby
classifications
clauses
cleanliness
clement
cloned
clostridium
coagulation
colt
comms
compton
confer
confrontational
constructions
contradict
controversies
coolant
correlate
courtesan
crimean
crossover
cytotoxic
dandelion
dart
democratization
discredit
disgusted
earplugs
embody
endpoint
equip
erect
erode
examines
exfoliation
explodes
extravagant
farmhouse
flavoring
fogg
fortuna
francisca
functioned
fundraiser
furthest
garvey
gazprom
gcpd
gimp
grandparent
greenwich
hairstyles
hanson
hara
hermione
hg
hilda
hilly
huffington
hyperplasia
impractical
inspectors
interchangeably
invoice
iot
isomers
iteration
jojoba
jsc
jurassic
khartoum
kigali
lancaster
lecturing
legit
liberalism
lil
livingston
loosened
luong
lyra
maester
mahmoud
majoring
malechowo
manhood
margarine
marian
maul
mayan
mediocre
merkel
millennials
mined
mocking
molding
msg
nearer
newark
newsletter
newsom
nitro
nonstop
nottingham
numbing
oblong
olympique
outing
pap
perfected
pixar
platonic
plc
pleaded
preferential
priceless
psa
pulitzer
rayleigh
repetitions
restrained
revolver
ridicule
rooftops
rosenberg
scots
scripting
sedatives
senkaku
shawn
shōen
signifying
slapping
slippers
smog
somerset
specials
spetsnaz
sprouting
starlight
startle
stomachs
strung
styrofoam
subspecies
sumac
summits
superb
surpassing
synchronize
tactile
taekwondo
trainee
truthfully
tryptophan
unanswered
unconsciously
undefeated
unfaithful
untrue
upheaval
uplifting
vortex
vélez
wagner
wellbeing
westerners
wetting
##ates
##bone
##cker
##elli
##gawa
##hy
##ique
##lah
##oro
##ridge
##roy
##wat
##ways
##wen
##ène
154
1791
1808
1829
1a
alexandre
almeida
announcer
anthrax
assimilation
astrazeneca
attrition
awoke
bellamy
benadryl
bhutanese
bianca
bielsko
biff
biotech
blasting
boov
bope
borderline
boyd
briggs
caltech
capua
ceilings
chariot
chowder
cockatiel
complexities
consensual
contender
contraindications
crates
crossword
cryptocurrency
csa
cuisines
cygni
debian
demonstrators
diced
diligent
distinctions
distortions
doctrines
dominica
doodling
doughnuts
drugged
dunlop
dusting
dyslexia
electrically
entertainer
evidenced
excavations
expressionism
ferric
fishers
fore
freaky
frenzy
fullness
futile
gabby
gambler
gandalf
geologists
gibbons
graders
granada
guerra
halley
hardness
harmon
hating
herbicides
hermes
honeybees
hoon
hua
hump
hyperventilation
imaged
impair
innovators
intertwined
irrespective
islets
jello
josef
jpeg
kashmir
kuiper
lian
littoral
lubomirski
lucius
lumen
lyle
malt
manly
megawatts
memorandum
merciful
minimized
minors
montenegro
mps
mubarak
ncaa
newcastle
npy
nr
oppressive
ostensibly
overseers
paddy
partisans
paternity
pavel
peeta
penetrated
php
playfully
pledges
pontic
predetermined
probiotic
props
prudent
pseudomallei
psychoactive
puppets
pureed
puszcza
quantify
quynh
rca
reigns
republics
restorative
rounding
salutation
schoolteacher
scraped
sequential
shen
shu
sichuan
singaporean
sinner
sinusitis
smuggle
sparc
stara
stinger
taoist
temazepam
temp
tensing
theorized
thrilling
tonal
tonsillitis
torre
tourniquet
transistor
transits
translators
travellers
trickle
ulica
unattractive
uniqueness
uplift
vanguard
viewpoints
virgins
vmware
vulnerabilities
warcraft
warms
weakens
weakly
widowed
wrongs
yoshida
##burn
##day
##fen
##gon
##jan
##mont
##nk
##shire
##ural
##vy
##zewo
##ل
1793
1822
375
3g
achieves
acidification
affirming
applesauce
artemis
astounding
attends
babysitting
baggy
beatings
beech
bidder
biden
bonuses
brainwashed
breaststroke
bugging
bulletproof
bumper
byron
caesium
camila
capillaries
carly
catchy
cherished
childcare
chilling
circumvent
cochrane
cockpit
cocky
combo
concepción
confrontations
continual
coronaviruses
curie
dialogues
div
doha
doubly
duy
electrode
enchanted
entail
err
executable
expire
exporters
fina
flake
flops
fluoroquinolones
forging
friedman
galician
gatherer
gees
greener
gunman
hellenistic
hiit
hopper
idealism
imitating
insurgency
intrigue
introvert
jedi
jennings
karpov
ketone
kimberly
krakow
lard
lennon
levant
lilies
lucifer
lutheran
madeline
masako
medalist
mercer
migrating
modernized
mycroft
nebulae
negotiator
neuropathic
nic
noi
nonlinear
nuanced
ordained
outlawed
paradoxical
patiently
pawns
payne
peking
phi
philips
phonetic
piled
pol
polling
practised
preservative
primal
propeller
protestants
psychiatry
raced
reciting
reinforces
resigning
retribution
rhine
ripening
ripples
romano
satin
scaffold
scaly
selina
serrano
shafts
shogunate
sianów
sickle
sitter
situ
smoky
snows
subtraction
suffocate
sundance
swiping
symposium
tampa
technologically
throbbing
tic
tombstone
transvaal
triton
trustees
tyson
unstoppable
ursula
usb3
vidal
ware
warring
watanabe
waterway
weeping
withholding
wizards
writ
yawn
yuen
yun
zebra
álvaro
##band
##bot
##brook
##dae
##dle
##eng
##ges
##hua
##idae
##itic
##kawa
##kie
##lation
##link
##mie
##mos
##mus
##tate
##witz
##xin
##yon
##zan
##ān
##ł
001
157
1700
1819
1851
3s
abiding
abidjan
accolades
adjectives
adjusts
adoptive
ae
affections
airbus
alters
andrade
anecdote
anew
animator
antagonistic
antihypertensive
apparel
authoritarianism
bab
belial
benefactor
bissau
blistering
bmr
bobbi
boxers
bragg
breadth
brides
busiest
campaigners
canes
canola
carlisle
carpeting
cautiously
ceases
chant
claremont
coalitions
colloquial
comfy
communicator
confide
confiscation
confluence
conserved
conveyed
counsellor
courting
creditors
cupcakes
daniela
deactivate
determinant
deutsche
diaries
discharges
dota
estrada
ethel
expansive
exporter
favoured
fei
flax
fong
foramen
fret
fussy
gangsters
ge
geller
gills
glanced
gould
greco
grips
grunt
guzmán
hassle
hexagonal
hydride
hydrocodone
inequalities
infestations
institutionalized
introductions
islamist
jazeera
jc
jesuit
kabuki
kilometre
lactation
lax
lorentz
lunchtime
macedonia
mammogram
mantis
maszewo
md
medusa
mellon
messengers
mirroring
misguided
mph
msc
nagasaki
nathaniel
nationale
navies
nollywood
norfolk
normalized
ofthe
ost
outbursts
overcame
panetta
passively
payoff
permethrin
phenytoin
plantar
preclinical
predicament
prefect
princelings
punctual
pungent
purported
pythagorean
radiate
redmi
refrigeration
renewables
restricts
rh
rotary
sanity
satoru
savor
screenings
scully
senseless
shannon
sharpen
silenced
slain
slated
slicing
slimmer
smoothing
snapshot
snatched
soaring
soggy
songwriting
sphincter
spokeswoman
spurred
sputum
stagecoach
stamper
stereolithography
stratosphere
subversive
supervisors
targaryen
thirteenth
thunderstorm
totals
transcripts
tucson
tutsi
tyrell
umbilical
unnecessarily
ustka
vasily
voodoo
waxed
wilt
workstation
xenu
yup
zuckerberg
##ative
##bers
##gie
##hl
##ille
##lee
##lier
##lly
##nh
##ston
##tha
##uit
##worm
##е
166
176
208
21mi
222
227
2ds
40th
6s
aah
abstain
abstinence
aerobics
alcoholics
alerts
amphetamines
anecdotal
angled
angus
announcements
applauded
assortment
axons
bayern
bazaar
bearings
brook
brooke
bytes
candice
caregiver
catalyzed
chocolates
clerical
climbers
cnc
cognac
colorectal
comforted
commemorated
compiling
conjugated
constrict
cora
corneal
correctional
cranky
crayfish
crimea
cytoplasm
davidson
ddt
decomposes
deluxe
dilate
dill
directories
disneyland
disproportionate
disrupts
distillation
djibouti
dotted
drinker
dumbbell
emailing
embed
emery
experimentally
extracurricular
fiat
fidgeting
footnote
forage
forbade
fours
franciszek
francophonie
fullest
gastroesophageal
gba
genders
gracefully
hallucinating
hashtag
hauran
helplessness
homecoming
hotspots
hubs
huong
hyperbolic
hypocrite
iberian
imei
implantation
implicitly
inactivated
insured
intercontinental
intuitively
invariant
issa
iud
jh
joseon
kensington
kombat
launder
leaky
leftist
lez
linus
litres
lourdes
mademoiselle
masterchef
mecca
mindless
miner
miso
mistreatment
miya
morbidity
moriarty
motorbike
nebuchadnezzar
nmda
nonfiction
nui
numeral
ohh
overloaded
paulina
pauses
personalization
perú
plugins
ponies
porridge
prawns
preparatory
ramírez
rarer
redwood
reindeer
resembled
resented
residences
rev
reverted
rhetorical
romani
rp
russ
salespeople
salvadoran
sanction
sarang
schultz
scientology
scrolling
sedated
seep
sentient
sham
shrinks
sienna
simba
sinister
sinjar
situational
softened
soto
sq
stanton
stats
sterilization
stocking
stratification
streptomyces
sucrose
sumatra
summed
synonyms
talkative
thorns
tolerable
tomas
toolbox
turnaround
vasoconstriction
videotape
virtus
voldemort
vung
wooded
workings
ying
yr
zbigniew
zest
##aria
##berry
##dc
##ello
##enberg
##gin
##gue
##lor
##nol
##nts
##ree
##rous
##tomy
##top
##urs
##ły
##م
164
167
172
2500
340
512
5g
abdel
adopts
afar
allele
allotted
alteration
amiga
amin
anguish
anions
antwerp
approx
aromatherapy
assurances
auckland
basel
beos
bounced
bristled
bromelain
buddhists
carbamazepine
catania
classed
companionship
concerto
condo
conductive
correlates
councilor
cracow
crutches
cyberpunk
dak
darfur
decorating
destabilizing
differentiable
disarmament
discriminate
dropper
droppings
drywall
earths
electrostatic
estuary
fdm
fernanda
ferrous
festivities
fibre
figurative
flanders
floki
formality
fossa
fragmentation
fridays
fx
galactose
gauteng
gdr
giorgio
governs
guise
hancock
handler
harding
havel
honourable
hornet
hydrophobic
hyperion
identifier
ids
impatience
imperialism
indices
inspected
intractable
jakub
jeon
jiro
ko
kosher
kph
kwan
layering
likeness
livelihoods
lol
madeleine
manifested
masturbate
matthias
mayors
medvedev
mercia
metabolised
metaphorical
mints
mirakuru
misinformation
mistook
monasteries
morton
mortuary
nouveau
nsw
nuestra
ny
observatories
ostrów
ousted
overeat
oxides
papi
patriarch
patriarchal
periodicals
physique
pilgrims
plutonium
polygons
practise
presbyterian
presiding
preterm
prometheus
propensity
proteus
protracted
ps4
quarterback
rallies
ration
reaper
rebranded
recital
relativistic
retarded
romanesque
romney
sachs
sambo
sarcoma
satisfies
sauna
savanna
scalable
schneider
scooter
scramble
sensual
shiva
sinned
skipper
southampton
specialties
spoons
stellenbosch
stemming
subscriptions
subsidy
sussex
swims
swirl
temptations
thrives
throughput
tobias
tp
traffickers
tsai
underweight
unravel
unsuitable
uptight
ursa
usaid
vacancy
vp
vultures
waffles
warehouses
wellington
windsor
worldly
##13
##31
##bee
##cam
##cl
##eb
##eur
##eye
##hiro
##illion
##lets
##nowo
##ote
##oz
##sberg
##uru
##xy
##ê
##ور
1827
273
999
accords
accountants
adapters
aeruginosa
affective
afloat
alexa
ama
amplified
anatolia
ante
antiarrhythmic
appreciating
archimedes
asahi
badges
baptiste
barrow
basking
beneficiaries
bich
billed
blueberry
bn
boldly
brats
breaches
brien
britney
bureaucrats
butyl
cabello
cadillac
carton
ceded
celebrates
coercive
cohort
confine
conspicuous
countering
crucified
cursing
dawg
decaf
decaying
defuse
delicacy
denny
detonator
diabetics
dilettanti
disruptions
dissemination
dobra
dp
drugstores
edged
eggsy
electrolysis
engraved
eritrean
evergreen
excused
exfoliator
exiting
extrapyramidal
fallopian
falsely
faraway
fastened
fatherland
fetched
fishy
fledged
foreground
foreseeable
fran
frat
functor
gaul
giles
grandchild
graze
grinder
guangzhou
hamiltonian
herds
hindus
hostilities
hq
huts
hydrolyzed
iike
incandescent
incarnation
insead
iphones
jacobs
josefa
kasparov
kazakh
laureates
lavish
lifeboat
loc
lollipop
looming
lovebirds
marjorie
matilde
mauritania
mavericks
migrations
mildred
miraculously
mlb
moiety
multiverse
natsume
negotiators
neutralizing
newcomers
nueva
obnoxious
occupants
oct
organizes
orthopedic
overhaul
owls
padded
pizzas
pka
predictor
proverb
raisin
raspberries
redistribution
reinstall
rendition
reno
retrospective
rouen
runtime
río
ríos
sabah
sabc
sacramento
sao
sealant
selenium
sentinel
sidelines
simmering
slovene
snooze
snug
soc
spooky
sprinkled
steward
striptease
stu
sweats
swivel
tattooed
thirties
titular
toms
torah
transcend
transports
transverse
tutorials
univision
vlad
vladivostok
volkssturm
wasteful
weightlifting
wil
winfrey
wirelessly
wolfgang
wreckage
xiii
yeon
yew
yiddish
youngsters
youths
zemin
##14
##32
##aceae
##bes
##ered
##ering
##fied
##gn
##hing
##nn
##oa
##ob
##orn
##une
##uria
1300
139
1810
204
2100
211
410
440
acquitted
anaphylactic
anarchist
appalling
archers
arson
ascended
autosomal
aviv
bacillus
bacitracin
barbarians
belinda
bellas
beria
bertrand
bollywood
bolívar
boosted
bravest
bugger
buoyancy
cabrera
calcite
calle
capitalists
capricorn
carbamate
carroll
cesena
chauffeur
ciudad
col
commits
communicative
corazón
cuticle
cyrillic
danzig
devour
dictators
dieu
docked
eagerly
eastward
edifice
endometrial
espn
exemption
exhaling
extrovert
eyeshadow
fangs
fished
flapping
flips
flirtatious
fluff
fricking
generously
genomic
gibbs
gladwell
glazed
gru
guiana
habitual
hangouts
headphone
hotchner
hotmail
ht2a
imessage
impetigo
impunity
indebted
infer
infrequently
intellectually
irritates
javelin
javier
jenna
jerks
kannada
kool
latency
lech
lexington
longstanding
loosening
louie
lowlands
lured
maximizing
medic
michele
microprocessor
millimetres
millionaires
milwaukee
mj
modernist
molotov
monolithic
montazeri
mosques
mounts
mouthpiece
muirfield
multivitamin
neoclassical
nostalgic
nutmeg
obscured
oo
openoffice
ornaments
panty
paprika
pardoned
phentermine
piggy
pleural
pluralism
pointers
poked
preferring
prodigy
programmable
prolongation
proofread
pvc
quits
reevaluate
reptile
retin
revolving
rind
sant
saucer
saussure
scouting
sebum
secretaries
sequels
sf
sidekick
sighting
singled
skincare
sla
sludge
slump
sneaky
sourcing
sprang
strangle
stumbling
subversion
sully
surrogate
sv
synesthesia
systolic
tack
tapestry
tapeworm
theon
thiazide
thickened
thinners
trespassing
triceps
triplet
trong
twigs
txt
ufo
uninterrupted
vanuatu
waffle
waning
warmly
wavy
weibo
worthington
xinhua
yates
##90
##berger
##core
##esh
##ewicz
##hand
##hon
##iko
##ión
##list
##mycin
##oi
##ort
##pine
##rick
##ré
##sman
##tle
##µg
##è
##ą
1750
1788
abruzzo
acetyl
aggregator
aki
analgesia
anchors
antennae
ascertain
assertively
aunty
awakened
bantu
benz
bernadette
bihar
bingo
blazing
blockbuster
bondage
branched
buns
cadmium
cadres
cams
cbc
cesare
chestnut
chimps
ci
civilisation
clindamycin
clipped
compulsion
condemning
confectionery
congested
conventionally
cordon
counterclockwise
countrymen
cyberspace
dar
darkened
davies
deborah
deceiving
deli
depreciation
detonated
dialed
diop
disambiguation
disparate
docking
dunk
eiffel
electorate
enceladus
engraving
enhancements
eugenia
ev
evolves
f1
f2
feminists
ferreira
fixture
flop
flowed
flyer
forster
foucault
frees
ganglion
gathers
gazing
geeks
genotype
geographer
gestation
gigabytes
growling
gruesome
hcl
heartfelt
heaviest
helix
higgins
holed
hone
horrified
huskies
ige
interacted
intrinsically
jonker
juniper
kelvin
kramnik
lender
lighthearted
lindsay
lucía
lush
magna
manuals
marlene
massacres
metaphysics
meteorology
michaels
mieszko
milliseconds
misunderstandings
mogadishu
motrin
musculoskeletal
musicals
nepali
niacin
noteworthy
notwithstanding
onna
orc
oro
ortho
overtake
penitentiary
pius
plainly
plated
predisposition
prescribes
primacy
psychopaths
publicized
pwm
raf
ramsay
raquel
raspberry
razer
realist
reforming
regimens
rehearsing
rein
rejoice
rents
reschedule
responsibly
restructure
rhubarb
rodeo
rotterdam
rumble
salinity
salivary
salve
sandinista
sash
saunders
screenshots
sculpted
seatbelt
sedimentary
semifinal
sentry
seong
shepard
showdown
siamese
siphon
snowfall
sociological
sod
specialising
spectroscopic
squealer
standardization
streltsov
sunken
supercomputer
supervising
swahili
talker
tamagotchi
taxed
tectonics
toledo
transactional
transformational
treachery
tripping
tumble
tundra
unheard
unsaturated
unveiling
utilitarian
valor
wai
watermark
whistler
wichita
winnie
winstone
wondrous
##bre
##centric
##ctomy
##gus
##hal
##hor
##iate
##icz
##kel
##l2
##lica
##lum
##nus
##ois
##rix
##uda
##ude
##uli
##yne
##zar
##ío
1799
205
262
290
aaa
abba
abiraterone
adler
agility
apiece
apulia
aquino
archaeologist
archival
asa
backfire
bae
basing
beaumont
bernardo
betsy
boasts
boulogne
brisbane
burrow
caleb
cameraman
cardiff
centennial
chamberlain
chassis
checkout
chunky
cinemas
claudette
claudio
comforts
composting
confucius
constriction
contemplation
coo
coyote
crucifixion
daycare
decisively
decker
deduction
demos
diagonally
dimitri
dino
disbelief
discord
disproportionately
distressing
distributes
dominik
downturn
dpp
dutchman
dyskinesia
eliza
emulsion
encode
enshrined
extras
figc
fling
forefinger
formalized
forts
fountains
fusing
gabonese
gaius
gambia
ganglia
gardeners
gatherers
geologic
girly
glycol
goldberg
gonzalo
gourmet
grassland
gyrus
hana
harlan
hartley
hateful
headings
headmaster
helga
hemingway
hepatotoxicity
heresy
hernandez
hitachi
hitchcock
hookers
horace
hostas
imaginable
impart
imposition
improbable
infliximab
infringe
inpatient
jakob
jargon
judas
jurors
kimono
kyushu
lacquer
laude
lecter
len
liege
liza
looser
lye
lyndon
macdonald
macedonian
malian
managua
maneuvers
marcela
maroon
mastermind
mckinley
medallion
melodies
metronome
militias
mingle
mooney
māori
napping
naturalist
neptunian
nicotinic
nord
nuggets
ob
oiled
organise
paintbrush
panicking
parathyroid
parc
perks
pheromone
plow
potenza
progenitor
prohibiting
propel
qualcomm
quotient
reciprocate
repressed
reproduced
reshuffle
resorting
resultant
resurrected
retainer
rokicki
sandstone
schematic
schering
sipping
skeptics
sly
snitch
soared
sobieski
sparring
spat
spawning
specifies
sponges
sprained
stds
stews
suing
swirling
synge
tainted
takers
tal
tat
tatar
tatiana
tessa
thug
thunderbolt
tk
toc
tomé
tooling
torrential
transplanting
tumour
tywin
unbalanced
unconsciousness
undress
unharmed
uninhabited
unprepared
unreal
upsets
vandal
vat
viscous
vy
walters
warlord
waxy
wildlings
worrisome
wyoming
yer
´m
đại
##60
##cent
##ening
##eri
##esis
##gun
##iva
##moto
##now
##owitz
##pole
##rak
##rch
##ride
##rini
##rman
##rra
##tica
##ug
##uga
##zna
##ı
1809
1817
40mi
45mi
advancements
aguirre
armistice
asexual
asymmetry
atta
augment
autocratic
avery
azalea
baba
backside
bailed
beehives
bert
bestseller
bettas
bipartisan
bodyguards
bolsheviks
bombardment
braga
bridget
brim
brotherchristensen
bsc
burglary
bảo
canceling
cartoonist
castration
ceti
cheryl
classically
clogging
closures
cm3
coco
cody
coerced
cogburn
colander
comedians
compartments
concerted
conflicted
conformity
conveys
cranes
cricketer
culmination
cyclical
dapoxetine
davos
demoted
depressions
desktops
destruct
disparities
displace
distributors
disulfide
diversification
donnelly
dynamical
ebla
ei
evicted
excite
fetish
fidget
filename
fivb
flashy
flavorful
floated
forested
frivolous
fuses
gadget
galloway
globalized
grids
grooves
guo
gutter
hallways
hanga
hashtags
headers
horny
hydrothermal
ibs
identifiers
immunization
impede
indianapolis
infiltrated
instrumentation
insurmountable
intergalactic
intergovernmental
ir
islander
ives
ivf
jacek
jd
jenner
jeonya
kinshasa
koi
kuala
landfill
lawns
lenalidomide
leonean
leveraging
linkage
lipoprotein
logistical
magicians
mahatma
mara
marries
mcafee
mentoring
meticulous
miyagi
monopolies
mortgages
napkins
negligence
nepalese
newfound
nexus
nitrous
nuremberg
nyu
olympiad
ophthalmologist
opting
ostróda
outpost
ovens
overthrown
partnering
pasteur
patrice
pectoral
pedestal
periodontal
pessimism
piling
pliers
posthumous
postmenopausal
primetime
progestogens
proverbs
pulsar
raider
ratify
rebalancing
remodeling
repatriation
retaliate
reused
riddles
rymań
sabbath
sama
satire
sawyer
scarves
scripted
seam
seaside
sewn
seymour
shale
sift
snipers
snowy
solidify
speciality
specs
spiked
splashing
stevenson
sti
subsistence
sulu
tacos
tamer
tcp
testes
thirdly
tiniest
tura
twitching
underage
undersea
unicode
vagus
vasodilation
vassal
vigor
vnd1
vouch
welcomes
xv
yaz
zika
##80
##86
##arian
##hoff
##hong
##ncy
##ndo
##niki
##pad
##suke
##table
##tat
##tek
##ucci
##word
##š
179
1811
202
213
214
245
24mi
275
720
acai
acrobat
acupressure
admittedly
afternoons
aladdin
albany
alloys
anaesthetic
anastasia
andean
aneurysms
antiquities
applicant
arenas
autonomic
avail
awarding
barbarossa
bays
beeswax
boer
bonnet
booby
borneo
briarcliff
brigades
bucharest
burgundy
burj
burt
byte
c3
capitalized
carcass
catfish
coffins
cohesive
coloration
comedies
concacaf
confronts
cornwall
coronal
courteous
craftsmen
cruising
culprits
debrief
defaults
dendritic
devon
diversified
dominique
dončić
dormitory
dothraki
downey
drawbacks
duran
dynastic
earring
emeralds
entitlement
eredivisie
exaggerating
expires
felicia
fertilizing
firmer
flagged
foe
freya
glycerin
goddesses
goiter
grimm
hardcore
hasty
hcm
headband
healy
herbivores
hideout
himalayan
hipparcos
homotopy
hospitalization
hostel
hs
hubbard
humphrey
hutu
hypoallergenic
hồ
immunosuppressive
indistinguishable
inspections
instantaneous
introspection
joanna
jurist
keita
kimmel
kiwi
kyū
larynx
leaner
liquidation
listings
locomotion
lois
looted
louvre
lycée
malley
mangrove
manning
martinique
misty
misunderstand
miyamoto
motorized
mumps
nan
nasdaq
neumann
neuroscientists
neutropenia
nos
odorless
okinawan
ominous
orcs
originals
overcoat
palestinians
paola
peabody
penance
perceives
peña
plac
plunder
postmodern
prepaid
pressuring
privy
providence
pug
punitive
quadrant
quincy
quinine
rabat
rc
reactos
readable
renly
restraints
reuben
reviewer
riemann
rocked
royce
rudder
rufus
rut
salons
saturate
schrader
segregated
servicing
sever
shetland
shih
siena
smashing
sora
spartan
spectrometer
sprains
squire
stinky
strangest
strategist
studs
submissions
surreal
swarms
sweetener
teeny
tensor
terrors
theodora
timers
tonnage
topoisomerase
transitioned
transmembrane
treasurer
turquoise
ultimaker
unbelievably
unprocessed
uptown
uther
valence
varicose
ventral
volga
waterloo
wetland
widened
wielkie
yawning
##ario
##ations
##av
##bang
##cap
##cial
##dah
##dd
##eal
##ectomy
##elle
##ente
##hwa
##ked
##life
##mah
##mal
##o3
##pper
##sdorf
##té
##zia
##ż
##ン
1080p
169
1786
6000
abaddon
adept
adjoining
alessandro
alk
alleviating
amos
anthropologists
arango
ava
b6
bactrian
beggars
berg
bettie
biliary
bilirubin
blob
bodied
boob
breakout
brewster
calligraphy
calms
capped
carcinogenic
carp
cassie
catalyzes
católica
certifications
checkup
cheekbones
chloroquine
christensen
chute
cinematography
clout
coc
coils
collided
concede
confines
constance
copycat
corset
counselling
crawfurd
cryptography
cs
curiously
cutters
dancehall
dangling
darpa
decompose
dei
delson
deltoid
depressant
dh
disapproval
dojo
downtime
dębno
enchantment
enrolling
environmentalists
escalator
estrone
evils
excruciating
eyeballs
ezra
favourable
feasibility
feedings
ferment
festive
fibroblasts
firemen
fluctuate
fluorescence
foes
franca
fring
fta
gamepad
giuliani
goethe
gp
graces
grandmothers
granular
gulp
guppies
hahn
hairdresser
hampered
hanh
harboring
haze
hearth
hectare
heisenberg
heywood
himmler
hires
hobbit
hogwarts
hyponatremia
icd
impeached
inanimate
indefinite
infuse
intently
intermediaries
interruptions
intrude
ionosphere
ipo
isaiah
isles
iucn
janssen
jemma
joanne
kamenev
kansai
kegel
kenji
keypad
knowingly
kofi
kubo
kuyavian
libre
liquidated
lowland
macmillan
mahardah
maids
manchuria
matejko
maureen
minding
modelled
moldy
monogamous
morse
motility
motivator
mughal
müller
nakayama
nanotechnology
nariko
naïve
neem
nemesis
nevis
newsweek
nigerien
nov
obscene
occitan
ogg
oi
orchestras
ordnance
orthostatic
ostrowice
overlaps
pamphlet
paralympic
pedals
peripherals
perp
perpetrated
peugeot
pleading
plums
pneumoniae
poinsettia
polystyrene
pow
probing
protestors
provocation
puffs
punjab
pursuant
rambo
ravaged
reframing
reiterated
renounced
reputed
roadside
rodney
rostov
roundabout
runways
salamanca
sans
scrapped
scripture
seamlessly
[...]
