[PAD]
[UNK]
[START]
[END]
!
"
#
$
%
&
'
(
)
*
+
,
-
.
/
0
1
2
3
4
5
6
7
8
9
:
;
<
=
>
?
@
[
\
]
^
`
a
b
c
d
e
f
g
h
i
j
k
l
m
n
o
p
q
r
s
t
u
v
w
x
y
z
{
|
}
~
¡
£
¥
§
©
«
¬
®
¯
°
±
²
³
´
µ
¶
·
¹
º
»
¼
½
¾
¿
×
ß
à
á
â
ã
ä
å
æ
ç
è
é
ê
ë
ì
í
î
ï
ð
ñ
ò
ó
ô
õ
ö
÷
ø
ù
ú
û
ü
ý
þ
ā
ă
ą
ć
č
đ
ē
ĕ
ė
ę
ě
ĝ
ğ
ġ
ħ
ĩ
ī
ı
ł
ń
ň
ŋ
ō
ŏ
ő
œ
ř
ś
ş
š
ť
ũ
ū
ŭ
ů
ų
ź
ż
ž
ƒ
ơ
ư
ǀ
ǁ
ǃ
ǎ
ǐ
ǒ
ǔ
ǝ
ș
ț
ɑ
ɒ
ɔ
ə
ɛ
ɜ
ɡ
ɣ
ɨ
ɪ
ɲ
ʃ
ʊ
ʌ
ʒ
ʔ
ʰ
ʷ
ʻ
ʾ
ʿ
ˀ
ˈ
ˌ
ː
˙
˥
˧
˨
˩
̀
́
̃
̅
̇
̉
̣
̀
́
͡
ά
έ
ή
ί
α
β
γ
δ
ε
ζ
η
θ
ι
κ
λ
μ
ν
ξ
ο
π
ρ
ς
σ
τ
υ
φ
χ
ψ
ω
ό
ύ
ώ
ϕ
а
б
в
г
д
е
ж
з
и
й
к
л
м
н
о
п
р
с
т
у
ф
х
ц
ч
ш
щ
ъ
ы
ь
э
ю
я
ё
і
ָ
א
ב
ד
ה
ו
י
ל
מ
נ
ע
ר
ש
ء
أ
إ
ئ
ا
ب
ة
ت
ث
ج
ح
خ
د
ر
ز
س
ش
ص
ض
ط
ع
غ
ـ
ف
ق
ك
ل
م
ن
ه
و
ى
ي
َ
ُ
ِ
ّ
پ
ک
ی
ं
क
त
द
न
प
भ
म
य
र
ल
व
स
ह
ा
ी
ु
े
ो
्
র
৳
ก
ข
ค
ง
จ
ช
ด
ต
ท
ธ
น
บ
พ
ภ
ม
ย
ร
ล
ว
ส
ห
อ
ะ
ั
า
ิ
ี
ุ
ู
เ
แ
ไ
่
้
์
་
င
မ
ာ
း
်
ᵻ
ḍ
ḥ
ṃ
ṅ
ṇ
ṛ
ṣ
ṭ
ạ
ả
ấ
ầ
ẩ
ẫ
ậ
ắ
ằ
ẳ
ẵ
ặ
ẹ
ẻ
ẽ
ế
ề
ể
ễ
ệ
ỉ
ị
ọ
ỏ
ố
ồ
ổ
ỗ
ộ
ớ
ờ
ở
ỡ
ợ
ụ
ủ
ứ
ừ
ử
ữ
ự
ỳ
ỵ
ỷ
ỹ
ἀ
ἐ
ἰ
ὑ
ῖ
ῦ
‑
–
‘
„
‟
†
•
…
‰
′
″
‹
›
⁄
⁝
₂
€
₹
ℓ
№
™
⅓
←
→
↓
↹
⇧
∀
∂
∆
∇
∈
∑
−
∓
∗
∘
√
∞
∣
∤
∧
∨
∪
∼
≈
≠
≡
≤
≥
⊂
⊆
⊕
⊙
⊞
⋅
⋮
⋯
⌘
⌥
⎙
⏎
■
☃
☆
☉
☰
☺
♠
♪
♭
♯
⚙
✓
⟨
⟩
、
あ
い
う
お
か
が
き
く
け
こ
ご
さ
し
す
ず
そ
た
だ
ち
つ
て
と
ど
な
に
の
は
ふ
ぶ
ま
み
め
も
ゃ
や
ら
り
る
ろ
わ
ん
ァ
ア
ィ
イ
ウ
ェ
エ
ォ
オ
カ
ガ
キ
ギ
ク
グ
ケ
ゲ
コ
ゴ
サ
ザ
シ
ジ
ス
ゼ
タ
ダ
チ
ッ
ツ
テ
デ
ト
ド
ナ
ニ
ヌ
ネ
ノ
ハ
バ
パ
ヒ
ビ
ピ
フ
ブ
プ
ベ
ホ
ボ
マ
ミ
ム
メ
モ
ャ
ヤ
ュ
ョ
ラ
リ
ル
レ
ロ
ワ
ン
・
ー
一
三
上
下
不
世
中
主
之
九
也
事
二
五
井
京
人
仁
代
令
会
佐
你
佳
信
元
光
全
八
公
六
内
军
制
力
動
化
北
十
千
南
原
友
台
司
合
吉
名
后
向
味
和
喜
四
国
國
圍
園
土
地
坂
城
場
士
大
天
太
女
姫
娘
子
字
学
學
安
宗
官
宮
家
宿
寺
寿
小
少
山
島
川
州
工
布
帝
師
平
年
廠
建
式
御
徳
德
心
志
忠
思
愛
成
我
所
手
技
放
政
教
文
新
方
日
明
星
春
是
時
普
書
最
會
月
有
朝
木
未
本
机
李
村
東
林
株
業
楽
横
機
次
欧
歌
正
武
死
氏
民
水
汁
江
沙
法
洋
派
流
浦
海
清
温
港
火
無
焼
煮
爱
物
玉
王
理
生
田
电
男
白
百
的
皇
相
真
社
神
福
科
空
立
第
統
絵
編
美
者
航
花
若
英
菜
華
萬
藤
行
西
見
親
記
話
語
豆
赤
超
身
軍
道
郎
郡
部
都
酒
里
重
野
金
鍋
長
門
阿
限
院
隊
集
雪
青
飯
香
馬
马
高
가
강
개
고
공
교
구
국
군
기
김
나
냐
는
니
다
단
대
도
동
두
라
랑
레
로
리
마
만
미
민
박
방
백
보
부
사
산
서
석
선
성
소
송
시
신
씨
아
안
야
양
어
에
연
영
오
왕
요
울
원
은
의
이
인
일
있
자
장
저
전
정
제
조
주
지
진
찌
치
트
파
피
하
학
한
해
현
호
화
️
＋
，
￼
�
𒀭
và
có
là
của
tôi
một
không
được
bạn
trong
đã
các
thể
người
cho
với
anh
đó
sẽ
chúng
những
ta
để
này
khi
làm
vào
ra
nó
phải
như
đến
năm
cô
về
sự
nói
gì
đi
điều
lại
việc
từ
họ
con
đây
thế
biết
ông
mà
nếu
bị
đầu
hơn
nhưng
đang
cũng
ấy
thành
chỉ
trên
công
hoặc
thấy
nhà
cách
nhiều
khác
muốn
vì
cả
em
mình
sau
số
nào
tại
học
rằng
cần
chính
sao
nên
quan
ngày
nhất
dụng
động
vậy
rồi
cái
hiện
rất
còn
thực
nghĩ
cậu
theo
thứ
bằng
nước
giờ
thời
gia
nhân
thì
trước
chuyện
tự
bản
định
cảm
sử
hai
cơ
hợp
bộ
thường
quốc
cuộc
hãy
nhận
hành
tháng
lên
tìm
bao
hình
phát
trung
tin
do
qua
hay
sinh
cùng
bà
bắt
giúp
kết
độ
mọi
tốt
trở
quá
lý
tới
loại
đề
phần
trường
bởi
ai
đối
viên
hàng
ăn
thích
sống
mặt
tiếp
thông
mới
tính
hội
gian
thật
giới
đồng
trình
đại
liên
năng
tạo
tom
thay
tiếng
nữa
đâu
dùng
tất
giải
lớn
tế
lần
tập
toàn
bảo
nhau
tên
xuất
trị
pháp
hệ
bất
gọi
thức
tình
đổi
lượng
nhiên
máy
xem
đường
tác
tay
chất
tiên
kỳ
tâm
trọng
vẫn
vị
chưa
nơi
sĩ
ba
cao
vật
bệnh
yêu
chủ
vụ
ngoài
vấn
hắn
câu
bên
sản
nhìn
nghe
thuốc
hoá
thống
đưa
hiệu
mẹ
bỏ
ảnh
điểm
quả
chiến
cầu
kinh
thiết
gặp
phòng
đấy
liệu
lúc
quyền
lập
chuyển
chọn
bố
dân
ngay
phía
thân
hỏi
cố
nữ
phụ
chứng
cứu
thôi
phương
biệt
tiêu
khoảng
cấp
lực
tiền
khu
phẩm
mỗi
hết
chơi
nam
sáng
chết
vài
đúng
tương
đều
lời
giá
hoàn
hoạt
nghĩa
ứng
bình
hiểu
mất
khỏi
đừng
xe
chế
đặt
báo
nhỏ
tăng
chức
điện
bài
thương
nay
phân
gồm
cứ
trẻ
gây
gần
sách
biến
từng
dẫn
diễn
cuối
dưới
đặc
dù
giảm
thuật
đất
giáo
sát
tưởng
chứ
xác
đánh
giữ
chắc
triển
đơn
lấy
thêm
hoa
giống
quyết
mỹ
trí
tư
văn
kế
giữa
tài
ít
nghiệp
dịch
kiểm
khiến
vực
thị
khó
mạnh
xảy
đồ
tham
tớ
truyền
mở
tranh
trò
luôn
nhớ
thuộc
cây
ban
nguyên
trang
chú
viết
địa
bác
cá
kể
mặc
cảnh
tối
hạn
mục
mang
xin
vô
chẳng
tinh
màu
đáng
thư
sức
bán
khả
xuống
tử
cửa
đông
mày
trả
da
thần
hướng
chiếc
gái
dự
vi
quân
đủ
tổ
tra
cổ
thử
đạo
phép
tiến
nghiệm
đội
tượng
tuổi
tục
tích
vệ
tổng
cha
nghiên
âm
nhóm
dụ
tây
giết
dài
danh
uống
dễ
thủ
phim
lan
nằm
minh
10
ví
thu
phản
mắt
bé
mua
biểu
lẽ
đau
khí
nhạc
nhanh
chí
cháu
nghệ
bắc
phục
bây
an
rõ
cộng
triệu
đình
phố
luật
cung
trái
mức
đời
cực
tuy
lỗi
trợ
tuần
sở
duy
chân
suy
mô
vùng
đôi
quay
yếu
lâu
nhiệm
giao
ty
vừa
kiến
tao
kẻ
trưởng
chỗ
nổi
viện
bọn
chống
chương
dành
ngủ
lo
trai
ngôi
giả
đấu
vui
nhật
án
xã
lịch
nhập
ngữ
tuyệt
dạng
vẻ
áp
tránh
gắng
chịu
phủ
giác
hưởng
lợi
đức
thanh
chị
hôm
chút
mạng
trời
nguồn
kích
lưu
phi
bàn
châu
xa
lạc
lòng
càng
xử
bay
khoa
ơn
mối
thái
đóng
cười
thú
dục
độc
quanh
xúc
diện
sợ
đẹp
phút
phá
di
đàn
ngài
vọng
bóng
kiếm
trạng
kiện
chuyên
cáo
chung
riêng
dựng
vòng
chạy
tóc
rộng
chuẩn
##s
dấu
cụ
chi
sẵn
nội
kỷ
máu
thoại
tiết
bước
hồi
ghi
khách
luận
vai
lớp
xây
quản
áo
so
thúc
kỹ
chia
biển
hầu
thuyết
vũ
mùa
đá
vận
lắm
xét
hoà
hữu
đứng
buổi
khoẻ
thiên
tội
đứa
đô
ngoại
mấy
kia
dầu
đảm
tiểu
nhiễm
ký
hạt
hoạch
hơi
đêm
phạm
khăn
quy
trực
toà
sư
bức
la
cử
cân
ngăn
đoạn
nền
chắn
nguy
nhiệt
cạnh
đọc
doanh
tàu
hát
nghị
tức
chó
tố
mật
thẳng
hôn
trông
khá
đạt
kéo
chúa
hồ
chấp
ích
lệ
thi
coi
sai
việt
trận
ngồi
đầy
dung
phổ
bào
phí
cải
hộ
lãnh
soát
thậm
thiếu
loài
vết
sang
chứa
12
ấn
sắp
đoán
dữ
băng
cập
cắt
000
ngôn
chờ
ổn
hoàng
quần
ngươi
lựa
sâu
cuốn
20
lắng
mary
sắc
hậu
môi
kiểu
đa
hại
sàng
hỗ
ánh
thấp
tim
phù
rối
xung
bánh
phong
the
dựa
hiểm
món
xuyên
thất
căn
trải
hy
âu
nhé
rời
buộc
sạch
gửi
thắng
giản
thiện
ước
sớm
bầu
nhắc
tồn
mong
hả
toán
trùng
tệ
lá
cư
tấn
thưa
cánh
mèo
tuyến
ràng
mẫu
nóng
đoàn
vợ
suốt
hạ
thằng
vời
đợi
não
quen
khai
xếp
lạnh
ca
11
đảo
mạch
dòng
nối
nạn
trừ
nghỉ
##a
nhẹ
xấu
gốc
bữa
phê
giấy
đỏ
chăm
tạp
nghiêm
30
đỡ
vượt
tả
thưởng
lai
bổ
chàng
tỉnh
tôn
luyện
mái
khoản
khối
dây
thụ
kính
hút
chữ
trắng
đẩy
sơ
bang
tỷ
đổ
cấu
vàng
trì
rượu
giám
cũ
trao
súng
dương
trách
cơn
kim
thoát
phiên
nhờ
tuỳ
kháng
tuyên
nghi
sân
xanh
quên
nặng
bắn
đen
mã
buồn
khô
15
quý
dạy
đài
hạng
ngắn
dàng
trúc
thận
loạn
chào
thịt
khẩu
tù
tai
huỷ
chỉnh
may
làng
bốn
rửa
đột
lệnh
hà
chiều
cận
chồng
thuận
màn
bí
mắc
thảo
trụ
hiệp
bại
to
nửa
kê
mai
đăng
tốc
cà
phúc
sóc
căng
hạnh
khám
đảng
ngược
chảy
nhiêu
miệng
hấp
thở
niệm
thuỷ
chuyến
tải
de
##e
giai
khoá
sửa
in
giành
ma
tái
tắc
lễ
new
tổn
dưỡng
thập
phóng
lửa
khủng
đem
đích
du
bè
ngờ
bảng
biên
vầ
dần
tộc
tiện
đào
tín
hải
hộp
khởi
ngân
nỗi
viêm
thai
nuôi
chữa
ngành
dõi
dừng
mềm
##i
miễn
##n
thừa
lạ
chặn
đám
dậy
khắc
nhấp
mại
vương
nông
nga
vâng
cường
kì
niên
nha
tĩnh
100
phán
sẻ
lành
xong
mời
thăm
hoạ
sáu
huy
đĩa
rút
sổ
chóng
chạm
thao
túi
hẹn
yên
tầm
lao
ngừng
sóng
bày
phó
video
lộ
nhảy
siêu
cầm
răng
đốc
khắp
lĩnh
trấn
ống
19
mơ
nhấn
sông
núi
mùi
tận
vua
mũi
tắm
huyết
ung
khuẩn
lái
góc
linh
sung
cứng
chiếm
quảng
ẩn
tầng
nhỉ
đuổi
tỏ
cục
thơ
dị
gã
vẽ
nàng
phối
ly
hề
hứng
xương
##o
sữa
điên
kem
giận
môn
phức
điển
trại
phận
lông
ủng
già
đáp
suất
truy
tấm
bật
mười
giây
kịch
lỗ
nhằm
hài
thiệu
chiếu
miền
thoả
lầm
loạt
bạc
thẩm
hồng
uỷ
chậm
đo
ấm
trứng
web
niềm
tắt
tịch
bạo
quang
bề
nổ
50
gắn
thoải
ức
chuột
chụp
dối
rơi
bột
giỏi
trăm
cốc
trốn
of
km
tường
tờ
mừng
địch
chim
phẫu
góp
chối
cẩn
ẩm
tạm
thả
nâng
thí
2016
lược
huống
liệt
giấc
nắm
ổng
hỗn
mẽ
thờ
hương
muối
lối
thù
xu
al
nhắn
hứa
giàu
2011
nỗ
khuyến
tiệc
18
thách
họp
trầm
trồng
mát
2015
lục
chặt
tướng
thượng
liều
##t
vỡ
diệt
2012
quỹ
john
tách
doạ
khiển
16
quận
2014
bụng
thuê
2017
biện
binh
giãn
tán
album
giọng
ngạc
ngón
quái
25
đương
axit
phiếu
lẫn
nhu
lưng
cam
khảo
ngại
2010
giày
khuyên
vốn
sa
thổ
hàn
nguyện
14
sốt
quán
thánh
13
tồi
rừng
thước
lũ
york
mãi
ưu
tan
ngựa
tẩy
2018
nút
thải
lí
dường
2013
thuyền
tiêm
đòi
hẳn
sót
thầy
thẻ
đèn
gấp
che
ép
cài
nghề
hiển
khích
vỏ
đe
trữ
dày
dính
rắc
mê
đế
17
ơi
cháy
ngon
tròn
khuôn
miếng
bảy
hàm
hè
chủng
phiền
##y
bơi
2004
lương
rau
trà
béo
2009
đốt
cám
lính
ninh
triều
lỏng
trưng
cản
game
lọc
24
ngực
syria
lặp
đậu
hiến
##r
pha
táo
can
thang
oh
đùa
đựng
sợi
đỉnh
tiềm
rập
ghét
gió
ngốc
kém
nướng
ghế
trống
giường
mắn
thảm
bận
song
trích
tàn
cờ
chín
xâm
cưới
40
thiểu
bờ
internet
mì
kêu
xô
xạ
nấu
2008
chấm
mưa
hãi
xoá
co
##l
tá
hào
đập
săn
huấn
phạt
nhịp
gmina
phỏng
hảo
mét
protein
vườn
nợ
khổ
ngừa
thăng
mộ
ác
móng
đói
hoảng
lâm
trào
tuyển
dược
hùng
2007
ôi
mảnh
truyện
khái
2006
khứ
điệu
thói
tặng
sắt
bãi
gan
bò
quyển
cấm
nắng
chu
cỏ
cặp
mệt
hoang
tảng
vỗ
đón
ngu
sơn
viễn
lưới
trộn
xứng
dao
virus
cưng
thuế
sếp
cãi
bẩn
đạn
vải
duyệt
dọn
tàng
giấu
ngàn
chuỗi
tiếc
tỉ
hô
ii
đeo
21
bão
đằng
giam
lãng
ngang
lừa
lão
ám
hiếm
cựu
ảo
kèm
nghèo
2019
##m
gợi
ngọn
san
nhóc
tụi
kênh
tha
cỡ
tụ
hỏng
gà
bông
cướp
vong
chép
nhãn
cột
sánh
hồn
bụi
mãn
vĩ
chấn
quà
chai
bối
nấm
chán
ong
nồng
giảng
mụn
bếp
hư
phổi
chúc
tám
tốn
gỗ
muộn
##d
bậc
sứ
hít
gỡ
mạc
bớt
lặng
bom
chừng
cai
bia
60
ném
ngũ
đua
2000
dọc
kìa
đẳng
rãi
khung
kín
hoả
tô
nhánh
thua
khóc
dinh
nhầm
bạch
cổng
##u
nhạy
ngọt
khổng
cất
windows
vinh
##h
trục
nhàng
2005
chả
điệp
bắp
gói
nôn
khán
va
email
lây
tươi
im
thợ
mọc
nghiện
ương
khớp
ga
voivodeship
canada
rủi
west
hò
hổ
sạn
rác
200
lượt
trộm
thiệt
dạ
tuân
dán
lồ
nhựa
giặt
tủ
vững
chà
kho
ro
gương
lò
vitamin
sàn
dặm
gen
thoa
phấn
thác
mỏi
huyện
22
nhẫn
úc
mực
xoay
trăng
dám
tuyết
túc
gián
xà
dứt
thiệp
trú
tuý
##k
chẩn
trưa
say
trượt
tv
hầm
500
nở
rắn
##c
gối
phái
23
treo
đạp
mệnh
hi
trần
tước
mi
khấu
dịu
màng
1990
nhuận
xịt
mỡ
lạp
leo
kiên
liền
bát
dư
tia
quỷ
tân
cởi
nhắm
vân
lẻ
mươi
đống
dâm
phím
dĩ
thuỵ
bút
lau
cát
chìa
oxy
ướt
ruột
2003
##g
cốt
tri
xinh
lang
nintendo
google
hôi
and
bám
xơ
london
bồn
pomeranian
boston
paris
thìa
thoảng
gọn
##er
khoan
bội
ngơi
thỉnh
buôn
thùng
tu
dáng
mồ
serie
bỏng
hối
tật
mỏ
kiệm
khẳng
tóm
cụm
thắt
khen
hoại
canh
kỉ
mũ
nô
chua
than
dạo
27
cú
triết
26
củ
trễ
ngầm
lát
chải
mexico
hãng
khẩn
1980
vở
ngã
90
bọ
khiêu
mông
đồn
28
tung
sưng
80
bọc
nè
trạm
đếm
ho
mờ
rào
giáp
cậy
côn
lưỡi
bôi
mù
lắp
vé
vú
cắp
bền
ghép
đâm
cóc
khốn
cm
2020
2001
gãy
thạch
kĩ
mạo
hung
hằng
kịp
mỏng
trôi
lạm
2002
mạn
cắm
bá
tông
chìm
kẹt
bể
tháp
cắn
khử
khía
bơ
brazil
##p
tháo
móc
khúc
thám
nghìn
rẻ
chậu
xưa
xứ
##in
lôi
el
xả
đớn
nâu
đệ
chôn
james
mg
sụp
mộc
no
khát
lồng
đuôi
dã
california
covid
hòn
quê
uh
nigeria
toả
thề
lộn
yeah
calo
xuân
nạp
ngẫu
bồ
tràn
dò
facebook
dãy
kí
pin
su
sôi
bó
thô
washington
bùng
ôm
70
lỡ
xích
làn
thỏ
đáy
george
usd
cạo
thuần
ngưỡng
jack
uy
toa
dàn
sưu
tí
chile
szczecin
thổi
đàm
giật
pháo
lót
david
ok
mưu
bẫy
chanh
đai
phun
xoa
mây
đáo
ngâm
frank
rễ
cuộn
29
khoảnh
khoai
nụ
bi
1970
nét
ngoái
men
khiếp
sáp
mượn
cong
thèm
vuông
300
sỹ
trừng
1999
cồn
tựa
apple
van
nhuộm
hưu
gõ
nêu
buýt
tần
rồng
ngợi
phe
đền
kẹo
đồi
mòn
phu
phẳng
colombia
soạn
dẹp
nộp
lê
ưa
họng
##on
vay
lệch
gội
ốm
michael
đụng
lưỡng
quét
cương
đắt
bê
mau
thấm
vang
súc
##us
luân
st
dũng
1998
giấm
ngập
1960
vĩnh
lô
ngoan
lõi
45
ốc
đun
nhĩ
robot
óc
okay
sắm
paul
lãm
##b
giáng
uý
tống
nhạt
cuba
hoãn
chợ
khói
tê
chở
ngứa
bồi
ngục
long
váy
chăn
3d
hẹp
nốt
chốt
1997
400
peter
phú
thơm
ngc
vội
huyền
31
ranh
điền
khôi
ồn
tam
hước
los
giọt
nén
sốc
thịnh
thấu
cưỡng
lợn
lật
warsaw
##na
bong
vây
1994
rộn
khuyết
đới
chẽ
bả
tím
1995
man
mồi
quát
tị
mac
khoáng
1996
bốc
đam
lùi
rũ
##z
cảng
đợt
hoan
kg
dì
nát
cáp
khỉ
châm
bì
xóm
35
vờ
ghé
củng
##ia
đậm
ngô
nhở
thiền
keo
vắc
kiệt
thôn
mò
hét
chọc
trương
world
##f
##es
bóp
đắp
kông
ngưng
nạ
dna
tạ
##an
iii
dắt
nguyễn
gấu
hâm
vòi
##ra
nắp
1950
khôn
đắn
1992
hey
khoác
loan
na
nghiêng
com
non
miêu
bù
nang
nguyệt
philippines
rồ
nghịch
nho
##x
thâm
lũng
mẻ
argentina
natri
trật
tuệ
ái
bón
đệm
lấp
thuẫn
vặt
tiệm
gạch
mộng
##ka
đà
1989
ngột
phật
lui
phô
lọ
sam
thung
cạn
lăng
tạng
##en
chòm
nhi
ted
william
##ta
diệu
robert
venezuela
32
cành
kiềm
cấy
quyến
tang
râu
ml
tưới
1993
dải
bọt
vắng
vứt
mầm
camera
##ng
iran
thoái
phơi
ván
bàng
mốc
nảy
khe
##ing
nồi
1991
gạo
xăng
ớt
sét
đan
bar
li
ve
enzyme
lùng
chuông
hụt
lờ
thép
ruồi
dội
file
mảng
nhũng
hiv
hang
voi
cơm
lăn
võ
dịp
mến
tokyo
rẽ
ben
vành
israel
cbs
vịnh
kẹp
quãng
gác
jim
ghana
##0
chiên
lặn
mike
microsoft
##và
nhện
android
lường
vạch
khơi
##2
gánh
ion
khay
rụng
ngắm
hố
nhúng
##te
##ne
##1
múa
bơm
nhặt
1945
charles
dốc
##v
ghen
carbon
maria
hận
manh
súp
đẻ
##la
mập
rỗng
dâu
rốt
bực
cd
ân
đứt
henry
del
bã
lee
asean
rung
75
youtube
tò
radio
peru
1988
gũi
tỉa
kali
ghê
iphone
mâu
đãi
xám
rèn
lân
điêu
sấy
sẹo
trùm
harry
hở
rùa
rock
đấm
chằm
lọt
rỉ
xoắn
nhát
150
bỉ
ôn
chì
giê
chéo
vuốt
ngư
tùng
khiếu
website
đoan
hạch
tráng
canxi
cừu
hormone
ngắt
trân
ray
nuốt
piano
cuồng
lắc
trúng
sườn
đuối
bấm
ấu
cọ
ngọc
##is
1987
tiệt
hiếp
1986
nhượng
tràng
vượng
kỵ
len
1985
nàn
cay
cống
fda
chục
house
nứt
đạc
chườm
mỉm
hán
thomas
hoài
xay
đoạt
chăng
hông
quấn
##da
usb
uganda
xi
đực
nghiền
nề
lãi
##le
##3
xưởng
ah
đỗ
martin
angeles
ham
trơn
cup
xít
1975
bill
##4
richard
chuối
48
well
1979
##man
dỗ
texas
tuỷ
cỗ
oliver
chảo
00
pop
bìa
thạc
phồng
đinh
khoang
lầ
tệp
tỏi
latinh
nhục
joe
ừm
hệt
toạ
##ic
phế
hưng
bổng
bob
city
đậy
florida
latin
sói
tăm
hydro
mark
rót
vần
run
tq
1984
buồng
giang
mổ
cúm
bệ
ngộ
nhị
1983
nhiễu
thầm
charlie
lúa
quấy
##ma
heo
lùn
má
kiêng
sô
nhốt
dưa
nến
loãng
đòn
thắc
găng
##ki
chinh
claire
xì
top
vụn
600
jean
1982
thính
mm
rạp
vẹn
singapore
gạt
smith
tựu
xách
que
mẩu
obama
bách
chuyền
saint
park
thọ
kệ
lướt
luỹ
trinh
dại
uốn
thiếp
jamaica
sương
đùi
thoáng
beta
phác
ri
alpha
##5
lội
nhiếp
khuấy
nguyền
you
rưỡi
##w
cán
fbi
ross
ti
36
chay
cúp
loét
huynh
ha
bóc
lột
muỗi
rome
campuchia
đố
khoán
nguội
trán
1976
me
1000
khao
chicago
gel
jane
thắn
berlin
king
đính
chớ
max
pro
sỏi
vặn
cự
hạm
rổ
rã
1930
chiết
steroid
túng
xỉ
liu
nếp
on
thiêu
bướm
phàn
vớ
xé
đôn
blog
của
bưu
league
nhai
francisco
tiễn
thầu
1940
chris
lít
ngửi
ph
##ri
jackson
one
twitter
cape
gai
800
adam
my
suýt
yoga
alex
feet
xăm
for
khoái
louis
nản
64
giơ
afghanistan
đặn
chuồng
cún
1981
indonesia
rachel
nãy
phì
quyên
xá
dở
boy
cược
trump
ủi
bến
##7
##là
jobs
quầy
eo
lầu
xông
guitar
kitô
kiếp
steve
##um
38
scott
xướng
1978
estrogen
tcn
yến
##ko
1973
1974
iraq
nhổ
khuynh
trêu
trá
gân
nhét
1939
mịn
hăng
chày
nọ
55
láng
lều
##al
##ch
tứ
##6
65
khoả
nhấc
bùn
chước
1972
cụt
chánh
sưởi
ngớ
bẻ
joey
ngẩn
trắc
##os
tivi
opera
daniel
hãm
sarah
séc
joseph
triệt
inch
bú
##se
lánh
vịt
37
insulin
##9
black
buông
đốm
1977
scotland
dvd
entertainment
phiêu
phớt
rò
33
99
nạt
vả
zealand
##no
đúc
rảnh
um
42
nhược
nhồi
##ie
dập
khuất
xế
malaysia
as
kenya
lận
chét
chổi
giun
arthur
phiến
bộc
##ed
##re
show
trọn
##8
##el
luồng
34
ngụ
cớ
đè
##ni
sọ
nghiệt
laser
rách
đọng
120
lấn
taxi
gởi
mụ
stress
1920
victoria
soi
##wa
250
anna
jimmy
maría
thiêng
huân
khiếm
tôm
1968
##ine
vòm
vẹt
logic
play
sara
##ba
trói
linux
đắm
##ya
hama
báu
bấy
thối
vươn
1944
kraków
liễu
hèn
khiêm
rét
chén
khéo
gậy
đầm
dai
edward
dừa
nghẽn
1971
cacbon
ireland
red
ao
ron
đạm
mĩ
xen
giềng
thà
xôi
ráp
super
1967
tơ
1941
ngào
##ro
lề
music
1962
gập
lén
tảo
nhức
sướng
kepler
phông
đục
cối
elizabeth
rải
tony
bit
dồn
vã
đàng
iv
khâu
khan
lách
cholesterol
lơ
rô
cúi
dâng
hái
johnson
kẽ
1969
xí
barry
xao
marie
olympic
son
gìn
wii
pakistan
1965
duỗi
39
chèn
gạc
nhường
testosterone
coronavirus
niêm
cẩm
love
pizza
trội
gục
puerto
trừu
tết
santa
don
bầy
khiết
mao
nasa
sen
95
tởm
1964
huỳnh
khánh
kẽm
hiếu
lam
gòn
times
us
electron
nhăn
ni
##to
brown
von
chui
pho
dẻo
sega
loa
nhã
1963
bế
hoành
gừng
rico
jones
nơ
sờ
francis
idlib
carl
1956
1959
ngặt
##j
aids
đúp
1961
kép
khóa
queen
##do
clorua
cưỡi
##ga
nhọn
nhầy
ngất
1958
chớp
lụt
vầy
xỏ
big
ngẫm
hungary
inc
harvard
1966
hân
suối
ecuador
kìm
santiago
mớ
quế
độn
wilson
bầm
costa
côi
ven
##de
amin
dời
mép
quỵ
dan
alexander
hoạn
rio
rệt
thạo
ướp
gay
monica
mr
nệm
43
danny
mặn
mồm
dê
ngậm
fc
khăng
mài
choáng
euro
gdp
nghẹt
rìa
44
amazon
quạt
billy
bịt
1946
sáo
##ha
##ton
bẩm
chip
choàng
700
miami
sảnh
52
xước
1949
calcio
inn
tản
virginia
trỏ
1948
town
viền
°c
all
dệt
lậu
1954
chiêu
lạy
nón
will
caffeine
nhàm
1943
haiti
hóa
rỗi
cào
miên
1942
cua
điếu
grand
young
##é
mãnh
##sa
47
xua
1955
cúc
##et
xấp
sạc
cớm
guatemala
trèo
lở
phết
câm
off
tp
85
tụng
cùa
sê
##ca
ukraine
it
khùng
vẩn
star
eu
studio
1953
ipad
rực
##ar
gót
1957
khép
##li
co2
hit
1947
chóc
gieo
hen
lanh
êm
gắt
1952
rớt
xộn
bít
international
settings
en
##ol
duyên
matt
mazurskie
hòa
thủng
tuỵ
tát
nại
system
xoang
gram
series
vợt
72
xíu
vách
jazz
time
tunisia
congo
khoe
##za
tommy
##của
##or
né
niệu
đần
pc
start
morgan
white
xát
nhủ
xoáy
chật
ngửa
aspirin
bự
chùm
vất
##được
juan
ngây
##ly
chuộc
ào
quặc
diễu
rỡ
##ian
chồn
andrew
rủa
brian
walter
cáck
##ry
cia
nick
##it
dopamine
os
store
tour
carlos
lincoln
mửa
le
khuếch
kề
phôi
46
moscow
##at
rica
búp
miller
vắt
dơi
home
sụt
##ke
ceo
jan
wikipedia
adn
jordan
xốp
flash
ngần
dỡ
alice
college
##son
ngấm
nobel
xói
cửu
wales
bỗng
hd
las
emily
khinh
miện
xy
đũa
chandler
hổng
thự
kevin
www
##as
eric
giếng
kiêu
serotonin
giỡn
hot
lượn
rộp
at
khỏe
au
playstation
41
bbc
laptop
dave
go
sừng
hawaii
south
49
mấu
tro
lười
nathan
neo
nộ
ford
menu
buenos
liêng
##ce
lầy
nhôm
53
56
dean
léo
fi
gán
hong
nahiyah
nếm
##ina
nhút
ram
51
id
logo
quí
xáo
##go
##land
amy
kate
sùng
trinidad
ếch
ngai
warmińsko
62
anime
nancy
ngự
rãnh
##ge
##ter
hcm
hollywood
ios
rwanda
1951
aires
carolina
chrome
eccellenza
ip
đít
billboard
gầy
fan
tennis
albert
national
tem
american
cuống
gom
hắc
hiền
nháy
viếng
búa
quỳ
sủa
banh
thỉu
carter
johnny
##me
##va
giòn
victor
dùm
trỗi
54
gốm
sierra
##ti
cáu
lụa
xưng
glucose
hannah
chênh
vảy
chiêm
cò
rạn
1938
ds
ấp
online
##di
georgia
đắng
##co
ali
street
united
lăm
stalin
vít
vướng
rủ
corona
eddie
hóc
nhạo
rán
taylor
tể
##mi
chướng
mail
il
mút
clinton
căm
live
nitơ
panama
seoul
tú
lứa
pdf
who
cpu
cẩu
cặn
media
quất
##ja
1918
australia
gò
mẹo
oxford
simon
am
babylon
histamine
luộc
omega
1919
itunes
news
with
yếm
dồi
khuỷu
nghênh
rát
siết
trút
xbox
chèo
suyễn
vá
xài
diêm
mario
sút
oải
dr
râm
thuyên
up
đấng
1936
phụng
caribbean
nhũ
sandwich
vạn
yo
hitler
wi
đắc
##đã
chuộng
nguỵ
explorer
fox
jersey
nhịn
qui
đẽ
chồi
howard
##q
1937
68
is
pete
vọt
instagram
vôi
ed
hao
ken
##th
khuya
đê
dance
madrid
mủ
williams
##un
anne
group
pokémon
vẫy
andy
gordon
goá
zero
57
clo
columbia
hill
jesus
et
58
xoài
chợt
donald
cọc
miến
sony
##io
switch
thắp
vạt
59
cày
gặm
chốc
division
myanmar
oscar
uruguay
wow
98
air
hãn
litva
##ur
tròng
acetate
club
gàng
##ów
##lin
1900
ngạo
gene
gật
ngạt
út
cưa
xỉn
manga
88
blue
diego
se
đặng
nhờn
bruce
games
green
nẵng
solo
##ck
ngòi
open
ráo
silesian
05
chốn
day
jr
koszalin
180
bo
nành
records
xoăn
đẫm
chen
dc
két
nhậm
rose
ana
samsung
tầu
ryan
##il
##ji
nạc
proton
rể
nhãng
blogger
einstein
ethiopia
mẫn
vùi
1929
lung
măng
##ov
huyệt
nm
băn
chuồn
jake
nòng
soda
khoăn
kèn
lagos
vỉ
61
mắng
chích
walker
nhấm
##ion
1933
còi
kyoto
ngượng
rick
cạp
nới
wayne
des
lữ
tab
1928
delta
lisa
olsztyn
pennsylvania
phình
võng
cotton
golf
mạ
tụt
##id
900
doug
dép
sudan
##ley
1932
alan
bén
choszczno
present
rosa
androgen
command
giục
pan
un
vác
điềm
67
sên
roy
tre
##vào
96
bùa
jason
sâm
vãn
##ah
hươu
france
gài
jose
1935
chặng
hiên
jessica
lựu
model
nung
bừa
catherine
chĩa
lào
art
chàm
colin
cón
emma
nan
át
01
ipod
63
ghim
lon
opioid
ward
##lo
drive
phoebe
vegas
##berg
##hi
adams
hãnh
lympho
vựng
word
phỉ
té
86
liếm
são
chọi
trù
##chi
cằm
perry
xuôi
báng
bốt
christian
ibm
magiê
nhì
excel
ft
khốc
manhattan
nepal
ngùng
sồi
66
gamma
giỏ
hốc
nhào
org
rậm
wall
##ski
háo
lega
methyl
micro
szczecinek
anderson
ar
##ide
garcia
lewis
patrick
ròng
barbara
dẳng
mượt
ohio
sập
##st
fantasy
jin
kiêm
philadelphia
vienna
bush
cõi
guinea
kennedy
úp
##ey
82
gãi
khống
quạ
quật
tua
duệ
gps
sài
mol
dong
rong
then
uefa
1934
77
salad
samuel
silesia
walt
biếng
robin
tampon
##ek
gary
ibuprofen
martha
06
líu
salvador
##am
##be
matthew
stephen
##ts
củi
stark
thuỳ
thê
1922
bin
final
lẩn
ngừ
rèm
savage
tấu
tẻ
fort
gầm
johannesburg
nấp
pierre
sydney
giàn
mu
phanh
tanzania
amanda
cruz
estradiol
sỉ
genesis
hack
hank
harold
lốp
xót
08
1912
bạ
diệp
dặn
mác
##ll
##trong
clark
lửng
massachusetts
quẩn
04
davis
dào
hẻm
post
76
bịa
chấy
fifa
nai
rạch
táng
acid
ann
lố
marshall
paulo
##one
cẳng
putin
07
bênh
chói
silicon
susan
app
biếm
drawsko
liêu
##pa
1914
desktop
giẻ
homs
nhô
sòng
allen
annie
bobby
hức
km2
ngà
roger
thẳm
73
ctrl
cằn
##ville
antonio
este
gb
network
ngủi
phiện
sportiva
đày
##si
1927
amoniac
dragon
ki
newton
rẩy
130
84
arizona
luis
nã
abu
phước
save
vệt
1925
hắt
nhộn
09
florence
ltd
mỉa
night
náu
armenia
trầy
underwood
1913
71
tặc
your
##bo
ottoman
vali
1924
cu
margaret
ss
thừng
##ate
jesse
lồi
nano
next
phích
rầy
titan
đu
##ny
benjamin
chửi
corticosteroid
nướu
sọc
by
firefox
gươm
hall
pablo
xào
1910
1921
https
just
pound
port
79
brooklyn
chém
jeff
ngả
nham
vóc
##à
110
jong
lima
linda
thun
tòa
##ler
240
360
be
high
jerry
mỳ
1917
bành
bịch
helen
huh
huệ
mini
mìn
văng
algeria
bell
lẻn
reo
sri
telenovela
##yl
aleppo
cambridge
cúng
gớm
java
marathon
ms
nato
nương
soái
life
little
milan
north
các
chạp
lúng
phil
sean
thea
jay
karen
mọng
sherlock
rệp
tyler
##rs
##ze
140
91
cameron
finch
giêng
janeiro
raymond
thản
101
cairo
tẩu
##có
##ty
dang
grant
lily
lucy
stone
ten
toronto
##ica
control
si
sẫm
1931
phao
quăng
cocaine
khoát
lawrence
ngoạn
miss
nhá
trọ
##sh
89
angela
thệ
vỉa
74
cước
darwin
kaliningrad
leone
stargard
##ve
1923
83
america
bới
grace
nicaragua
trệ
vincent
##ers
##ir
##ner
350
còng
dj
download
gào
justin
bass
giùm
icloud
napoleon
xê
##nt
02
cafe
carbohydrate
chuck
power
progesterone
tỵ
xui
buồm
diều
03
3000
alfred
asd
dơ
nách
sd
suôn
điếm
jacob
kelly
laura
nọc
đái
1926
69
81
corporation
havana
méo
real
sun
vũng
##ns
92
bus
lay
marty
97
anthony
data
là
oxit
phẫn
charlotte
cút
sán
sławno
hoán
kong
luke
alzheimer
divisione
lẫy
muôn
núm
trặc
dennis
thảy
##gi
bẩy
damascus
gộp
han
lảng
nín
or
93
east
laurel
ngỏ
vấp
##der
160
atlanta
herschel
ian
trướng
chùa
hoóc
larry
náo
tell
trọt
vụng
5000
digital
michigan
mánh
zambia
gi
hip
honduras
italia
nsaid
rna
tã
##ana
acetaminophen
bangladesh
bổn
nhảm
palmer
roosevelt
sò
78
disney
earth
lộc
gideon
hoi
ht
hũ
poznań
##ut
baby
foundation
island
vãi
##rin
87
hop
rêu
square
type
94
heli
rao
out
parker
reid
gáy
holmes
katie
link
nặn
slide
##cho
chằng
franklin
gmail
heroin
ivan
liberia
nelson
nitrat
peptide
wrocław
from
hydrat
##ai
##mo
castle
josé
1500
adhd
houston
một
rữa
sấu
##ium
450
barcelona
bời
lẻo
chót
coca
dos
karl
marcus
namibia
nhím
office
abraham
lượm
moi
mạt
roi
rà
tà
uv
điếc
##ở
clb
galaxy
##ss
baltic
harvey
moon
nhung
tràm
vladimir
##tion
fiona
lộng
philip
##ku
##rd
125
ac
mọt
norman
old
rap
this
##ó
1911
chùi
greg
html
louise
lốc
nes
nhọt
unesco
##wood
airlines
clay
elena
mit
mrsa
nhõm
nóc
tẩm
betty
carmen
ethan
khoanh
vữa
zachodniopomorskie
đéo
##ura
moore
netflix
ngoặc
orleans
##bi
##ger
hamster
vẩy
ch
company
dưng
gryfice
vớt
##ite
##que
colorado
gỉ
mp
phộng
school
steven
##ria
benzodiazepine
chư
gabriel
neutron
oxi
sir
assyria
bolivia
c2
code
dứa
gẫu
trạch
ep
ghẻ
khít
manuel
sảng
đả
hacker
lucas
nhỡ
palestine
russell
thốt
và
bluetooth
jefferson
julia
moskva
ngõ
xảo
##ino
belarus
carol
console
douglas
hunter
lu
maya
mí
server
giầy
jon
lanka
phẩy
rên
thét
thẹn
vu
lõm
moses
nhão
prince
stanford
university
vế
##á
luồn
quai
stanisław
whoa
bydgoszcz
bạt
england
net
parkinson
card
hủy
sahara
api
hé
percy
potter
wells
zimbabwe
##ow
bon
dickon
general
intel
julie
kafr
plasma
union
venice
missouri
mtv
ngáy
răn
state
sumer
teddy
xù
frederick
gryfino
penicillin
phượng
sin
đôla
##pe
cameroon
dioxide
great
ukraina
##ho
bank
cole
cortisol
ligue
ngoặt
phách
christopher
cooper
der
gas
somalia
##les
axít
chổ
lady
les
team
1908
iso
manchester
name
noel
nít
vodka
đong
##ska
1905
add
gaba
girl
kansas
radar
turner
tweet
##ff
băm
chưng
coulson
god
jerusalem
phai
chần
nacional
noah
quậy
thụt
best
chun
chưởng
dĩa
ellen
mứt
seattle
thêu
xắn
cardio
croatia
free
phốt
sushi
##by
##line
##lla
associazione
caracas
carrie
kołobrzeg
váng
yes
##ot
delhi
dạn
german
jung
light
ragnar
rành
rạc
tạt
wolf
##im
gam
miguel
mách
press
shin
thục
tpp
##field
##nh
##án
derek
fred
gu
illinois
jonathan
mri
ria
watson
##ee
hamilton
rạng
##owo
##so
##wo
apollo
athens
hun
leon
like
nina
sulfate
##han
caesar
chê
chóp
dẫm
gates
gym
hấn
teen
świdwin
##dy
##tic
alaska
neil
rưởi
women
xx
xẻ
##rt
baker
bond
dè
lóc
michelle
ngợp
nêm
roma
ăng
##ong
austin
cola
khmer
mozambique
mận
ned
nghếch
nhuyễn
nicholas
oregon
pa
roman
xiếc
##nia
beth
maggie
stade
teo
toái
center
good
nhọc
oán
rình
saturn
sim
toan
yi
##ius
##zi
aristotle
central
kinase
minecraft
oz
rợ
thon
doc
khờ
lydia
mississippi
nu
yahoo
##ist
1915
2021
debbie
hằn
hời
môt
remote
royal
clip
master
miles
pla
thềm
##ye
ashley
global
graham
tuông
visa
enzym
first
luyến
lằn
mode
murray
robinson
salicylic
teresa
url
ưng
bonnie
brad
collagen
cũng
gotham
hans
hót
hốt
joy
malcolm
nhí
quáng
rebecca
tè
##ene
bulgaria
chase
chừa
maryland
seth
shakespeare
virut
vét
western
##ad
1909
chẹn
connor
dí
harris
ng
##sky
1800
bitcoin
kamień
libya
reese
stefan
sục
sụn
truồng
ối
bích
trâu
trụi
tuột
đãng
1904
adobe
estonia
fire
josh
khét
min
nháp
pedro
rơm
story
łódź
##shi
dãi
héo
khắt
ngầu
snapchat
turk
tấy
##jo
##ón
andrea
bưởi
c1
http
lipid
máng
##zo
aaron
abc
ak
apec
ebola
fe
linkin
metal
ươm
caribe
có
felicity
gien
gôn
ruy
terry
thoi
vò
yale
##den
bộn
county
enterprise
giễu
khiên
molly
ngó
ruộng
slovakia
stan
vistula
woo
yểm
##au
##mer
1901
1907
albania
bhutan
bu
ct
leonard
osaka
prima
rand
rodríguez
rụi
ầm
apache
barack
blake
color
dallas
party
quest
rốc
software
vàn
warfarin
đốn
##gen
1890
foreman
lút
nực
phàm
rapper
rặng
tobago
xiên
1902
911
angola
bogotá
bruno
castro
cộ
fernando
gothic
isaac
nhớt
now
quýt
sấm
we
xỉu
##ble
##em
##ung
iceland
jacques
khải
mốt
promozione
rìu
touch
toát
tróc
uhm
xix
##su
1916
barney
championnat
kang
line
manila
nhám
peroxide
soo
warszawa
won
##ea
##sen
beach
caroline
elip
kiều
lotion
malawi
ruth
sheldon
stella
thây
vpn
##với
actor
china
gloria
guy
hubble
land
lebanon
mv
starling
##tor
2030
białogard
bừng
hugo
ji
lance
serbia
xổ
đờm
##km
abe
dấy
gold
messenger
mia
tơi
way
##ua
back
bướu
chợp
detroit
gdańsk
mậu
nsa
shaw
thompson
tấp
1880
end
mobile
nom
whatsapp
##ford
##ron
hỡi
lou
rốn
shinoda
single
thỏa
tru
##năm
cat
madison
múi
mẩn
nairobi
sex
skype
vv
##ini
##tt
220
bahamas
british
champions
diana
wyatt
##kin
##ul
750
byzantine
bịp
chuốt
dẻ
maroc
router
trơ
3ds
chúng
cocktail
computer
golden
hdmi
liếc
snow
tạc
verde
xo
đươc
gilgamesh
khứu
lẽo
marco
mercedes
nặc
phường
seconda
vera
##ita
1906
dạt
felix
gọt
huýt
joshua
nắn
otto
rang
1903
ethanol
grammy
hẻo
jennifer
logan
marcel
năn
nỉ
tennessee
đay
đcstq
boris
daily
garcía
girls
hấu
jamie
jill
mali
nhưỡng
xuẩn
advance
bảnh
die
gonzález
halloween
human
húng
juana
mỉ
patricia
riley
set
sành
##ay
##burg
##we
bennet
chang
chôm
hon
liti
pharaoh
philippe
roberto
thốn
##ice
collins
dominican
ghb
giêsu
hlv
hmm
muỗng
ngẩng
point
ráng
sophie
sylvia
##ak
##min
caffein
christina
forbes
gặt
herpes
jenny
lgbt
nevada
nixon
saul
sc
scan
scarlett
virgin
##fa
cacbonat
copy
khoé
mường
pixel
te
toi
##ik
adenosine
arts
brody
cỏi
kị
led
luther
ren
river
road
vietnam
dằn
kền
mw
nba
nhằn
norepinephrine
##po
bangkok
brussels
cross
evil
foster
jo
kirk
knight
lara
okinawa
phà
space
thình
##ps
##sis
hudson
japan
m2
nấc
russian
soul
thớ
vectơ
vo
##tte
alexandria
bengal
dea
guardian
io
kit
lún
melbourne
nhích
nĩa
stewart
tột
vani
watch
what
115
atp
barnes
foot
hydra
isabel
keith
lester
miệt
photon
polymer
toilet
warner
xẻo
##ham
##je
bernard
calorie
clarke
cỡi
fitz
maarrat
mào
sệt
được
##ation
##ies
##ky
##ou
##ō
bậy
cuddy
dana
endorphin
es
hàu
katowice
kingston
nicotine
nẹp
sol
spartacus
toner
trát
view
##che
amsterdam
evan
louisiana
phoenix
rafael
rom
rùng
trớ
tít
##he
105
cợt
hunt
hù
mt
nhíp
plato
pomorski
ab
campbell
fujiwara
hăm
munich
ngụm
nhói
pi
##res
##the
128
dốt
geneva
hee
jorge
judy
józef
klaus
##ft
botswana
diesel
iu
lhq
merlyn
nike
page
petersburg
ru
rám
sofa
studios
troy
vượn
win
bryan
buddy
clara
dấn
florua
ganh
plus
pomorskie
project
saudi
##tti
amor
darcy
film
nokia
santos
sp
sôcôla
đành
##mann
ahmed
chan
gamecube
lannister
manny
minnesota
nghiến
reagan
terminal
tề
warren
đút
##ex
##ls
##vi
bướng
cũi
ethernet
kình
muhammad
that
esther
guyana
he
kèo
lane
ngơ
vẹo
điểu
##ism
##well
##í
1860
atm
bennington
cóng
evans
lord
mabuchi
ngách
scofield
tuýp
ỏi
##ani
adrenergic
aerobic
block
boong
cox
dượng
giũa
giở
joan
kỉnh
lặt
oklahoma
quẳng
stanley
two
valley
##era
##uk
##wski
africa
channel
chat
kíp
seychelles
utc
ập
##ński
anc
julian
mega
ngạch
outlook
universal
wilhelm
awards
biała
gắp
mason
mon
reed
tiệp
vest
##tan
1870
account
ad
azerbaijan
christine
cisco
cookie
giũ
người
nhúc
nhẽ
ubuntu
vector
yemen
yết
##nd
berkeley
bái
lublin
nhử
sars
shift
uk
vồng
ốt
ballet
bục
hills
iris
kent
more
namco
nghẹn
nạo
swift
voice
xẻng
ôxy
##ld
##ô
170
1898
baltimore
cathy
down
finn
harrison
hyun
karate
láo
nhẵn
phiếm
pm
polyme
sally
túm
##om
grayson
polish
princeton
quặng
sỡ
tý
vanessa
zeus
##don
##ker
##lia
##yo
##để
heart
km²
kén
omar
pat
siberia
wisconsin
zdrój
alt
anion
ash
baroque
bmi
capitol
carlo
duke
edge
gao
gô
italy
kazimierz
limited
mc
montreal
mề
silva
cừ
dreamcast
gabon
lg
skye
sần
tui
vung
##ac
brasil
edgar
kid
kyle
mauritius
miranda
pictures
wright
##ber
##ure
ace
bazơ
bùi
cook
deir
lab
manager
olga
oxytocin
saxon
short
sầu
thò
vinci
wade
##cha
##ier
##ii
##nes
##ran
1894
algérie
augustus
dùi
dẫu
ellis
ester
gregory
heparin
hillary
marketing
usan
vaccine
villa
##00
chệch
coli
hal
hindi
jae
jeremy
metro
ontario
owen
panel
phả
podcast
rụt
##ment
1895
1896
bartoszyce
bravo
carson
chũm
dầm
festival
science
search
shell
spa
th
wendy
amber
cdc
drew
edo
iốt
jackie
player
ronald
safari
spencer
toyota
tuộc
violin
##ei
##ity
##san
##tin
aas
chẵn
family
grande
há
marta
nần
sebastian
##ase
##nica
alabama
alberto
august
broadway
bros
cabin
casey
choẹ
cù
gang
hassan
hindu
hói
megan
rob
romania
tnhh
ảm
##per
brunei
chắt
get
grey
ibn
kai
khẽ
kiev
last
nhả
queens
robertson
vằn
°f
##ev
##tes
##ud
##ín
1897
amphetamine
bari
bristol
bẽ
chập
craig
dog
martinez
paypal
porter
reggae
rum
rương
##ang
bina
butler
express
greenland
history
kazakhstan
liềm
mama
motors
nài
orange
selma
solomon
stuart
ts
tễ
vii
ắc
##owski
##ten
##ue
1885
4000
barbados
chè
chộp
cốp
daisy
deep
donna
indiana
madagascar
muội
nikolai
oan
phosphate
pittsburgh
salamiyah
stockholm
sảy
đểu
##bu
##ds
##ec
1893
cecil
conrad
damon
dark
lauren
log
mandela
mars
modem
mía
những
ralph
xở
##dine
ag
dilettantistica
dominica
europa
groot
hòm
hòng
jang
key
lem
lithium
monroe
movie
rita
rận
simmons
tor
##cy
bần
disk
edition
famicom
giời
lucia
nao
not
re
serum
sặc
test
thằn
władysław
##net
##way
1830
arrow
benzodiazepin
bỉnh
calvin
chart
chầm
connecticut
hangul
helena
nhan
pyrzyce
rít
rẫy
sky
thớt
trau
valentine
##ru
cloud
diane
góra
gợn
holly
leonardo
magie
maurice
nana
nhẹn
ninja
nôi
ptsd
rưới
rợn
stanislaus
tuấn
yuri
àh
##ella
##ling
##sk
birmingham
cnn
cristina
dimashq
edinburgh
fm
major
mcdonald
samurai
sophia
sylar
##ent
##ão
bazan
claude
dột
giã
hat
hydroxyl
ic
kẻo
lùa
natal
nheo
nhs
phone
prompt
vơ
ửng
##ane
##sin
##ver
109
are
cation
chad
cohen
cover
hope
hp
m3
nhún
ran
thóc
trám
xén
đếch
audio
bowling
choi
coupe
dream
dubai
enterprises
hotch
interferon
liban
liz
motor
myślibórz
mó
ngỗng
nhái
paula
vatican
đao
łobez
##lli
ailen
bailey
bô
churchill
cytokine
duncan
gara
goleniów
hugh
husky
lloyd
lì
marx
naples
nấng
pô
sound
vinyl
##gan
##mine
##tz
chester
cynthia
gus
huế
hydrochloride
judith
lim
sports
thiếc
truỵ
war
xới
yoo
##bel
##lan
camp
cleveland
copenhagen
galicia
nicole
rây
sộ
veronica
violet
watt
##30
##ara
##ban
##ren
baxter
dsi
eve
holocaust
iowa
khò
people
quentin
spin
sénégal
truman
usa
yoon
zoe
##ano
##cũng
##mide
1200
ghẹo
hector
kentucky
lorraine
lóng
makerere
pomerania
tráo
whiskey
zoom
##ira
1899
amoni
blu
erik
gliese
gàu
hùm
montana
niger
seo
sue
tesla
tủa
##ich
##ok
##sha
##ê
andré
angel
atari
cholinergic
durban
eritrea
fax
kara
lorenzo
múc
quyện
rộ
sk
ultra
valencia
ẩu
##ell
##kg
bing
blood
bung
cal
english
football
khè
michel
qatar
sandra
scarborough
sea
slav
systems
síp
thặng
vs
##ard
1886
andrzej
ea
gandhi
giông
gm
lết
magic
mb
meta
morris
murphy
ngưu
oder
palermo
rượt
torres
bói
bùm
búi
chapman
cricket
drake
ether
friedrich
kyung
luxembourg
luẩn
lọn
nanh
nể
roll
stevens
trịnh
xl
đùn
##vin
230
abby
call
eva
floyd
force
heather
julio
montgomery
nikita
pascal
tracy
utah
ớn
##không
##tra
1850
bad
benzoyl
burger
cyrus
fernández
folic
french
fu
giẫm
histamin
lake
lazio
library
main
merlin
nhậu
oil
phồn
proxy
reuters
robbie
rè
rọi
sủi
truất
tào
unix
ói
##eh
##ric
##town
battle
cháo
fischer
gluten
gray
greater
khước
level
mount
mp3
ngoãn
nhợt
peterson
right
tae
thỏi
với
##fe
brothers
carlyle
delete
fa
georges
lin
nhoáng
options
para
phillips
trượng
vista
wang
##cia
175
boys
business
bét
hamburger
istanbul
lẹ
nice
note
nấy
ocd
olive
olivia
portland
poster
print
trevor
vega
##her
108
135
avatar
bradley
dawn
iron
latvia
mải
order
powerpoint
quark
sandy
snes
spf
sứa
thiến
thâu
update
xịn
đèo
##mm
##tta
1868
afro
casimir
elias
ethyl
lower
lìa
mồng
nitrit
petrov
plaza
root
summer
thiển
tiktok
vivo
zip
đuốc
112
action
arcade
becca
coast
dỏm
edit
loanh
mikhail
mo
pink
romeo
satan
sonic
tango
thuở
tina
wars
weekly
xuồng
##ix
##ney
##từ
1600
accra
ap
aureus
box
cephalosporin
dìm
er
ernst
flynn
gate
hand
henri
johann
juliet
khảm
liga
lizzy
mercury
ngóc
nova
què
quầng
roland
schmidt
secret
sign
slade
##ez
##ía
2050
adrenaline
arnold
bavaria
dl
dreyer
gaon
heinrich
ice
kếp
luisa
mack
mafia
moreno
mướn
mị
sultan
xâu
alicia
atlantic
burundi
coppa
glenn
gs
gượng
margarita
mona
pradesh
probiotic
pronunciation
ruby
senegal
skyler
sự
taliban
text
tyrosine
woman
xúi
ôliu
ốp
##ae
##ora
1892
akkad
cp
cuốc
epsom
eugene
falcone
guayaquil
hiro
lạt
marc
mâm
photos
powell
ptolemy
spock
thau
trọc
tvn
winterfell
##ci
##cin
##dia
##ula
chao
chùng
find
frankfurt
franz
gabaa
health
joel
khoắn
lenin
melatonin
mickey
nowy
pepsi
qaeda
tajikistan
thể
túp
vancouver
vaseline
xẹp
##ela
##nce
amino
capital
dunbar
earl
format
giovanni
hughes
hydroxit
kampala
kev
kha
morales
nhúm
nhại
niken
ricky
roberts
ronnie
rước
salon
trũng
##bin
##llo
1863
1871
association
award
beckett
bennett
bios
brooks
chocolate
chẻ
díaz
elisabeth
ix
julius
ldl
lilly
lụi
lứt
mitchell
ngợm
núp
pet
singer
slam
sửng
tadeusz
thoạt
ôtô
##yn
104
107
1891
alexis
angiotensin
bauer
chopin
container
core
death
eduardo
fletcher
flo
friends
gmmtv
if
inanna
install
javascript
krypton
lư
malay
mohamed
nandrolone
nhót
nhộng
sấp
takahashi
##din
##lle
##mar
118
anita
betta
cacbohydrat
cain
cau
christ
erin
flint
four
holi
jc
kuwait
liêm
lotte
orlando
phạn
pretoria
price
productions
public
vic
##ant
##ero
##ux
113
365
anton
benedict
carnegie
delaney
derby
dublin
eli
gabriela
jaime
lupus
mumbai
nakamura
nhơ
photo
poker
salsa
simpson
standard
tulip
vip
whitney
wood
##ena
##iya
##rine
##vo
##́
123
bai
claudia
cn
dorothy
dật
elle
everest
háng
hê
konami
lip
luna
maine
pakixtan
paz
penny
preferences
pérez
quebec
quàng
rivera
sonny
suqaylabiyah
##ari
##pin
##vir
aa
bull
chửng
columbus
damien
frankie
hydroxy
hỏa
isopropyl
janet
jeffrey
mendoza
mill
morocco
nitric
om
prix
singh
travis
wallace
##eo
##hin
##ń
111
1888
amd
auschwitz
biskupiec
bolesław
casa
cent
chuốc
click
hopkins
mar
mart
pam
pearl
ricardo
riu
romero
rosie
silver
tho
todd
tunis
under
webb
wesley
ín
##ida
##off
1887
advanced
arab
banks
chừ
curtis
diệm
ebay
franco
helium
iq
journal
kè
loé
lỏi
macos
montevideo
protease
rice
stars
đùng
##du
##fer
##ico
1865
1884
650
actress
beck
białystok
bohemia
cbt
demo
hercules
irắc
mccarthy
nile
pr
rhodes
rumani
sheila
states
unclos
vừng
đã
##ire
##ris
##sia
##tu
102
book
cc
crystal
cật
lự
pfizer
phễu
rogers
swaziland
sảo
theodore
tâng
unione
yu
zombie
##con
##gs
##iec
##mia
##ster
320
abbott
adolf
bandai
bird
boeing
boric
ce
chlamydia
comic
conway
dãn
epinephrine
hawking
irene
lình
macro
marina
po
sullivan
tara
teatro
víu
water
##ju
##lon
##mon
1862
1878
1889
550
acetylcholine
allah
bartoszycki
bg
bundesliga
chloe
exe
finder
kosovo
legend
mõm
naproxen
ngước
rodriguez
security
sủng
tuôn
tép
viktor
việc
xp
đóm
##cm
##ese
##nda
##ros
##ì
103
1876
abel
acrylic
amelia
andes
cayman
enrique
escobar
frankenstein
full
holy
hpv
hủ
kenneth
lego
lens
lost
malta
mekong
mod
mohammed
níu
pacific
rắm
santo
stadio
theresa
tịnh
vitro
##jin
##ken
##ona
##sy
##tar
##ting
boulton
cecilia
dollar
ernest
fuji
găm
harper
honneur
isabella
jenkins
jisr
khố
liam
mozart
nbc
ngán
op
phan
report
staphylococcus
zach
##ada
##ala
##pi
##yah
117
1864
190
barbiturat
bíp
cindy
dead
domingo
dylan
gómez
gồ
hyundai
ibrahim
image
ka
merck
miriam
ngáp
nicolas
nt
qt
rif
spring
tnf
trust
trợn
turkmenistan
uyên
vida
viking
##iyah
##nte
##up
##−
1883
animal
bikini
bồng
children
cuban
dụng
ee
electronic
fide
gnu
hybrid
lopez
macintosh
only
per
premier
racing
rover
rầu
sodium
sulfat
tarzan
true
trăn
una
đờ
##ī
##̉
1848
256
applications
b12
band
bella
belle
chíp
crowley
hypatia
hất
ingrid
kenny
kilômét
lactic
lesser
lúp
mè
nịt
philíppin
phiệt
poland
por
reductase
richie
roche
sugar
talk
toạc
tía
uế
vấy
##ys
##zy
1834
280
aberdeen
amidan
arte
atlas
ball
bayer
bronx
bẹ
cabo
cali
celia
cùn
dặt
elijah
her
june
krakow
lionel
lẫm
naomi
nẻ
palm
ping
prime
rê
sharon
superman
thòi
tr
##house
##op
##owa
1840
ada
bts
bớ
cyp3a4
cội
doris
field
future
gallagher
ghề
hạc
hử
kemper
klein
lópez
martínez
mic
password
patty
rem
silicone
smart
trồi
xoong
##cus
##ks
##van
about
ayn
belize
books
cùi
golan
gù
junior
machine
mba
reset
service
side
yang
##ary
##dale
##men
##nin
480
aleksandra
bs
città
diếp
hamburg
ja
jerzy
kindle
kurd
lõng
mcgill
melissa
monaco
monte
noi
ooh
randy
rip
rossi
samantha
shughur
soyuz
sunfat
tata
vegan
xiêm
ya
##người
##stein
##ted
##worth
##zine
##ā
batman
charley
epa
fisher
fisk
kb
mui
neuron
photoshop
ramos
socrates
statin
sánchez
sùi
togo
wa
##kowo
##win
106
192
cargetoria
dehydrogenase
enter
forest
hoffman
jj
know
marvel
masyaf
nghén
nguời
nhòm
remy
reyes
services
tequila
viii
véc
wally
wu
##nga
##py
168
ballad
country
dale
dẹt
elliot
fortune
freud
giếm
gừ
herbert
honey
ibadan
low
nhàn
pastry
pen
pope
tokugawa
trinity
tuabin
uruk
uzbekistan
##ito
##ous
##ú
1835
1867
1874
270
alejandro
amiăng
arm
aung
bali
boxing
bẹp
clyde
dioxit
e3
gallon
hale
imf
isil
kremlin
magellan
mountain
nhọ
research
sanders
sasha
sweet
sải
trìu
wawel
wild
yoko
##10
##cki
##ig
1861
agnes
bolton
chronicles
create
cồng
electronics
eun
ghost
heights
laden
loã
luỵ
management
mariana
messina
mhz
mền
neutrino
ngóng
nịnh
sammy
sm
sr
sunni
upper
vy
xổm
##and
##kan
##los
##ness
##ola
##tus
##virus
114
210
alto
blues
byte
crohn
córdoba
edith
ernesto
garden
how
khăm
latakia
lừng
mk
natasha
nong
nowe
nuông
prague
reynolds
sherman
society
stein
sầm
terra
theory
##amine
##des
##ish
##lis
##my
##yi
##zone
165
1873
albumin
april
brandy
bứt
carb
crown
fish
giòi
harriet
korean
kềm
nhuỵ
nzt
oecd
review
rôman
select
titanic
vn
##amide
##fi
##ral
##rat
##yan
##zer
144
155
260
apartheid
aurora
captain
championship
craven
càn
cỗi
gore
gờ
homo
hú
hợt
ia
lác
macbook
ollie
rach
rocky
theta
tiffany
uric
alf
beau
diamond
donnie
euclid
evelyn
globo
gomez
katy
khâm
labs
lisbon
luz
magazine
martini
milton
nhăng
nico
nikki
nện
petrelli
playboy
samoa
siêng
sn
technology
tonga
urani
wola
xiết
##less
##let
##nik
##rm
1869
andre
baghdad
bolshevik
cfa
come
creek
emmy
files
half
iaaf
idol
jess
kathy
langley
leslie
liberty
lả
nhang
nuối
over
penn
piper
retinoid
rojas
sanchez
scandinavia
shirley
socola
triclosan
trệt
tuscany
vince
weber
wiki
xối
year
##ms
1838
1858
1882
ark
armstrong
arya
blackberry
boa
bosnia
boss
brick
campania
candy
cello
chambers
class
cornell
dalton
daphne
dom
geeta
glucocorticoid
glycoprotein
hero
katniss
kira
lactose
list
marion
mecham
mitch
parkman
piska
rorschach
torino
torrent
vargas
winchester
xỉa
127
boot
brandenburg
burrows
cass
cleopatra
correa
cov
diaz
dọa
emilia
faso
georgetown
gibson
head
holdings
isis
josephine
jules
kay
ku
kềnh
lactamase
liverpool
locke
natalie
norton
nơron
ramon
richards
see
sicily
sởi
vơi
vồ
whisky
##cs
##dar
##gh
##ick
##kov
##mba
##mu
##́t
##ủa
ari
bear
bourne
budapest
bở
cl
electric
flores
gil
hae
joffrey
johns
lite
lola
lynch
masters
morphine
myers
ngấy
niki
nylon
pao
planet
plugin
sirô
slovenia
sũng
sưa
sạt
takeda
user
virtual
về
##ct
##gar
##kh
##oc
##rus
##tại
##yama
bishop
bp
burkina
bím
chác
cùng
elsa
empire
gerald
gorbachev
halogen
hydrocortisone
jeanne
kitty
let
lynn
nahiya
oracle
pandora
sharp
snap
soft
stannis
xẩy
##bia
##bury
##hoặc
##tine
##via
##̀
##ị
330
augustine
blah
bloomberg
bud
caitlin
corp
days
denver
galileo
kahlo
lombardy
loà
marley
mayonnaise
nate
nazir
nhặn
nicky
paraguay
phnom
record
rede
send
sicilia
stare
wifi
xml
ở
##bar
##more
##oma
##pp
##pur
##rn
##tas
##ño
1877
adidas
barr
chững
denise
ec
emmanuel
frances
gina
hemoglobin
iau
index
kendra
koch
linderman
macedonia
mikey
morning
mùng
mương
mống
ngo
nhàu
osho
penh
shadow
sonia
three
tưng
tẹo
ubisoft
village
vlc
đoá
đoái
ạt
##bus
##ción
##oid
122
angie
barwice
bridge
brighton
catalina
chắp
crixus
descartes
dock
dằm
eisenhower
fat
herrera
kane
katherine
lcd
ngạn
orion
paolo
properties
ps
richardson
rứt
sexy
swagger
sẩy
things
tusk
uể
virgil
winston
wort
yamauchi
đom
##com
##ens
##ip
##len
##một
##port
##ware
##ân
129
1866
1875
alison
alma
asia
brand
buốt
chaney
chelsea
clayton
crush
diếm
entropy
happy
hello
hr
huyên
insert
jump
khiêng
khoét
león
mít
nature
nh
nhãi
odyssey
parsec
polanów
powers
python
rr
ruiz
sid
soca
tamil
thọc
val
viêc
xiềng
đẩu
##cc
##dor
##lt
##oe
##ras
##ła
1826
6000
adrian
alps
bc
blade
body
bromua
device
dll
dolores
five
gniezno
gnrh
gradient
gwen
hazel
heavy
hernández
hye
hĩnh
hổn
jeans
karaoke
kilometres
kiwi
maxwell
micrô
mướp
nadia
napoli
nốc
oghuz
oslo
pierce
poe
pounds
russo
rôi
sigma
special
sum
tess
uss
vón
##ata
##ego
##ui
##wi
1815
1820
access
baron
chầu
cytochrom
dixon
edwards
fructose
fulbright
gin
gonzalez
gọng
hampshire
hood
hâu
hờ
joyce
juventus
look
mangan
metropolitan
muscarinic
méxico
nguôi
phung
pít
queensland
table
taco
tanh
umm
wan
wise
đơ
##aya
##bert
##est
##ib
##ika
##ima
##pan
##wice
alberta
allan
andrés
bowl
camelot
chul
chávez
cntt
cpr
cọng
direct
dó
eye
francesco
glen
hebrew
hm
hussein
ieyasu
jude
ke
korea
lucky
malik
matthews
pac
parsons
playoff
registry
rey
simone
spiegel
terumi
triglyceride
ur
##bal
##eta
##ova
##ram
##rum
antigua
bahrain
beatrice
bee
braniewo
cứt
dat
edison
face
fidel
françois
ign
india
ju
jupiter
medina
mills
morphin
number
orwell
pl
quinn
spaghetti
strange
sunday
sur
television
timothy
tong
ultraman
wałcz
xắt
##age
##har
##lar
##nam
##nie
##owice
##ping
##rah
##tis
##zin
##ère
116
2d
atkins
barciany
becky
bourbon
carnitine
date
dell
echr
guillermo
hard
hayes
isabelle
latex
leeds
lp
mei
minor
olsztyński
pharma
quỉ
rv
salmonella
sorbonne
springs
unicef
wide
willy
winter
xvi
đoạ
để
##art
##od
##rie
##tel
##vich
##wan
124
148
acetyl
aid
antony
arena
auto
bính
copa
cr
doo
enix
formosa
ftp
glutamate
goo
gran
hooc
hubert
hẽm
khuy
luca
lọi
mayo
medellín
medici
medlock
mầu
philly
piotr
preston
quây
reina
rex
ruồng
saga
sha
turing
uranium
when
xv
xơi
yorkshire
zhang
##box
##hu
##star
121
134
abigail
activision
afc
baldwin
chechnya
child
czaplinek
driver
fluoride
giuseppe
gút
haiku
kobe
lambert
lana
language
lazarus
mare
metan
mỏm
này
paralympic
perez
phất
picasso
quách
raul
reuleaux
rodrigo
sal
salt
scotch
sec
shop
stop
suông
sw
toruń
ách
##ain
##ap
##bank
##bs
##oo
##ori
##our
##pus
1881
850
academy
allison
assad
beatles
benny
buck
bẹn
chinese
church
classic
crispr
development
dumbledore
egfr
escuela
garage
ghul
hayley
hdl
japanese
joo
lạch
mas
mercy
mễ
ngỡ
nhẽo
niu
nkvd
oliu
opole
poly
prolactin
rolling
screen
share
siri
suv
thorn
tợn
vảng
zack
##del
##gia
##rk
##uta
##zu
##ńska
1879
apps
bello
biêt
bran
brenda
carla
cellulose
euphrates
glass
gnome
hz
hột
jonah
khập
koran
laze
lủng
mbc
meme
metatron
never
nhoi
ohpc
pu
punk
quẹo
ripley
shah
sigismund
sofia
sunfua
trc
versailles
vicente
webster
xenoblade
ắt
##ab
##ics
##ore
##rate
##rit
##una
##uri
##zen
##ên
##ə
1789
5g
alfonso
canal
car
chũi
cieszyn
connie
den
doe
doppler
echo
engine
ferguson
food
glasgow
hell
hình
homer
honda
hợm
indies
joon
kerry
khàn
lina
lẳng
mcqueen
nhen
oregano
paracetamol
pepper
raw
richter
suriname
tòng
ucla
wwe
xãy
xéo
ắp
ẵm
##50
##bach
##isa
##lu
##xin
133
142
2500
a1
algiers
amp
anti
arkansas
banie
basic
bạn
blanca
brendan
century
clan
dante
dht
dropbox
dùng
dể
gun
gunn
hashtag
herbie
hydrocarbon
industries
local
lươn
lợp
marseille
mãng
nhẩm
origami
ounce
quẹt
seal
sheikh
suu
sững
tahiti
technologies
tylenol
tì
uyển
uất
vãng
wasp
xắc
úa
đản
##ama
##back
##các
##dan
##gate
##hara
##las
##nan
##rong
##ssa
##world
##wy
##̃
##̣
##ết
1795
225
after
akira
alec
boruto
change
cherry
cyp
double
eliot
falcon
freddie
giăm
giăng
globulin
himalaya
iwata
khang
kurt
lactam
lú
madonna
nhác
ozone
papa
phào
prentiss
regina
ring
shane
sheffield
tatra
tech
telomere
trớn
tắn
venus
wong
xii
zulu
##hat
##rio
##zepam
##ý
1849
1857
achilles
bieber
buffalo
burke
cad
clear
darhk
falls
felipe
freddy
frodo
ghetto
here
ig
kyi
met
nhú
phenol
place
quyệt
quăn
rain
randall
rpm
scotty
sergio
six
slovak
social
strauss
track
vocaloid
wanda
wehrmacht
xiv
xèo
zone
ây
##bao
##cz
##ert
##ien
##ise
##kai
##nta
##ph
##ring
##tone
##wska
##ơ
ahn
aimé
androgenic
athena
bénin
crawford
creole
durant
ella
fast
folate
form
gilbert
gonadotropin
highlight
jun
khiễng
lasagna
mascara
meo
methylene
nat
ngoạc
p450
pereira
rúc
rầm
sansa
seven
sing
take
tartus
task
temple
thăn
thủy
urê
usda
visual
vén
wadi
wojciech
xức
zara
đỗi
##can
##een
##ein
##ive
##nna
##non
##phát
##ser
##sta
##tto
##zole
1831
2025
act
aleksei
arkham
atletico
away
balkan
barlinek
burn
cap
cas
centimet
cmd
daryl
dora
downloads
ellie
ferrari
fiji
fils
gaul
gogh
guinness
habsburg
hardy
ivy
jeep
jerome
keller
khuây
melanie
metres
moto
mòi
nd
neon
novartis
panh
pilar
pudding
rich
sad
sbs
sharing
shock
sms
soho
starbucks
thor
trek
tành
valle
vaughn
walmart
webcam
wikihow
witwatersrand
zygmunt
##are
##ding
##mark
##yu
126
143
146
1812
1872
atom
beverly
cyril
daniels
dominic
gaming
gustavo
henna
hermann
ico
igf
jessie
kalisz
katrina
krishna
make
melioidosis
nua
philippine
pseudomonas
randolph
rosario
rosen
ráy
storm
sậm
tag
tauri
tài
telecom
today
tower
từ
urdu
vào
xviii
xém
đán
##aki
##ele
##eon
##ett
##lands
##pt
##sinh
##tal
##trên
##war
##́c
alkyl
andorra
banda
bobolice
bongo
bv
bợ
cosenza
cảu
darłowo
delaware
diazepam
emilio
eminem
enki
ez
ferdinand
frusciante
grenada
hiroshima
hodgkin
inhuman
kabul
leopold
mozilla
nash
nazca
nhe
ninurta
nộm
oakland
polyp
połczyn
propionate
rudolf
spider
trigger
trổ
turbo
tòi
veneto
vầng
wickham
wikimedia
wonder
ôxi
##cio
##dra
##dt
##lus
##oli
##phobia
##ông
1854
370
4k
adventure
age
ala
albuquerque
alvin
andrei
ares
bologna
burton
bặm
crassus
dòm
elvis
henderson
hển
iberia
jet
kissinger
kung
living
marvin
proestogen
quick
silvia
teaser
thẫm
tools
tuốt
voyager
vát
yard
yong
yvonne
áy
đuợc
##aa
##ated
##ax
##ette
##idine
##tia
##tos
##uma
##ː
1772
185
aleksander
amina
baudelaire
bingley
build
bợm
cayenne
chùn
cis
cj
colegio
césar
das
design
doyle
emil
essex
freedom
godfrey
gpu
higgs
hiroshige
interleukin
latina
lâng
lổ
lởm
meg
mesa
methicillin
montes
mossad
nhuần
nora
oai
orc
pacquiao
pe
pheromone
pie
polynesia
preview
progestin
return
richmond
rockefeller
rocket
telemundo
westeros
zelda
đọ
##ale
##elli
##ess
##head
##iro
1080
137
145
8000
a2
acidophilus
address
afp
alfa
armando
axetic
bayonetta
bernie
blanco
borosilicate
bấp
check
chấu
copernicus
creatinine
dame
dutch
ethinylestradiol
eyes
factory
font
gif
greek
interpol
jacqueline
janice
lain
law
luigi
lòi
lẩm
masamune
metformin
mùn
naruto
noãn
pinto
positron
proestin
reggie
sejm
sherry
tc
teutonic
thán
tito
trans
valerie
vermont
vogue
wolin
xvii
xó
xóc
yankee
úng
##12
##all
##ao
##dis
##ichi
##itz
##wick
1790
1853
antoine
aw
axetat
beirut
biały
busan
cma
concert
częstochowa
daraa
dawson
denis
elisa
exchange
gaga
greene
hague
hydroquinone
karol
luống
ló
mal
march
masan
mission
mmm
mundo
newman
nowa
náy
obi
pal
paste
pisa
poniatowski
private
rama
read
risc
sh
songs
tinder
trét
wheeler
##book
##hy
##kar
##king
##nic
##ose
##sie
##ven
152
3g
alexandra
ampicillin
ariha
barnard
base
chường
clifford
coke
curaçao
cushing
cạm
did
drawno
geoffrey
gerry
glaxosmithkline
hobbes
hoe
họ
jiménez
kids
kingdom
ll
lothbrok
malagasy
maldives
masurian
mccoy
mick
milo
nucleotide
oort
oswald
pocket
polyester
rené
rod
rudy
rơ
serena
smartphone
sỏ
tehran
tristan
trề
tĩu
vulcan
ziggy
đó
##ali
##ht
##inger
##kowski
##oh
##rol
##tech
##ule
##̀ng
##̣c
##α
##ền
119
132
1700
1856
1859
andrews
bach
barczewo
bayern
beethoven
boyle
café
cannes
capcom
cash
chappie
chính
chội
cộc
dancing
doping
dude
fbl
fighter
h2o
hipster
jasper
kappa
kgb
kielce
krzysztof
lb
lm
ludwig
lviv
lyla
lysine
maps
mà
mina
monoamin
mành
nguệch
pamela
quốc
quỳnh
riemann
siracusa
stifler
sào
tex
thc
trujillo
vê
vụt
xuyến
xược
years
##ep
##ock
##tle
##đại
007
agar
artes
bêlarut
bết
copd
cube
cuả
cydia
cọp
deacon
documents
eez
enlil
fatima
francesca
gale
gavin
giãi
graffiti
granit
hbo
hsv
igor
ishtar
kor
leningrad
linnaeus
lotus
lyon
marino
maroni
metacritic
milimet
mrs
nòi
our
pinochet
planck
poseidon
resident
ridge
sapiens
spam
sport
spotify
tca
triclocarban
upload
wedgwood
đến
##az
##side
##trung
##view
##ée
##ò
##động
##̀n
147
1836
1855
2022
bb
bjorn
bmw
boom
calderón
christensen
commodore
como
dakar
dee
dmitry
dns
drazen
dsm
ducati
elliott
epsilon
fall
feng
flying
fraser
gaia
grove
harlem
ira
jared
js
laurie
lipoprotein
loá
lét
mint
nad
nfl
novell
nức
pgc
shot
silent
snart
sook
swat
synap
sắn
tanya
tetracycline
thuôn
tns
toé
vịn
window
đên
##11
##ag
##ball
##ensis
##giải
##hr
##ins
##ization
##lone
##rel
##yeh
162
airways
anglo
arập
benson
diggle
diphenhydramine
drama
dông
emi
emmett
eso
europe
got
herald
họa
hổi
inés
jasmine
je
khom
lawson
leah
lex
lạng
mackenzie
madame
malick
memphis
mnet
pcr
phosphoryl
piast
polly
praha
rainbow
reprap
rúp
safe
semit
spanish
suzanne
synthase
teri
thong
thóp
trĩ
tuco
uribe
vun
woody
##dos
##esh
##gue
##mel
##rer
157
ae
atwood
bogota
bot
bện
bọng
casablanca
castiel
courtney
cựa
dế
ex
fed
fn
giội
have
hotel
hóng
indian
judo
kendrick
llc
mad
manser
markov
mili
molina
nara
olaf
paso
pepe
pikachu
postomino
remix
rt
scooby
silic
somali
ssri
streptococcus
szczecinecki
ukiyo
vale
vênh
warta
xệ
ủy
##ans
##eus
##fs
##gn
##ile
##ków
##lee
##nal
##oi
##ôn
138
153
1807
1847
325
adelaide
adriana
alvarez
basque
bierzwnik
bim
blockchain
bolivar
born
botox
cafein
calypso
cicero
commons
cop
cutter
cáng
dwight
dxe
dái
ema
frost
gala
giò
gretchen
host
ifn
kegel
luc
mae
magma
marcos
mari
natalia
ngời
nigel
noir
nucleoside
ocean
ortega
other
penelope
pit
plata
ppm
raúl
retro
ribosome
rourke
salem
sergei
steins
stephanie
weaver
yuki
zurich
ángel
đựoc
##aro
##ben
##caine
##ere
##if
##nne
##oa
##oy
##tein
##zar
136
141
199
alba
arabic
barbie
beautiful
bianca
borne
brandon
brother
bấc
circle
ctu
dakota
della
dỗi
dụm
enkidu
fair
gả
gẫy
hara
harvest
henryk
hilton
hoover
hám
ida
inca
justine
kyrgyzstan
lh
lindsey
loki
magnus
massage
melanin
mickiewicz
mội
ngáng
official
oricon
ovi
pentium
peñarol
phang
pisz
polo
polymerase
porto
princess
rider
row
she
sister
sportive
style
tanaka
terrence
thòng
típ
uber
utility
vancomycin
yusuf
zakopane
đung
##ade
##cal
##cher
##mg
##mp
##tha
##ther
##viridae
##về
##zyn
##ù
1833
1841
ahmad
aldosterone
alfredo
allosteric
beskids
bio
board
cartagena
cui
cuội
devices
dextromethorphan
dolby
flora
georg
ghz
golbez
gảy
habana
hare
hecta
kashmir
lesotho
linkedin
lives
martins
money
monster
move
mân
mọn
nghĩnh
nolan
papua
piłsudski
prasterone
proctor
prostaglandin
punjab
qr
quệ
rahl
raven
ryu
self
senkaku
shawn
steam
tel
thuý
tiger
trờ
tuếch
tưa
tấc
version
vision
xúp
álvarez
##berry
##fish
##gy
##hn
##lic
##mate
##nto
##sko
##tre
##works
##ws
##yer
10000
1784
1832
310
abdullah
analog
angelo
beyond
blanc
brock
cage
celeste
christmas
citric
constantinople
discovery
enanthate
feed
fluoroquinolone
fsh
fukushima
galavan
giựt
glycolic
hỉ
ich
institute
jam
jensen
joaquin
jp
kaiser
kato
kavkaz
kde
khirbet
khêu
killer
kings
kitchen
laurent
lenny
lizzie
lock
lwów
midnight
mênh
mợ
ngải
ngốn
notepad
nầy
oprah
paint
pavel
pg
pheebs
plank
polska
progestogen
radwańska
ramón
ras
romagna
ronaldo
seung
sneaker
trailer
táp
virút
where
whey
xiii
xoè
éo
óng
động
##20
##cker
##ial
##sch
##ấy
1794
1818
258
amylase
avenue
bart
batiatus
bohemian
bolt
bromide
butch
bór
caramel
cheryl
chòi
chận
clarence
cobb
cream
d2
debs
devil
edwin
estriol
gardner
gestapo
gg
giương
griffin
guam
gột
hiroshi
hoc
hokkaido
hull
hờn
interactive
irs
kobayashi
lecce
lightning
mauritania
messier
methamphetamine
minneapolis
mira
muñoz
napoléon
nine
ny
phủi
pinkman
polonia
pylori
raphael
recovery
second
small
stacy
sudo
sám
uae
ui
walsh
warhammer
watanabe
westminster
wired
wto
##aw
##bit
##bot
##das
##eck
##jan
##kes
##lly
##mas
##new
##nza
##windows
1400
1797
1837
addis
aida
airpods
animation
armalite
av
barrett
brennan
brent
báp
bềnh
celtic
chrono
cool
crazy
crom
cs
cảo
dias
din
druze
elaine
fgm
fork
garrett
gecko
gustav
h2
hess
hg
his
idaho
information
jade
logarit
lúc
moira
monolith
mph
mói
nagoya
nebraska
networks
parra
peso
pollock
rích
sanofi
singles
stadium
słupsk
tulu
vnđ
véo
whitehall
xxx
##ello
##gel
##gon
##ison
##lio
##lor
##shire
##ston
##́i
1842
201
américa
bập
canary
case
champion
chin
chủ
cliff
cortisone
dicaprio
eleanor
garner
gladys
hart
homestead
hí
info
jonas
kant
khế
kitts
kościuszko
leila
levant
majoris
mianma
micah
michał
michelin
mir
mirror
neanderthal
nin
oasinhtơn
origin
palace
peggy
pompeo
ponce
raj
salazar
sandomierz
season
sergey
seti
silicat
speed
station
trườn
via
vingroup
waller
xerox
yoruba
##able
##dad
##khi
##ovich
##pol
##té
##uda
##use
##val
##ward
##̀i
##́ng
##ốt
100m
131
151
1806
215
420
abdul
baptist
beatriz
benzen
benzyl
będzino
cochrane
constantine
crossing
darius
edmund
farrell
friend
fuller
gallo
gaza
gr
haley
hammond
hanna
hasan
hobbit
hulk
huntington
hớt
ib
isa
judoka
kbs
kernel
ketone
lancelot
leann
leipzig
lsd
memory
morrison
ngoáy
ocpd
ole
oliveira
pasha
patterson
pd
quito
rhett
rặn
ser
shi
sorbitol
tate
titus
toro
triễn
tt
tuyền
tằm
vr
wal
yankees
yokohama
##15
##ado
##bị
##fu
##hay
##ias
##lock
##out
##tro
##tsu
##tv
##ual
##ular
##ówka
##ật
1300
173
1828
1839
alexandre
archer
atropine
audrey
bị
boov
borgia
camila
charleston
continue
conure
court
dewey
dhea
donovan
dũa
eden
emblem
est
fsb
giằng
gruzia
gở
hiện
hs
hỉnh
hớp
ide
ivar
job
jody
justice
jw
khong
kilomet
kutner
loang
loáng
lọng
małe
million
modern
mother
mrna
nanda
nhối
novel
nạng
oblast
ophiuchi
ottawa
parabol
peace
peck
peeta
peters
phillip
photphat
płoty
rai
rhode
rochester
roux
sb
scylla
seok
shaykh
stasi
stem
stevie
sulfuric
sumatra
thousand
toy
tươm
yamato
yorker
zor
##ato
##bah
##công
##ew
##feld
##hill
##ides
##ml
##mà
##ole
##ome
##ons
##owicz
##skie
##tat
##ça
##ña
156
158
1776
1843
340
7000
advil
anders
angelina
aryan
atlus
augusto
beat
beauty
bel
beng
bn
candida
cheng
chlorine
darren
dash
diên
dầy
figc
fine
freeman
front
geographic
ghiếc
hormon
hách
inches
ipa
jakarta
lena
lila
lt
lảm
map
marduk
marianne
martín
neptune
ngấu
nhà
nhoà
nhuệ
ofc
option
oxalat
piedmont
pieniny
rangers
retrovirus
rh
rm
robb
rusty
saddam
sforza
skeeter
snowden
swing
thãi
tyrell
tùy
valdés
vicky
vụ
vắn
werner
xửa
##iński
##tive
##won
##ë
1787
1792
1844
212
380
950
ababa
active
albums
andreas
aram
blair
brexit
bryce
cabaret
canyon
carbamate
carolyn
castillo
catheter
chaos
cheese
cincinnati
citrate
coa
cognac
comedy
connect
dexter
dominik
dąbrowa
education
emerson
euler
imipramine
kham
khrushchev
kwazulu
ky
lars
lia
loè
mah
maker
meyer
michelangelo
mime
mind
motorola
mẫm
nations
nê
o2
orexin
platform
purine
saturday
sdf
sinclair
smithsonian
società
talbot
tại
terza
thomson
torre
tres
tutsi
tuốc
uvb
wilkes
wozniak
zeta
##dong
##ery
##gu
##lie
##mus
##oni
##osis
##pine
##ret
##ril
##roy
##đầu
##ấn
149
177
1813
abbas
adalbert
af
alen
allow
arginine
atlantis
bermuda
borg
but
cacao
catalan
cecile
coban
danube
deb
dexamethasone
djibouti
epic
epstein
escherichia
fitzgerald
gambia
ge
germain
gh
ghita
guide
guido
harem
hasakah
havard
heidi
helsinki
herman
imessage
janus
khạc
lez
linc
lyme
lải
made
magdalena
masovian
meredith
minsk
nhằng
nippon
nortestosterone
oanh
pharmaceuticals
phẩu
pim
piston
producer
prozac
psp
pt
ramsey
room
rousseau
rubin
scn
seri
setup
slime
source
sparrow
ssd
stent
sumo
tatar
tb
tree
tyrion
use
vicenza
volta
vởi
warwick
was
wimbledon
xylazine
##ach
##bat
##bes
##bis
##chen
##ful
##nus
##rc
##thành
##vel
##zan
##ài
##át
##ès
##ū
172
1785
1814
1816
1846
512
acetone
allende
alonso
aria
b2
baton
bịu
calamine
capsaicin
carrillo
christie
cocain
collection
crete
crimea
defense
disco
display
dề
gaston
ghềnh
goldman
gov
gutiérrez
gàn
hammett
hellman
hoffmann
hoocmon
hyaluronic
hydrogen
hão
jojoba
jura
khương
làm
lit
lèo
lẹo
methotrexate
mile
mitsubishi
monterey
mujer
mòng
nsclc
ortiz
oxide
phới
profile
psa
reader
resko
romani
sat
sls
srl
storage
sucre
susana
suwayda
sạm
sọt
trenbolone
trĩu
ultimate
warmian
watts
wielki
xốt
zalewo
zen
##21
##af
##fo
##ges
##heim
##hen
##hua
##kawa
##làm
##nate
##wat
##yna
##én
##ố
164
1750
1770
1808
1824
206
401
amaral
associated
bat
biotin
blizzard
burns
caribê
cold
comics
crow
csa
daniela
desmond
dunajec
financial
fritz
gcpd
goodman
ground
guzmán
heroes
hòi
ignacy
irina
irving
jamal
janine
jpeg
kanji
kiếng
kolonia
kramer
lactobacillus
leicester
margo
marilyn
mass
mazowiecki
middle
monty
musk
nassau
ngọ
nhk
nikon
nớt
odessa
odin
organ
pak
panetta
peach
quad
rights
rory
rwandan
salar
sheeran
size
skynet
southern
sql
sulinowo
suse
targaryen
thưc
tomé
triền
turn
uva
verizon
viña
xavier
xấc
##bra
##die
##dorf
##eda
##fy
##ght
##hiko
##hito
##ila
##ington
##key
##nka
##rch
##row
##thế
##đi
##đến
1821
1825
1852
apoptosis
baratheon
berry
boo
booth
bordeaux
britney
bèn
cadherin
carpathian
choice
clare
claremont
communications
default
dolly
erica
fernanda
gabe
gallery
geller
girone
glycoside
goodwin
hawkins
hcl
horton
karpov
kathleen
kimberly
kirby
lại
lowe
mann
mays
musa
myelin
mịt
nero
ngông
ngạnh
nhải
nic
nichols
nomad
northumberland
novo
nyssa
olympus
part
partners
phải
piacenza
plc
premio
quẩy
quắt
rebound
revolution
rollo
romney
rỏ
smash
sputnik
stream
suresh
thiazide
timor
volkssturm
vông
webos
willie
woods
xạo
yokosuka
ładoś
##burn
##ceae
##dc
##dium
##gawa
##ido
##illa
##logy
##mura
##ning
##ois
##oka
##ridge
##sai
##sau
##sson
##uki
##work
##yon
##ư
##ại
##ốn
154
1793
again
ain
alejandra
alibaba
alien
andrade
astrazeneca
belgrade
biden
bielsko
bihar
bissau
brandt
búng
carver
centro
compton
creative
curie
cấn
department
doha
eh
ein
elite
erythromycin
flemish
fleury
gandalf
garvey
gba
gelatin
getty
guốc
halley
hastings
havel
ike
jai
josef
kat
lama
learning
lie
limo
livingston
location
madeline
malechowo
mayer
methadone
montenegro
mỹ
navarro
ne
newark
nhoè
nhụt
nvidia
pms
pseudomallei
publishing
quĩ
rosenberg
sharaku
silica
sioux
spitzer
streaming
sub
summers
sứt
televisión
thames
thẩn
too
tool
vanuatu
venezia
verona
vmware
wagner
wake
xyanua
định
đượck
##bc
##car
##cl
##eau
##ence
##gal
##idae
##ios
##ique
##ller
##mont
##onia
##ray
##ré
##wicz
##zki
##ả
##ễ
##ọc
176
1791
1829
amyloid
arsenal
bedouin
bmr
bombay
bullock
carly
carnival
citrus
coleman
contacts
cygni
director
document
downloader
dp
dunlop
dậm
dụt
editor
emoji
esperanto
federico
foods
gambit
gees
guerra
hamlet
hansen
hanson
harmon
has
hermione
holt
honolulu
hook
inuit
khartoum
kigali
kiệu
kun
large
lubomirski
lyle
match
merkel
muffin
nagasaki
nation
nhắt
nottingham
oi
olympique
perfect
permethrin
persona
philips
php
pratt
qur
redwood
saussure
schultz
scientology
shetland
shh
soto
soweto
stara
streltsov
sync
syndicate
tau
temazepam
terracotta
thành
toby
tomas
trum
tucker
vélez
wireless
xenu
zbigniew
álvaro
đỉa
đựơc
ải
##baum
##bol
##cam
##dae
##dd
##ej
##elo
##eng
##gram
##nis
##og
##ub
##yne
##đang
139
166
1a
222
275
430
460
ara
arc
biff
birch
bonsai
boyd
buy
bỉm
casino
cersei
clostridium
concepción
craigslist
crôm
cõng
decanoate
ebla
economist
farc
fogg
forster
francisca
friedman
gazprom
hawk
horus
huffington
húc
indus
jedi
josefa
kasparov
kętrzyński
leigh
mahmoud
mast
maul
mix
miết
mycroft
mắm
newsom
nghêu
nhừ
npy
nypd
palo
pixar
porsche
redmi
ríos
said
selina
september
shōnen
swan
symbian
sậy
taekwondo
tk
tron
trợ
uc
vuột
willis
ápganixtan
##bridge
##day
##dle
##gin
##ista
##lina
##liên
##mie
##nde
##nov
##nowo
##ord
##rian
##rina
##rp
##xi
##xy
##és
##ăm
##ăng
##́n
##̉i
##ừ
163
1819
1851
262
amateur
archie
bab
babylonia
basil
brain
calais
candice
choạng
chởm
clement
cogburn
cora
cos
cói
denny
donut
dota
duran
dền
factor
films
fina
flavonoid
gabby
gờm
hana
hermes
hilda
horizon
inter
issa
jaguar
jazeera
kh
lancaster
lennon
lil
lorentz
líp
lùm
maszewo
miasto
monitor
mubarak
nebuchadnezzar
nhè
nhếch
nilông
ol
paige
pauline
payne
phenytoin
retin
rĩ
sambo
sarang
schwartz
serrano
sparc
spetsnaz
sporting
sundance
suỵt
think
tyson
ufo
umbrella
ursula
ustka
vasily
vidal
wind
writer
yoshida
đát
##anh
##ean
##kie
##như
##ugh
##zon
##ột
167
1822
2ds
440
520
999
aleksandr
almeida
alves
aruba
assam
atisô
benadryl
bope
briggs
buffett
byron
calle
caltech
capua
cassini
cách
cf
client
crane
credit
daddy
db
deborah
dấm
eagle
estrada
eta
fab
franciszek
funk
gear
georgy
gw
harding
hauran
help
hiit
hóm
hễ
insead
jeon
jiro
keynes
ln
lucifer
milk
mons
moss
most
nitro
nollywood
oval
pas
paulina
phantom
photpho
phụ
phé
pulitzer
ramírez
republic
sacramento
sardinia
satoru
schneider
sinjar
sirius
sitcom
slavic
soma
somerset
stamper
sulfonamid
tampa
tank
tm
tèo
têm
ucraina
virtus
vita
walk
warcraft
waters
wellington
##40
##ern
##gas
##ites
##mbo
##nen
##niki
##oro
##phim
##shin
##tum
##ves
##è
193
1h
214
233
410
720
abdel
anatolia
another
aviv
belial
bobbi
bollywood
brien
bromelain
building
bưng
cadillac
carlisle
catania
cụp
davidson
ddt
floki
gap
generation
gpa
gỏng
hancock
harley
hcg
huang
imei
indie
jakub
jelly
kabuki
kensington
klingon
kramnik
kuiper
lindsay
lucius
madeleine
matilde
medusa
mellon
mercer
mercia
message
miligam
miniseries
mirakuru
mortal
nathaniel
ncaa
ngăm
ngố
nhuốm
nmda
oman
ostrów
otc
pack
pbs
perú
popsocket
pvc
quinolone
rajasthan
romano
rouen
ròi
sabc
sakharov
servo
shannon
simba
southampton
spears
streptomyces
sà
there
thõng
thắm
tucson
tâu
universe
want
winnie
yum
zona
zuckerberg
école
##awa
##fen
##get
##hl
##late
##moto
##olo
##pc
##tek
##umi
##und
##êu
##ần
##ận
##ắc
##ệ
1799
abidjan
aeruginosa
ama
amiga
angus
aroma
asa
bam
baptiste
beria
carbamazepine
cns
coffee
compact
debian
devon
dobra
doctor
done
dorado
duty
faith
fdm
franck
gauteng
genoa
gibbs
glades
gould
greenwich
gypsy
hezbollah
hên
imperial
ixraen
kamen
khuân
koi
latino
lexington
linus
lois
medvedev
melinda
miso
morton
mujeres
mĩm
nct
newcastle
nổitiếng
original
ost
oʊ
pay
phuơng
phét
premiere
premium
quày
rayleigh
rs
russ
rú
sdk
sparta
speer
stanton
stellenbosch
sul
sulu
tạnh
unity
univision
vandal
vlad
đanh
ổi
##32
##ania
##bird
##bre
##dai
##ef
##eri
##eva
##form
##gg
##iko
##mic
##nn
##nol
##oon
##orn
##pia
##rex
##sar
##sse
##sville
##ụ
001
1788
179
1817
1827
202
208
216
290
375
aang
abs
alliance
aɪ
basel
break
brochure
burt
button
butyl
buzz
bựa
cabrera
categoria
cesena
chavez
cheddar
chong
chài
chát
cnc
cookies
cry
culture
cyberpunk
drc
dre
eggsy
ethel
eugenia
expo
eɪ
familia
galactose
giles
giộp
gorilla
granada
graves
gui
hemingway
heywood
hoon
huawei
hydrocodone
héc
icon
jd
johannes
khóm
khư
kiss
liguria
lyndon
lã
marian
martinique
medicare
meghan
mieszko
monoxide
montazeri
mp4
natsume
nueva
nui
onna
phentermine
qualcomm
quặp
ranger
rc
rus
rôm
rọc
sabah
serge
sg
shark
shepard
shiva
shōen
sienna
squat
stereo
sunny
tobias
toét
triple
tryptophan
tulsa
ural
winstone
wizard
worthington
yates
yeon
yun
##22
##anga
##iana
##iva
##lay
##lian
##max
##osa
##phân
##qa
##rone
##sburg
##sc
##uka
##ène
##β
184
204
288
333
acoustic
adler
admin
aha
aki
archimedes
barbarossa
barrow
bates
bernadette
bert
bolívar
bridget
cara
champagne
clindamycin
colonel
corazón
cortex
csf
dar
davies
dilettanti
dow
dpp
dù
dăm
engineering
espn
fashion
ferreira
foucault
fran
gal
gateway
gồng
hartley
hidro
holland
hích
iceman
jacobs
kannada
kelvin
kheo
khứa
kyushu
lech
lidocaine
lion
lithuania
lunar
lể
macdonald
marjorie
matthias
mbit
mcclane
moriarty
mátxcơva
newsweek
ngãi
nhũn
nl
nán
oak
openoffice
paramount
philharmonic
pol
privacy
prize
program
prometheus
puszcza
pwm
reno
rivers
royce
rw
rái
sachs
sake
sap
sapphire
saunders
scully
sianów
sobieski
stick
sufi
sussex
sv
transvaal
truth
tuồn
twice
und
underground
updates
usc
vladivostok
volga
whole
winfrey
yellow
yiddish
yves
điôxít
đềm
##18
##elle
##hệ
##iri
##kon
##lah
##mos
##pal
##rick
##rra
##sei
##tica
##vis
##water
##wu
##yce
##zzi
##ã
##ło
##ứ
1810
470
abiraterone
abruzzo
acyl
alcohol
anonymous
antwerp
aquino
artemis
asahi
asian
avengers
bacitracin
bean
bellamy
bloom
borneo
boulogne
braniewski
bunny
cardiff
care
cesare
chance
cornwall
cyborg
danzig
database
dimitri
downey
enzim
ethylene
feynman
fivb
francophonie
gill
ginger
giorgio
gladwell
gru
guồng
haven
heaven
helga
higgins
horse
hotchner
infliximab
iława
jacek
jagiellonia
jakob
javier
jennings
july
keep
kuala
laila
latte
lc
lmwh
loát
market
marks
mildred
montero
mooney
muirfield
nghành
olympia
olympics
peroxit
phốtpho
playoffs
potenza
quincy
quẫn
ramsay
rca
rokicki
romanov
schering
sein
selkie
shrek
synge
sắng
tamagotchi
theon
tribune
triton
trojan
tura
ulica
ursae
vesta
vocal
volume
vôn
windsor
wolfgang
works
x2
x86
đầu
##aba
##air
##ance
##bắt
##card
##floxacin
##gun
##hwa
##icz
##iga
##iz
##light
##lit
##low
##ndo
##nko
##sho
##sm
##²
##ºc
##ôi
##ł
##ổ
203
404
a4
aguirre
als
amip
apulia
artist
ava
aztec
bacon
belinda
bernardo
bilirubin
boer
bones
bragg
brom
brooke
bye
cassette
cd4
cracow
darfur
diop
domino
donkey
dončić
eclipse
eliza
energy
espresso
farmer
firmware
framework
gaius
gerard
giúp
glycol
goldberg
goliath
gonzalo
gp
guiana
hammer
hanga
hedgehog
hernandez
horn
hotmail
hẹ
hộc
ige
jfk
jh
jonker
kimono
lead
louisa
lới
marine
marlene
matejko
mckinley
megapixel
megawatt
milwaukee
mogadishu
mầy
nariko
nhận
niacin
nicotinic
nuestra
oro
pancake
peg
petit
petroleum
peugeot
picard
qđtq
rabbit
race
raquel
razer
reg
rotterdam
rupee
seymour
solid
sora
souq
spike
sterling
stevenson
stronti
stu
sully
tcp
thunder
tiếu
tiều
trick
tuck
tywin
tịt
urban
weibo
wing
yaz
yen
yg
zika
đơm
##17
##born
##chu
##ech
##ewicz
##fc
##kha
##life
##media
##ming
##ory
##ota
##pen
##sas
##sẽ
##time
##urs
##uru
##yang
##êt
##ة
##ấp
##ế
##ến
##ữ
161
1786
1809
1811
182
194
198
205
211
386
4g
737
aaa
abba
acres
addo
alawite
albany
alexa
alternative
amiđan
auckland
aziz
beaumont
beos
bertrand
braga
brisbane
bệt
caleb
canon
ceti
chẩm
claudette
clicker
common
concacaf
corset
cườm
dae
dapoxetine
darpa
donnelly
duarte
dóc
emile
enceladus
endorphins
folder
forever
freya
fry
galloway
giuliani
glucuronide
glycerin
gum
hcv
henrietta
hockey
hopper
hubbard
imam
ives
kamenev
kaplan
kenji
kimmel
kombat
kurgan
lenalidomide
liza
louie
mcg
md
messages
mêtan
mơn
nhông
nk
nord
northern
ogg
oxalate
paola
pasteur
patel
pcos
peabody
phát
piski
platinum
pp
rabat
reuben
rufus
río
rông
sarcoma
sawyer
scandal
sẽ
siena
sla
soundtrack
stargardzki
steel
stern
suns
superior
support
sẳn
taskbar
tatiana
tessa
theodora
tonight
topoisomerase
total
trịch
tánh
usaid
uther
vđv
whg
xía
yuan
zion
##berger
##bie
##brook
##chỉ
##cùng
##ema
##eu
##hor
##ime
##rek
##stone
##thực
##type
##ute
##vie
##vy
##ác
##âm
##đ
##̣n
##ẻ
##ời
169
186
2100
245
24h
abaddon
acai
ang
arango
avery
bellas
bender
benz
bettie
bloody
burj
caldwell
callahan
canxit
cell
centre
challenge
chloral
chloroquine
chỉa
claudio
coc
connection
crawfurd
curry
damian
davos
delson
dh
dino
docs
elam
eredivisie
estrone
ete
event
felicia
foreign
frey
frosinone
genova
gimp
hahn
hampton
harmony
hàng
heisenberg
helene
hogwarts
horace
humphrey
hutu
hydrochlorothiazide
hống
hững
iss
janssen
jenna
jeonya
joanne
johan
keen
keita
kofi
kwon
lockwood
mach
mahardah
marcela
maureen
mcafee
mích
nakayama
nazareth
neem
netbeans
nevis
nhùi
nhột
norma
oskar
paradise
patrice
plan
r2
rambo
renly
rouge
rune
salamanca
sandinista
sant
shu
spirit
stokes
summit
sàm
sá
sến
tal
tall
tce
thrones
thường
toc
turks
twin
txt
unicode
viper
voldemort
wei
wielkie
worldwide
áng
đăm
##cka
##hiro
##iv
##khác
##nger
##nova
##quin
##rg
##rman
##sian
##sz
##sử
##uga
##yev
##š
##ồi
1780
1783
187
223
390
630
6h
6s
aidan
airbus
aj
aladdin
alain
b1
bath
batista
bentley
bison
bowman
briarcliff
bèo
carroll
chớm
css
cv
debut
dm
drm
eddy
eyre
fear
fring
fusco
geo
gibbons
giulianova
gk
grimm
gujarat
hannibal
harlan
healy
hipparcos
học
hyaluronan
imac
imap
iucn
jemma
jenner
jeong
joanna
kansai
keyboard
khanh
kill
kinshasa
kuyavian
kyū
lamb
liechtenstein
lockhart
lucille
lycée
lyra
macmillan
mall
mansi
martina
mavericks
minoxidil
miyagi
miyamoto
modena
motrin
mím
naga
ngoảnh
nitrate
nucleic
occitan
oxycodone
parma
png
pod
policy
pre
pải
quyền
rasputin
rawlings
rooster
rp
rymań
saxophone
sheets
sims
snake
soon
startup
status
suzuki
tatras
tiberius
toledo
tomasz
torah
trap
travers
truyển
tủi
ultimaker
vasa
vể
walters
webber
wine
zte
đẽo
ưỡn
##eli
##gne
##hana
##hof
##hoff
##iki
##link
##mc
##met
##mycin
##ngo
##nikov
##nk
##nm
##owitz
##pop
##pper
##red
##sang
##ses
##sley
##tics
##uch
##umab
##zyński
##ét
##ứng
1100
1774
178
1804
183
213
227
235
286
4h
ajax
alessandro
apc
arn
ass
az
bafta
baku
bern
better
bow
breslau
caracol
carbohydrates
ci
cody
comoros
connell
cứa
d3
dei
deutsche
dijon
dominique
eater
ehg
elon
faye
flanders
félix
gaines
galapagos
gamepad
heat
heathcliff
himmler
icd
images
indianapolis
infinity
janusz
jarabulus
johanna
joker
jonny
keratin
kool
kt
kubo
ling
lupe
léon
lênh
lằng
lởn
mahatma
maia
mantle
micromet
mimi
minutes
morgana
murillo
nasdaq
naz
nda
netscape
neumann
nhiều
nhớp
niềng
nkrumah
normandy
noticias
nsw
obez
ortho
pages
pei
phỉnh
piero
ppi
proteus
rj
rogue
rosiglitazone
rostec
rotten
samara
seasons
senior
shulk
soc
soy
squibb
step
sunitinib
tales
thayer
toe
toni
trappist
tsh
tăn
unit
verne
vertigo
violeta
vói
vại
waterloo
wechat
wichita
wil
xoã
xxi
xôn
ðó
μg
μm
ắng
##64
##ack
##aire
##ami
##bang
##bee
##bởi
##ces
##db
##eb
##ić
##kel
##kiewicz
##master
##mes
##mir
##olone
##ott
##polis
##rix
##sing
##tai
##ture
##ult
##ury
##zel
##®
##ą
##ếu
##ện
##ối
##ồ
1845
229
2a
387
3h
747
amide
anastasia
aqi
arturo
austen
aventis
aws
bactria
balo
brewster
bt
burma
católica
cb
chaplin
choose
chỉn
clive
constance
cortez
cut
dd
dillon
dlamini
dụi
eiffel
ezra
feel
foggia
fowler
frontier
gantz
gerd
glutamin
hallie
hitchcock
hk
hydrate
hẵng
independent
isbn
kern
ketoconazole
kilo
krzęcin
kylie
lampung
lauda
levodopa
libby
louvre
lucrezia
mata
mckenna
mesopotamia
michaels
microfiber
miya
mmhg
molotov
mono
monthly
moody
muriel
méndez
mũm
nantes
neal
nikolay
npr
ntfs
nước
nựng
octavia
osama
pantheon
pearson
petra
pietro
pneumoniae
pool
proust
psi
quặt
reddington
remove
restart
rhodesia
rising
selena
shigella
slim
solar
sousa
spartan
spot
sả
target
tasmania
they
through
thât
tonic
trail
transfer
tserkva
tuczno
tuơng
uscis
vasopressin
vút
weatherstaff
wessex
wgsn
xiaomi
xép
ôzôn
đĩ
ẻo
##13
##aza
##boy
##diol
##evich
##hai
##hon
##hs
##icki
##ists
##lk
##lm
##lyn
##oku
##ote
##pers
##pro
##rid
##ters
##tex
##zewo
##zna
##âu
##ăn
##ć
##ĩ
##ı
##ły
##ơng
##ễn
159
1775
242
305
331
680
7h
abbey
administrator
aguilar
alk
amos
antoni
ashanti
avg
babbage
bacillus
bae
barber
barbuda
barranquilla
bash
brave
brookings
bucharest
buckingham
bêu
caicos
caine
calabria
cbc
chandra
chievo
chãi
chông
cid
close
consuelo
content
cosette
django
dot
doxycycline
drago
dwayne
eileen
ericsson
fabio
fields
gaulle
generic
give
goi
hesse
hogan
hyde
hơp
hợp
inside
into
irish
josefina
juliana
justinian
kasuga
ks
kw
leland
libre
lipoic
lovecraft
lán
macau
malley
mara
marvelous
matias
mdma
michele
monet
mpeg
muller
nas
ngàng
nhể
norfloxacin
norfolk
nỡ
obe
perth
phẩn
prednisone
pv
raccoon
reactos
rodney
ronan
sands
sato
scheele
schrader
sebastián
sejong
sinai
sloan
sorrento
stacey
stalingrad
strong
suk
sulfide
suzy
sử
tachibana
tahrir
tencent
thúi
utu
vim
viola
vocals
vạ
vởn
wanna
wes
whistler
wilde
wire
ye
złocieniec
đh
đò
##16
##67
##bing
##cci
##cer
##core
##gie
##ging
##l2
##lav
##lf
##llin
##mal
##nas
##nhà
##ort
##pad
##rf
##rini
##sao
##sberg
##ste
##stic
##sun
##sus
##tions
##tron
##uba
##ug
##uto
##vn
##ít
##̣t
##ος
1801
1823
188
1m
243
265
273
298
32x
9h
acosta
aldo
alkaloid
allylestrenol
andromedae
anguilla
apa
ashton
atacama
atcu
atlético
baba
barker
benin
billie
cassie
cavese
cern
chamberlain
chình
codein
conor
cornelius
cosmo
czech
cở
davina
dirk
disneyland
dothraki
easy
eduard
epoxy
fiat
fly
francine
franny
gdynia
gertrude
goethe
gsk
him
hirsch
hold
hole
hyperbol
hủi
igbo
input
irwin
ià
jeb
kazakh
keck
kuni
lacosamide
lodge
lol
loẹt
ls
lucian
lucía
lulu
lum
mag
marv
maslennikov
medical
mensa
metroid
mev
mlb
mohammad
morra
morse
msm
mughal
negro
ngói
nhép
nhẹt
notre
ná
núng
olsen
oà
packard
pagan
parc
performance
phenethylamine
phenibut
phenyl
pius
polisportiva
produce
quạnh
restore
ritonavir
riverside
roe
rosetta
rostov
running
rât
shantae
simón
sti
stories
stratasys
susie
theseus
trent
trip
trịa
vd
winters
wta
xander
xanthine
điều
đười
ươi
α2
##base
##bằng
##bộ
##cine
##dah
##dal
##hia
##ical
##illo
##iu
##ión
##kim
##lc
##lde
##ob
##pd
##ped
##pes
##ride
##rium
##rski
##suke
##trở
##une
##uz
##àn
##ān
##đa
##ệt
##ốc
##ン
1596
171
174
1796
195
224
255
2600
312
315
agnieszka
amen
andean
antioch
archive
arietis
army
atta
aya
backup
bantu
berber
bey
bicarbonate
bingham
bpd
brazzaville
brescia
camille
canvas
cctv
cephalexin
chili
chojna
chowder
chromecast
chỏ
codeine
colligiana
colt
council
cạy
dade
dickens
dickinson
dihydrotestosterone
diy
diễn
dopaminergic
dyson
ecbert
ecn
emperor
eugenio
ev
far
fas
flor
garfield
gettysburg
greyjoy
gupta
hành
hulu
huênh
jeju
kart
kierkegaard
kursk
lafayette
lagertha
left
levy
lorna
loạng
lumpur
láu
maharashtra
maui
ming
module
monome
monoxit
murdock
márquez
müller
mảy
ncov
nec
nhâm
novgorod
oa
oldman
oxyase
oyo
pb
peano
pełczyce
phần
pilates
pinterest
podhale
portable
printer
protocol
punch
radowo
rakuten
raloxifene
rapa
resort
revival
ridley
rifampicin
rise
rolls
rubio
rết
salaam
sanger
sanh
sanok
saw
selene
shelly
sikh
smolensk
snapdragon
sonya
sunda
synthetase
sławoborze
sỉn
tap
tart
taub
tejada
thirteen
thím
thụy
tomatoes
tomorrow
toussaint
trập
twain
tychowo
tỳ
uma
uppsala
uttar
value
volkswagen
vếu
xóa
yosemite
zapata
zidane
ùn
α1
ếm
ờm
##3d
##asa
##dam
##dh
##enko
##gos
##gus
##inus
##ions
##ious
##iso
##jima
##mah
##nium
##nu
##ond
##oxin
##pic
##ries
##rov
##rō
##ssi
##tner
##ude
##uke
##uno
##ving
##yuki
##zia
##â
##õ
##đó
##độ
##ي
##ử
1655
238
266
2h
40307
4s
590
accutane
alessandria
alsace
always
amit
andersen
androstanolone
aosta
aromatase
asgard
b6
barrios
based
bashir
beskid
borland
cabello
cache
campos
carotene
cents
charge
chernobyl
chằn
chực
ciudad
cologne
colombo
contactor
coo
csi
dam
decker
domperidone
dresden
dupont
f1
fever
fiumicino
flickr
flight
fonseca
fuego
fury
fusion
garageband
gdańska
genji
giant
gilda
giắc
glp
greatest
h1
harcourt
heian
heinz
hokuto
imgur
installer
ipo
kahn
kaito
keys
kv
layout
license
liliana
loeb
lyapunov
magdeburg
managua
mariam
mavis
memes
mgm
minas
monkey
morskie
mun
mvp
mónica
música
mướt
nascimento
nc
neosporin
neruda
neuropeptide
ngoai
núñez
oxydase
path
pegasus
pethidine
production
przybiernów
pytago
quại
rating
reza
ribbon
ric
ritchie
schrödinger
setsuko
shaggy
shiba
site
spacex
sprite
stary
still
suite
sy
tale
tbd
theatre
thế
trãi
twist
tùm
vittorio
vivi
voiced
vp
willem
work
yelp
zachary
zamość
đcs
##01
##60
##86
##90
##av
##bourne
##cing
##czyn
##dge
##dl
##end
##fan
##gb
##gren
##hausen
##lam
##lov
##nder
##oto
##point
##ques
##rak
##sey
##shan
##thông
##thường
##ucci
##vid
##wiec
##zide
##ção
##ío
##ż
##ạ
##ề
##ống
1648
1650
1660
1781
257
264
322
5cm
960
amorite
antilles
aol
apr
arabia
arp
associates
augsburg
bag
bd
berg
blanche
blavatsky
bonaparte
bosch
budry
bytom
bụt
cantor
chạng
clean
cácbon
dartmouth
delia
dengue
deo
difficile
district
disulfide
dumas
dà
dáy
eastern
edna
elder
empoli
extract
faraday
franc
francois
frederic
gaddafi
gail
gmbh
golgi
grady
greco
guru
gwangju
gổ
hager
hamlin
harare
heath
henrik
hidalgo
hiu
hoặc
htc
huck
hunger
háu
impact
jericho
jeux
jihad
jyp
karelia
karlino
karnice
kick
koh
ladies
ld
leroy
levetiracetam
lime
lozano
lỵ
macarthur
manolo
manuela
marche
mariano
mecca
meizu
melly
mendel
messi
methionine
mora
mussolini
muồi
natural
nelly
ngao
noble
noriko
november
ns
nubia
panfilov
personal
peña
phosphodiesterase
phèn
phăng
pia
please
pompey
pontus
porphyrin
portal
pps
prado
professional
pseudoephedrine
pueblo
raoul
recz
riga
robbins
rococo
rosita
roth
runner
rush
sala
sand
serpentis
shangri
shinjuku
shredder
sia
sidao
sleep
stefano
stettin
stuhlbarg
săm
tba
tgf
third
train
tót
tôpô
utilities
vice
vicodin
vietjet
viển
vol
wpa
za
đề
đối
ủa
ừa
##ario
##ati
##bul
##dera
##ders
##ente
##file
##hong
##hydrat
##icus
##ih
##istan
##john
##mb
##nell
##of
##ogy
##phenyl
##ple
##pole
##ree
##rite
##rre
##taro
##uchi
##uel
##ất
1603
1760
191
209
232
239
3500
780
802
acth
afrikaans
afrin
akiko
amun
ancient
application
ariel
axel
babel
bau
bedford
beit
bono
boulder
browsing
bug
bĩnh
cano
catalyst
ceres
choline
châng
chít
chỏm
clair
clinic
complex
costco
cultura
côte
d1
daenerys
depot
dina
dorne
duk
dębno
elektra
ellipsoid
ereshkigal
extra
fallon
fanny
favorites
femmes
fg
finasteride
fishers
florian
forge
fourier
gamble
gareth
granger
gsm
gắm
hadley
hari
hevc
hideyoshi
hokusai
hour
hoăc
hut
huta
hyperion
hơ
hạo
hừm
ignacio
indo
italian
iud
judas
kerala
kiki
kimble
knights
kwan
laboratory
lalla
lambda
m1
marsh
maru
maximilian
mejía
metanol
mn
montella
napster
norden
nám
patagonia
pena
phùng
police
polotsk
polypeptide
pompeii
ppd
proline
prusa
purple
pyotr
quinidine
quằn
reeves
regis
rf
rodham
rén
rọ
samaritan
samir
scythia
shelley
soup
sutherland
swiss
tamer
theme
toại
tripoli
turkmen
tọc
vinfast
vogel
volvo
váo
vãnh
vạng
wave
wyoming
youth
đẫn
đụn
##14
##aha
##alia
##ash
##bet
##gold
##ids
##jō
##meyer
##mond
##mori
##not
##ogen
##rik
##rne
##sion
##tam
##usa
##vì
##wald
##witz
##wn
##zew
##ă
##́p
##ầu
##ẩn
##ự
1080p
181
234
247
251
740
acre
agb
alix
altman
andhra
angels
antioquia
antonia
aquila
arridy
ascoli
astra
atalanta
baylor
benghazi
benton
bis
boomerang
boxer
braxin
breton
brett
brussel
calcutta
caspi
catalog
cavendish
chagatai
chico
chảnh
chồm
clohydric
cnet
concerto
corrigan
dancehall
delphi
dempsey
dome
dove
dộng
elvira
enigma
enola
epipen
esper
famitsu
fate
fleming
foggy
fx
gallup
gemma
ghém
gioan
gone
hanover
hayden
hhm
hinata
holden
hyderabad
hẵn
ique
itv
iupac
juilliard
juno
kalashnikov
karachi
kathryn
kemal
kimishima
kirchner
kristen
labrador
lausanne
lev
lille
loop
loras
lori
lourdes
maciej
macy
malacca
mammy
marcelo
marxist
mattie
maxim
mazara
mccain
memories
mer
mma
moe
monday
monique
mystery
mé
need
ngậy
ngỏm
norethisterone
nr
ntt
nă
papi
pass
pge
phobos
picture
pita
polystyrene
poole
popular
psilocybin
qatana
random
retina
rinh
rue
rybnik
rzeszów
saya
scar
schengen
seljuk
sentinel
serine
sevilla
shield
shilling
shishio
snack
something
spielberg
stage
sulbactam
svetlana
tiempo
tolstoy
trzebiatów
tập
túy
utagawa
uti
valenciennes
velma
vernon
virginis
viz
vù
whitaker
wielka
wordpress
xanax
xoan
yourself
ùa
ɑː
##19
##24
##28
##acetic
##alis
##ava
##bon
##cas
##cene
##ction
##ets
##etta
##ille
##iyeh
##ize
##kka
##kle
##lab
##lé
##maker
##now
##owska
##ox
##pel
##phenol
##ramine
##ress
##sco
##thi
##tie
##ulus
##uo
##wise
##út
##đề
##ạn
##ỏ
10h
196
3m
5h
640
660
abdi
adapter
aff
anand
anu
aragon
asturias
auc
augie
aye
bamboo
beer
bergen
berger
bertie
betsy
biennale
bismarck
boca
buster
bộ
calhoun
callejas
caramen
carbonate
carlsen
cartel
chỉ
chụm
colón
conlon
corpus
dal
danielle
devanagari
diablo
dimethyl
dixie
dlc
dodge
dorian
dreams
dual
durán
eisenberg
euclide
fedex
fentanyl
fernandez
flower
forum
freetown
frông
gardens
gj
gladiator
gregor
guantanamo
gucci
gynecomastia
gôm
gẫm
halo
hashimoto
hilary
honor
hooper
hosta
hummus
hunting
hydroxylase
hydrua
hệ
ikea
import
inr
internacional
irresistible
ive
jeopardy
joachim
juliusz
kassim
khạo
kwang
kyu
kỳ
kết
layer
legacy
lhc
lux
lơi
mabel
maximus
mckay
melman
melody
metropolis
midi
minamoto
mj
moma
monophosphate
mor
moravia
mustafa
méliès
natalizumab
ngày
nguậy
nhón
noaa
nobita
object
osiedle
parental
pence
phui
phò
pilate
pioneer
pitt
pka
poznan
pretty
product
ps4
puck
pug
pyongyang
qúa
range
reading
renata
renault
riaa
royale
rutgers
rösler
sachsen
sagan
saigon
sandpiper
sari
schulz
sci
seed
serial
shepherd
sheppard
shia
shiki
shilton
shopping
skip
spain
spitz
springfield
subaru
sueño
taa
tamara
targ
tea
thing
thorne
thunderbolt
tip
toang
trâm
trót
tula
usp
uổng
vader
vga
vilnius
vivian
week
wielkopolska
wings
xesi
µg
ẻm
##25
##80
##ame
##ann
##beck
##bine
##bone
##dee
##dou
##dre
##ense
##eria
##graphy
##hal
##hei
##horn
##khí
##led
##mid
##nine
##nti
##onium
##pie
##pl
##rad
##rst
##saki
##stan
##thứ
##verse
##wal
##xx
##ówko
##ớng
1740
1773
2023
217
219
226
2x
302
560
adele
akbar
area
bailando
banjo
benito
bet
bingo
bisztynek
brady
britannica
bureau
c64
cac
caspere
casterly
cheyenne
chuơng
chòng
chủchốt
cla
comanche
continental
cornish
csv
càm
devops
dia
diaspora
dig
dimension
dracula
dragons
dulce
dusty
ehome
emanuel
emiliano
european
exxon
feliks
fema
fill
glycine
gmm
golczewo
gondor
gołdapski
grub
hf
hime
hởi
icc
irena
ismail
ivf
jacksonville
joaquín
jpg
jpl
kal
karina
kda
kenyatta
ketamine
khác
kingsman
kiribati
kpc
köppen
kühl
kętrzyn
lager
lagrange
landing
levi
lian
lobo
lula
luli
lusaka
luteinizing
lênin
lốt
macrolide
mahone
mandy
marius
mater
matter
mbe
memorial
mfa
milimét
minix
monterotondo
morpheus
movement
mpc
msdn
m³
mớm
nationale
nemo
newfoundland
ngoi
ngò
nhành
nhó
nicolaus
nicotin
nih
nitrocellulose
normal
nos
npp
oldenburg
oneplus
panzer
peak
phanxicô
phospholipid
phyllis
pokemon
polymyxin
punta
płock
quinine
quạo
rb
reddit
rembrandt
rhine
riết
rutherford
rón
rền
salcedo
salvatore
sami
sarada
sauron
sản
scorpion
seville
sf
sharma
shashi
shen
sidney
simeon
simulator
smackdown
snyder
sookie
spade
spironolactone
stones
subcarpathian
sucrose
sụ
templeton
thrombin
thó
tic
trổi
tw
ul
uniq
upr
usher
very
vickers
videos
voltaire
vè
walden
ware
wielkopolski
willow
woodrow
xồm
đển
đễ
##35
##aka
##amphetamine
##bara
##chy
##chính
##eer
##gna
##ings
##ities
##kers
##mata
##ncia
##những
##nos
##ont
##owe
##szewo
##taka
##thuộc
##tter
##uit
##zyce
##ías
##đồng
##łowo
##а
##ẫn
##ậy
##ờ
##ợc
1803
1805
189
2024
295
507
710
760
abuja
african
aldehyd
amabella
amalia
amoled
anatoly
ando
andromeda
antoinette
armour
asti
awesome
baden
baja
bangalore
beyoncé
bilbao
bose
boson
br
brest
brittany
brunswick
butanediol
bấn
cabral
calcineurin
carbonyl
cefoxitin
cgrp
chanel
chef
chạc
cms
coco
collegium
corning
coulomb
crf
crick
danton
darkness
deal
dfb
dhabi
distributed
dortmund
dt
dunn
dygowo
dìu
ecole
ego
ei
ellcrys
entre
ernie
esa
eskimo
etf
ext4
fairchild
farm
fiction
fluoxetine
fortuna
franken
frédéric
fuminori
galois
gauss
geoff
glucagon
glutathione
goddard
griffith
guyan
hagrid
hangouts
hanh
hofmann
hume
hyuk
húp
iodine
johnston
kagame
kendall
keto
khui
kidd
kind
kinda
krakowskie
larkin
lecter
lennox
lodigiani
lyn
macallan
macao
masovia
mauricio
mindy
minnie
mirae
moldova
mori
mulder
multi
n95
nashville
nicolás
nouveau
nó
npc
nude
née
oda
oguz
ouabain
panther
pate
pelé
phosphatase
pick
pictoris
pike
piotrków
plastic
qalaat
quèn
radius
raskin
rimini
riordan
rocha
rsa
sadako
safety
sagittarii
sandoval
satin
schreiner
schuster
shado
shan
siro
skinner
sl
sonar
sonora
sons
species
sulfua
sunshine
suzuran
tancredi
tác
tetch
thatcher
therapy
thinh
tomb
training
tribbiani
trấu
trối
tuscan
tẩn
valparaíso
viettel
vờn
watney
wilkins
worcestershire
workshop
x−
yakuza
yancey
younger
zamora
zhou
°đ
##33
##aceae
##band
##bers
##board
##br
##cen
##chon
##dol
##elin
##eni
##fit
##gt
##ians
##itt
##jack
##jee
##kos
##law
##lies
##lum
##nese
##owiec
##park
##pat
##por
##ppe
##rte
##shima
##smith
##tana
##tch
##var
##vision
##wen
##ych
##zed
##zny
##ận
1549
1798
197
207
246
400m
530
80286
9000
980
abd
abreu
accordion
acrobat
adventures
aguilera
ahh
aiden
airbnb
alô
ames
ammonium
annabel
annette
arcadia
architecture
aspartate
azaz
barb
bertha
bonobo
bookmarks
botulinum
bridger
brook
bum
burgundy
bòng
cambodia
cancri
capture
carthage
chess
chicken
chihuahua
chlorhexidine
chronos
chuy
cinema
clorat
community
conan
controls
cooke
corps
cosima
cosmopolitan
crewe
cuỗm
cyanoacrylate
dalai
darken
developer
dmitri
drawer
dudley
dávila
eco
elise
erika
ethnologue
flag
fr
frame
fresno
fukuyama
gangster
ger
getafe
ghì
giá
gigabyte
gilberto
graciela
greta
gạ
hades
haloperidol
haru
hepburn
hiều
iec
inosine
isabgol
jabal
jessup
jesús
jf
kaufman
kebab
khuyển
khất
kilôgam
kovač
ké
label
lactate
late
leekie
lhasa
livorno
loe
luthor
lài
lè
lốm
lủi
madre
margot
mathilda
meereen
melones
methylamine
metronidazole
midway
mixtape
mmol
mohinder
mordor
museum
mú
naoko
negra
neville
ngưới
nhất
nitazoxanide
nạy
oas
okja
omaha
oph
optimus
package
pad
padova
pais
paweł
pcp
pew
phenobarbital
phúng
pivot
pong
pronounced
pune
pyrimethamine
raider
ramona
ready
revista
rfp
ribavirin
ringo
rivas
rohingya
rojo
rows
rudolph
ryniewicz
réunion
rằng
saad
salesforce
shire
shotgun
skull
smoak
sonata
sor
std
strasbourg
succinate
surrey
swish
tacrolimus
taranto
tee
tetsuo
thailand
therapeutics
therefore
thũng
tonya
trask
tropical
trằn
tudor
var
ventures
vern
viva
vạc
walton
warriors
wembley
wendell
wharton
wilkinson
williamson
wisła
wr
yards
zhao
świętokrzyskie
##aine
##ath
##azine
##ches
##cil
##dil
##done
##dō
##eth
##ewo
##ffe
##hagen
##hình
##ister
##jun
##kova
##lide
##lite
##nian
##nse
##nsis
##này
##plex
##pyridine
##qi
##qui
##rka
##sat
##sner
##sum
##tec
##tiếng
##tôi
##uer
##uni
##vic
##vsky
##web
##yeon
##zewski
##ś
##ər
##ر
##ể
1st
2300
357
364
384
510
570
876
academia
albrecht
alibi
apply
argan
ariana
arias
aron
ascii
aston
baek
bani
before
bj
bla
bohr
bowen
branson
bretton
bsd
buserelin
bẳn
c4
calories
canterbury
carmina
catch
caucasus
ccr5
chiba
chuỳ
cinderella
clementine
clotrimazole
colleen
coral
creed
cum
current
cuôc
cuộc
càu
cụng
dachshund
dalmatia
dolice
doom
dượt
elastin
era
ershon
eur
eurovision
extreme
fermi
fl
flamsteed
focus
fossasia
fraga
g20
g4
gestodene
giselle
giầu
glover
gonzaga
gołdap
guggenheim
hammurabi
hamraa
hendricks
hewitt
hn
hút
hyung
hội
ir
isoniazid
ito
jewel
jojo
journey
joyner
joão
kamikaze
kapoor
karnataka
karp
khuông
kohl
koko
kree
kruger
kumasi
leave
leonid
liceo
lights
load
lopes
mace
madden
maddie
maghreb
manley
mariko
megabyte
meiji
merchant
methyltransferase
mine
montt
mose
mouse
msa
msc
mystic
navajo
ndebele
neisse
nexus
ngừoi
nickname
nôm
oba
observer
octa
orozco
ot
parbat
peek
phay
phũ
phắn
pot
propofol
quantico
quơ
raf
recording
renin
reye
rosuvastatin
rubén
rừ
sahel
sarawak
scotia
selfie
sik
silk
simplex
snape
sopot
spotlight
sting
stuttgart
sunrise
swanson
syracuse
taira
telenovelas
terrill
theater
thơi
tiếng
tomás
topiramate
toulouse
tuế
tự
tốp
ugc
uwp
v8
ventura
vin
waco
walking
waverider
weeks
welsh
wexler
widwin
wierzchowo
witch
witness
wolfram
xenosaga
ximena
xoàng
yalta
yeltsin
yet
yumi
zita
édouard
##ace
##arian
##bb
##bian
##bush
##cel
##cht
##cko
##cos
##dies
##eg
##enberg
##ete
##eum
##eye
##fort
##hip
##hos
##hội
##iano
##kow
##kowice
##log
##lski
##mbi
##nor
##nstein
##ost
##over
##owy
##pf
##pton
##rb
##rz
##set
##sław
##tol
##tou
##ào
##ây
##śnica
##н
##ển
##ỉ
##ợt
005
1550
1777
1b
241
244
249
254
299
2b
2g
314
490
501
540
625
870
abed
addison
adult
akihito
alexei
amgen
amherst
aq
araújo
arroyo
ashur
asic
bahia
ballard
beccs
birkhoff
bois
breaking
browse
brutus
buddha
burning
burroughs
butanol
canaan
carey
cassino
cassiopeiae
casting
chapel
chiến
chociwel
chocolat
chon
chửa
cisplatin
complete
corey
corleone
corot
cpa
cầy
daedalus
delicious
dogs
dover
dấp
early
ecg
emerald
enron
esperanza
eunice
f2
fibonacci
formaldehyd
fuentes
futsal
gabaergic
gabapentin
gaisha
galindo
gc
gemigliptin
godaddy
grahamstown
granados
grover
guys
gút
hado
hearts
hertfordshire
holloway
hoo
hrc
huyễn
hăn
ipc
jamestown
jarrett
juarez
julieta
kalahari
kamal
kanye
kardashian
kirill
kirin
kj
koba
konstantin
langdon
luanda
lymphoma
lỏm
maccarese
madiq
mat
mcfly
mec
mela
mica
mil
moment
msi
mêhicô
naa
neptunia
neto
netware
nhài
nim
nà
otis
oxcarbazepine
palma
palmers
paper
pdt
perkins
phen
pixabay
pln
ppp
prada
praga
president
presley
products
przelewice
príncipe
pyridine
quill
raina
ramal
ramanujan
rancho
rebekah
rgb
roberta
roderick
rotoscoping
rpg
rupert
s7
sakaguchi
sakura
sans
santander
sartre
segunda
seki
sentai
shaun
sigmund
sisters
sos
sox
stagecoach
stephens
suez
sven
swapo
sít
số
sực
tak
telegram
tezuka
theophylline
thui
thực
thịch
tiếp
toxoplasmosis
turin
varma
velvet
vergara
vnd
vố
waiting
warrior
wax
wd
welch
whitman
wyeth
ynh
yểu
zig
ziyech
°b
đui
##000
##02
##61
##70
##78
##anol
##ayo
##cja
##ect
##eko
##ewski
##fest
##hurst
##iny
##jar
##lation
##mouth
##mt
##nberg
##nel
##nicki
##nico
##ope
##ors
##rea
##sal
##site
##skaya
##sman
##sp
##sso
##sto
##sự
##tman
##trol
##uan
##verine
##yana
##zów
##ưa
##е
##ắn
##ệu
##ục
##ー
080
1768
1802
253
285
379
385
436
505
670
agile
akan
akkadian
alipay
alley
alvarado
amberle
attack
avellino
báo
bernstein
blank
borden
bratwurst
braun
breath
brojce
bòn
bơn
caen
camilla
canberra
carboxyl
cartwright
cassar
catalunya
cave
cdma
chiểu
chức
circuit
citizen
citrat
conti
contra
crs
curiosity
cuồn
cót
dianabol
diario
dietrich
digoxin
división
downs
dvi
düsseldorf
dả
ef
entry
every
experience
fdg
femenina
foley
fusidic
gardiner
gbl
gic
gong
grab
guitarist
gunnar
gáp
hamptons
hermie
hide
hive
horii
horik
hoắc
hurley
incheon
inositol
ins
internazionale
ioc
ipcc
ishikawa
isotretinoin
ivo
ivoire
jigsaw
jock
jubb
juliette
kabushiki
kan
karuta
khuê
khz
knox
kon
kwame
lazada
lipiany
lissa
listen
loi
lot
lynne
lý
lấm
m16
maek
marlboro
meade
mestranol
microsd
mobil
murdoch
naloxone
ngừơi
nhạn
nhều
nickel
nietzsche
nilon
niño
nooyi
notes
nuevo
nygma
nẩy
ocampo
ola
operation
ophelia
orol
owl
paraben
penan
pig
pilgrim
pip
plac
prius
qs
radom
rae
rctv
reacher
receptor
retinol
riot
rosenfeld
roxie
rtc
rubik
rust
rườm
sabra
savannah
sensei
shun
siemens
sofía
soledad
soviet
spice
stadion
stephan
stock
sukiyaki
sulfur
swahili
tazobactam
td
telegraph
tenma
tenofovir
thank
thì
thrace
thursday
thuổng
thuộm
title
touré
treasure
trichloroethylen
triphosphate
trình
troia
trym
tìn
tōkaidō
tời
tửu
ujazdów
valentina
valhalla
vampire
vivaldi
vogler
volt
víctor
wikileaks
wilder
worth
węgorzewo
yongsan
zambrano
zhukov
µm
đt
##45
##aga
##aria
##azepam
##bella
##bil
##cat
##craft
##cu
##dat
##dora
##eim
##ethyl
##ggle
##gui
##hem
##hoa
##iak
##imo
##ket
##kins
##kir
##kol
##lica
##lim
##med
##niec
##nitz
##nyl
##nằm
##oll
##oui
##qua
##sma
##soft
##tl
##tów
##vas
##vert
##wer
##wie
##yoshi
##zai
##ß
##ية
##ạc
##ậu
##ắt
##ằm
##ếm
##ểm
##ỗi
##ớ
##ủ
##ức
##ỷ
003
1526
218
221
335
3x
425
443
486
555
620
a5
aah
acetylcholinesterase
afghan
aisha
aka
alegre
alginate
andrey
arezzo
assassins
athen
beaufort
beep
biếu
bolivian
borussia
bpm
brownie
bryansk
bỏi
bờm
cannabinoid
carina
castor
cả
celiac
centauri
chatham
chdc
chekov
chevrolet
chilevisión
chloro
chêm
cmu
cnooc
cobblepot
codec
countdown
crenshaw
cura
cypionate
damm
davenport
dextran
disc
domain
doraemon
dosulepin
dougal
durham
dvr
ees
emtricitabine
enol
esposito
etc
exo
export
fabiana
fame
female
fibrin
fight
fiorentina
flip
frazione
galen
gerhard
gièm
giỗ
glenda
gliwice
globe
glory
gpl
gracie
gulf
hadron
haier
haile
harkness
heineken
helios
heller
hendrix
hindustan
hoay
horizons
hormuz
hub
huxley
iodide
iot
islands
jen
kana
keratinocyte
kickstarter
kincaid
konrad
kst
kuhn
kẹ
lago
lancashire
leonzio
libi
lombard
lovelace
luftwaffe
lutz
luộm
lúm
lẩu
macaroni
magna
maputo
mateo
maynard
mayuko
mda
mean
mendes
merton
meteora
mieszkowice
mika
mikołaj
minaj
monde
nabl
nadu
nakamaro
naltrexone
nghía
ngớt
none
norris
nowogródek
nsf
numbers
oberliga
odysseus
opec
owens
panamá
patriot
pdp
peninsula
pepsico
peptidase
phoenicia
phủ
physical
plymouth
provence
przingmieście
quixote
raynaud
reilly
rene
restrepo
rl
rosemary
ruổi
rì
sabatini
sacks
samba
sar
schindler
sedan
selassie
semiramis
shape
shinto
soát
souza
steele
stoner
sumatriptan
sém
taiga
tamoxifen
teenage
tembin
tg
thein
thich
thornton
thorwald
thùa
tiamat
titanium
tours
trở
trể
tỏa
unc
valenzuela
venter
vh1
voz
vật
watergate
weather
woodstock
worcester
xổng
yamada
yamaha
yasuko
yurovsky
zedd
zielona
##06
##72
##aj
##ander
##ashi
##bor
##cate
##chiến
##chus
##cor
##esa
##fire
##game
##hil
##iel
##ink
##jn
##kit
##kul
##lem
##mma
##mun
##nice
##nki
##ntino
##num
##nów
##phần
##quốc
##rr
##rón
##sam
##sca
##sil
##sts
##tate
##trước
##ulu
##ural
##wall
##watch
##xit
##ycin
##zzo
##úc
##́m
##ặc
##ộ
1771
228
236
237
267
301
307
351
610
abi
acb
acronis
adolfo
adorno
allie
altazor
amitriptyline
ancona
annabelle
annabeth
athelstan
auguste
ax
bakshi
barca
bartholin
baum
bayes
beauchamp
becker
bem
benzalkonium
bhojpuri
blackpink
blaze
boat
booker
bpa
bịnh
bủa
cacboxylic
calci
caliph
castellanos
cate
catecholamine
cato
celine
cerro
cfc
chemical
chloride
chrysler
chược
coach
codex
crash
cristal
cupcake
człopa
dane
darth
diallo
direction
diva
diễm
duvalier
dystopia
dzhugashvili
eb
ebv
ejecta
eml
enable
enoch
erich
fermentum
française
frunze
fujimori
geary
geiger
gemini
geun
giải
gl
glycosyl
guerrero
guevara
gusteau
gut
hamas
hands
herculis
hms
hodge
hunga
hōjō
int
itu
jamey
joule
juve
kain
kiết
konoe
kumar
königsberg
laguna
laude
laurence
liao
libertad
limbani
loay
loomis
ludwik
lảo
maar
machado
mallory
malone
mango
manowo
marcin
marquis
mate
matilda
mauna
menthol
micheal
millie
miu
mola
multiple
murder
mx
myanma
myung
navy
nergal
nickelodeon
nielsen
niết
nocerina
nữ
obs
okore
ordo
ou
ow
ozon
paddington
paloma
pavlov
phầm
pico
pippin
plant
podlaskie
polysacarit
potsdam
pour
printrbot
programs
puma
quintus
resolution
reynold
rhapsody
risperidone
ritz
riva
robotics
rodolfo
rosenthal
rubinstein
rịa
sassuolo
sawda
scarlet
selen
sigurd
sisulu
sorafenib
spy
stack
stand
steadman
suárez
taj
tees
tegucigalpa
theodor
thracian
thutmose
thết
tide
ton
transaminase
traoré
trestolone
triamcinolone
trinidadian
trác
tsukasa
tắp
tằng
tếu
ukrainian
universidad
unión
valentino
vinmart
virtua
vùng
vó
vựa
wait
warhol
wieszyno
wolff
xuất
xêút
ze
ºc
đoản
##36
##65
##89
##auer
##benzene
##bir
##boro
##bow
##chin
##chuk
##dic
##eed
##enne
##eno
##etti
##fl
##gio
##hine
##hot
##iae
##igo
##inski
##jang
##khar
##lai
##lane
##mbe
##mina
##ncy
##ntal
##oate
##oke
##ology
##oxy
##pas
##prost
##ration
##rene
##rich
##roma
##sby
##sdorf
##tadt
##tinib
##tow
##tō
##uana
##uc
##uin
##ulin
##vus
##wara
##yr
##zane
##zko
##ós
##̣i
##ọ
##ớt
##ợ
011
2040
20th
2400
271
323
326
383
395
3he
451
499
580
770
930
970
accounts
ackerman
agamemnon
ahmadi
aleve
allyl
amyl
arden
arlington
armand
aro
asano
atpase
auxerre
ayala
banana
barton
bài
bce
beast
bint
bradford
brakebills
broad
buffet
bugi
butterfly
byzantium
c3
caledonia
campo
carlson
carlton
catalonia
ccd
celt
character
charlemagne
cherokee
chow
chẵng
ciba
clash
composite
corticotropin
còn
creatine
custom
cộm
danko
dent
derrick
deuterium
diacetate
ding
dipropionate
doña
dumont
dyad
ect
enrico
esc
fedora
ferris
fifth
friday
fta
gaby
gem
gharbiyah
gibb
gifted
gillette
git
giussani
gmt
godolphin
granola
grappling
gras
grimes
groupoid
haas
hanja
hc
herodotus
hilly
hinh
hiềm
holiday
homebrew
humboldt
ict
jain
kamakura
karma
khịt
krom
krym
kure
lahood
lahore
lawton
lea
leather
leibniz
leptin
ley
lise
lorne
lucca
lumen
maldonado
manage
marek
matxcơva
mayflower
milky
milly
mochi
montserrat
motion
mottley
mustang
más
māori
nah
nando
nathalie
nf
ngộp
nhiếc
nissan
noche
nola
nothing
nẻo
october
offer
opus
ostróda
oświęcim
panasonic
parks
paulson
perphenazine
phaolô
phenothiazine
phenylalanine
philippin
picnic
pine
plasmodium
poor
poppy
prescott
priscilla
qué
rahman
ravenna
rayet
rcn
reddy
reggio
reiter
rfc
rhythm
rifampin
rivero
rodgers
romance
ros
rovers
rumble
rúm
rąbino
sabrina
sales
sana
sashimi
script
sdr
seine
selinux
shapiro
skin
slate
slater
slovene
solonius
somoza
songwriter
spezia
stay
steinitz
stumpy
sudetes
sword
t4
takashi
takeshi
talent
theokoles
thiu
thào
thé
toba
toyotomi
trace
truơng
trường
trứ
turkey
tuxedo
tế
tíc
týp
udp
ufc
ulsan
urquhart
ursa
users
ut
valance
valeria
vegf
vểnh
xcơ
xibia
yangon
yolanda
zed
ziyarah
zürich
đag
điêng
độ
##43
##55
##anda
##aux
##bek
##bán
##chai
##czów
##dưới
##eba
##ede
##eem
##eme
##eric
##erson
##face
##gina
##giri
##gua
##hiện
##idad
##kia
##lax
##lino
##lium
##mat
##meter
##microsoft
##mod
##ono
##oz
##oza
##play
##ppa
##quan
##rata
##sel
##some
##sos
##stin
##strom
##tham
##tree
##uck
##ume
##unda
##ué
##yk
##yt
##yte
##zano
##łów
##ơi
##ười
##̣ch
##ν
##ấ
##ấu
##ậ
##ồng
002
1620
1730
252
317
318
321
720p
abo
adi
aelle
agra
agrp
alone
aminoglycoside
arms
atc
athletic
aurens
aux
avalon
azimoff
bagwell
barrio
bautista
belleza
bentham
bergmann
bod
bolus
bone
boon
bora
bustamante
canto
canton
capri
carbine
carney
carpenter
cassidy
ceftaroline
chop
chyện
clonidine
combs
controller
cory
crain
cristóbal
crm
croft
cupid
cutler
cưu
cợn
cữ
dara
dashi
daya
delgado
diamandis
dione
drac
drop
drum
dtpa
dulles
dynamo
día
dôi
earp
eczema
ellison
endothelin
engadget
estelle
euroleague
extended
fabious
fantômas
fel
filip
filter
fin
fryderyk
fund
gad
generations
gestalt
github
gluon
glycemic
gomes
gordy
gottfried
grim
guillaume
h1n1
h5n1
hair
harvie
hayward
hegel
herb
hilbert
hippocrates
hiragana
hits
hutchison
hw
hwan
hydrolase
i3
ibarra
ican
ife
illustrated
illustrator
industrial
initiative
ishaan
islam
ivory
jabbar
jamil
janni
jennie
kaizen
kangaroo
kathmandu
kei
khomeini
khum
kishimoto
krenz
kush
kuznetsov
ld50
leavenworth
lennie
leonis
lockheed
luka
lutein
lyman
lịm
maarten
maasai
magi
mantova
maoi
marconi
margaery
markkula
massimo
matty
maxine
mcleod
mead
mi6
minerva
miếu
mojo
monarch
monsieur
morena
nafarelin
nagahama
nauy
neti
newport
newyork
ngưởi
ngủm
nhât
nicolai
nights
nitrobacter
nootka
norway
nowomiejski
nsaids
nuremberg
nureyev
oculus
patch
patton
pda
phịch
pinky
portman
prager
primera
prodrug
pryce
przemyśl
qasim
quào
rada
rà
reich
res
rift
rohan
romaja
ruda
sae
saka
salzburg
sancorp
saruman
sate
schiller
scoob
seneca
shogi
simple
sina
slick
slow
smile
sociedad
somerton
stepnica
strabo
styles
sulfonylurea
svalbard
sylhet
synapse
taft
tanner
televisa
telugu
thiamine
thạnh
tnt
todos
tribeca
trumpet
trùn
trước
unsullied
uwi
vallis
valsartan
venevisión
vhs
voa
wallis
wegener
were
wilanów
worlds
write
xing
xyri
yokoi
zanzibar
zn
zod
°n
đũng
##aku
##aru
##bba
##beth
##borg
##cap
##cyte
##cza
##dr
##dragon
##dus
##ecki
##enia
##fr
##gic
##grave
##had
##hart
##hun
##hus
##inin
##ith
##ized
##jet
##kara
##kat
##kis
##list
##lna
##lou
##mani
##methyl
##morphin
##nar
##nir
##nite
##nja
##ntes
##nz
##oko
##onic
##ood
##oshi
##ovo
##oye
##phải
##pril
##rain
##rey
##rom
##sl
##sol
##song
##sten
##thal
##theo
##uh
##uli
##ulo
##yat
##ắc
##ē
##ść
##ương
##ước
##̣p
##ς
##ẩu
##ắm
##ếc
##ững
##ỳ
004
1763
1765
1778
1782
281
2mass
303
311
319
3200
372
392
415
4x
525
730
777
8086
8h
920
académie
acemoglu
acrylate
amar
ambrose
ankara
aspen
asperger
atkinson
barbossa
barron
bản
beagle
bebop
bernhard
bigos
birds
blazer
bloemfontein
blondie
bmd
boldenone
bonnet
bright
brito
bupropion
c5
cahill
canis
cannon
cardigan
carib
carrasco
castel
cavanaugh
cephei
cesar
changes
clarinet
claudius
claus
clomid
cobicistat
comedian
corbett
cossack
cowboy
cracking
crp
cruise
cusco
cyp2c9
czarnowo
cắc
daley
dangerous
davy
december
destiny
dex
diet
dijk
directx
dirty
dịch
dopa
dorset
draco
dumuzid
długosz
dến
eagles
eames
ecm
elio
elton
esmeralda
everett
everolimus
evolution
fama
fang
federal
federation
feminist
ferragamo
flass
fluoroquinolones
forrest
fts
gag
gaucher
gazeta
genus
genzyme
gillian
giulia
giãy
giặc
gluconate
gobi
gorce
greely
guadalupe
gunther
gáo
h2s
haines
harbor
haryana
hayashi
heh
hendrik
heredia
hex
holding
hourglass
ibs
industry
inhumans
isopren
january
jareau
jax
jehovah
jonson
juanita
kafka
karin
kattegat
keegan
keng
kettleman
khaisinh
khuỷ
khướt
kilogram
klebsiella
kyo
leavitt
lipase
lowell
luyên
maa
madam
magdalene
mani
marathi
marcion
marla
marshal
marshmallow
maseo
mek
merle
merrin
metric
morrow
muông
mục
mèm
nak
narcisse
nee
neu
nineveh
nino
nạm
ob
oleg
oral
orionis
ospemifene
oto
ouagadougou
own
padua
pai
palazzo
pasadena
patsy
peclorat
pemoline
phàng
phập
procainamide
proto
pryor
ps3
quintana
raju
raleigh
ramadan
ramen
rameses
ranch
reigns
renato
rg
riario
rowe
ryszard
rướn
scorpii
sculpteo
seif
serra
shams
shanghai
sharqi
shinzo
siemyśl
siletsky
silla
sinbad
soccer
sofosbuvir
sort
springer
starr
sud
sất
sếu
tbilisi
tears
thời
toanh
tortilla
trastuzumab
tricia
trị
tum
unaids
upsilon
username
v3
vaduz
valladolid
vèo
vạm
warmia
wein
weiss
wellcome
without
yakov
zag
zs
én
ôxtrâylia
đưc
đớp
ōtomo
ảrập
##37
##85
##abe
##ación
##ars
##ast
##cao
##cco
##chot
##chất
##cung
##eman
##ement
##erry
##eur
##gaki
##gard
##ggio
##glia
##hall
##haus
##hood
##hành
##iba
##idian
##ike
##ilia
##inone
##inos
##ione
##iti
##iza
##jas
##korn
##lamine
##lice
##lot
##mount
##mund
##music
##naya
##nick
##nowski
##nya
##o2
##omy
##ones
##ops
##otti
##oya
##pedia
##phone
##rae
##rica
##rou
##rson
##rut
##shū
##sung
##số
##thần
##tina
##tius
##tory
##transferase
##tri
##tổng
##ulation
##umba
##uro
##vers
##vương
##walk
##wave
##yx
##zana
##zie
##zing
##zumab
##zz
##zón
##ères
##êm
##ình
##ói
##̀a
##ầm
##ậm
##ằng
##ẽ
##ều
##ồn
##ợng
017
1661
277
283
332
334
355
382
433
483
508
567
666
810
acapulco
accept
acyclovir
adblock
aden
albright
amcinonide
amoxicillin
ane
aps
arakawa
artur
ashram
asl
aspergillus
athletics
baking
bane
barros
battista
bcr
beam
belait
benji
between
bevirimat
blackjack
bmg
bobo
bogdan
bowie
buford
bullet
bởi
camden
cappadocia
cardoso
carmine
carne
catechin
cervantes
chantal
chechen
chiện
chũng
chờn
cinnamon
clarice
col
comfort
commonwealth
contact
creasy
crop
ctx
cx
dario
dban
def
defender
demi
dendi
dev
dimethocaine
doll
dollars
doosan
draper
dreamworks
drex
dreyfus
dsl
dune
echinacea
edmonton
electra
elementary
elf
elsie
emmet
enemy
enzo
eshop
españa
eugène
exfat
february
ferrante
fhm
fiamma
flea
franca
franks
freedos
friedberg
fte
geek
georgina
germany
geum
giza
giậm
goku
gruber
guadeloupe
guanine
guayas
haemophilus
hamiltonian
hodor
hoen
honkai
horst
hoản
hqc
iprindole
ishihara
itaewon
jarvis
javi
jeremiah
jharkhand
jia
jtwc
judge
kaneda
kaori
kayak
kazan
keri
khấn
kirsten
konstanty
kōkūtai
ladakh
lancet
lei
levine
libertas
lillian
limbu
lindy
lupa
lổi
madras
mahama
manipur
manning
marlon
mclaughlin
medicine
medroxyprogesterone
meid
mel
mensah
metenolone
methanol
minecon
misty
momo
montpellier
morel
mpa
mutal
myrtle
names
nazionale
neill
nestor
nghĩa
nghịu
ngắc
nhởn
nightingale
noor
notifications
np
nrm
nst
nyse
nyu
nỏ
obelisk
og
okabe
olivier
origins
oréal
ostrowice
oxymetholone
paget
pareto
parthia
pasta
patera
patria
pause
país
peacock
pemberton
pharmaceutica
phệ
portsmouth
potocki
pride
process
pvp
pyruvate
quasar
raqqa
release
retweet
rho
ritalin
roach
rooney
rơle
sah
sandoz
scudetto
sekiro
septime
shigeru
shimura
shining
shizuka
shortcut
sikorski
silvio
solaris
stacks
stoke
supérieure
sweeney
t1
tablet
tamang
taro
tartar
temozolomide
thursby
thít
thẹo
tierra
timbuktu
timolol
tottenham
trapani
trophy
troxipide
truớc
try
tuchola
tully
umayyad
umberto
une
valois
varese
viareggio
vnexpress
vps
welles
windhoek
wooley
wt
xiêu
yaa
yasmin
zimmer
zuma
óscar
đă
##29
##a1
##amin
##anka
##ante
##any
##ass
##bane
##beat
##chów
##cle
##coni
##crine
##dex
##dha
##dio
##dir
##ead
##eep
##eld
##ely
##emia
##etz
##far
##fia
##girl
##glio
##hur
##igan
##ight
##inib
##isk
##izumab
##jny
##kichi
##leh
##llas
##logical
##nah
##nais
##ngày
##nhân
##nsky
##oso
##ouse
##phan
##pio
##profen
##quist
##rai
##rant
##rdo
##rem
##rice
##right
##ronic
##sb
##sdale
##ship
##shot
##stad
##thời
##tique
##tr
##urus
##usd
##vu
##wl
##yun
##zza
##điện
##địa
##ława
##ş
##ược
##́ch
##ẩm
##ởi
##ỡ
0001
1688
1779
268
282
328
535
5s
612
840
901
978
a3
activity
alpes
amara
amish
antigonadotropic
antónio
aqaba
archibald
arduino
arenobufagin
arnhem
ata
audiobook
ayyubid
bazaar
bellick
benzoate
bessie
bibi
bic
bolero
boney
bortezomib
bradykinin
broken
bun
burnham
bxh
bún
bốp
camino
canadian
cancer
cannan
cast
cats
cauchy
cepheid
cg
chf
chimera
chipset
choán
christophe
chú
chúi
chếch
chột
civic
clancy
consumer
course
cromwell
ctab
cunningham
cạ
dahl
dancer
dbms
dear
deluxe
dha
directory
dmg
dofetilide
donetsk
dpd
dwór
débora
dąbrówno
e2
e5
edm
eleven
entanpy
erlotinib
facetime
finance
firewall
flame
fluoxymesterone
fringe
fuhrer
fukuoka
futura
gadreel
gallegos
gamespot
garry
gatorade
gd
gerais
gilead
ginny
glibc
goes
gorg
grzmiąca
gt
gutierrez
gyrase
hammerschmidt
harari
hardware
henson
hewlett
hidden
himalayas
hippie
hitachi
hiệu
hooker
hora
html5
huckle
héctor
hóp
hùa
iata
ic50
icao
icu
ilona
imperia
ink
irma
isp
jama
josey
kawasaki
kbs2
khaleesi
khumba
khắn
kimberley
kimura
kowalski
krakus
krita
laboratories
laguardia
leaf
lean
legia
legion
lgbtq
lindiwe
liệm
lodi
lorca
luiz
lun
lyons
lôgic
lôn
lù
machel
machiavelli
maddy
magnussen
maracaibo
masekela
maxie
mcnamara
meechum
mejia
melville
mena
merrill
metoclopramide
mhc
minami
minny
miễu
modiselle
monrovia
moran
morley
mạp
mịch
naag
nada
nader
nadezhda
nakajima
nanomet
nghệch
nhom
nhíu
nhứ
nicki
nominated
nosql
novara
null
oryol
output
pah
pap
parmesan
paroxetine
peppers
perseus
petri
phospho
phospholipase
pilkington
plasminogen
plutonium
prieto
przhevalsky
psr
pss
randi
raph
rashid
rebelde
reslizumab
restituta
rihanna
riker
riviera
rothschild
roti
rugby
runtime
rôn
rắng
s60
salgado
salisbury
sargent
scherhorn
schwarz
scpd
semi
sevastopol
sharpe
sheba
sheldrake
shōshi
silberschein
simvastatin
sint
sloane
soares
socà
some
sorry
sparks
spp
sqmi
staten
stephenson
stirling
stonewall
strike
sulfonate
syriac
sịp
sởn
talc
tamiflu
tedx
telomerase
teva
teymur
thorndyke
thổn
tijuana
todo
trotsky
truck
trọi
twardowski
tyrol
tôt
tược
u21
ulbricht
umbria
unknown
upjohn
uzume
valerate
valium
vallejo
vermeer
verner
victory
villanueva
vánh
warden
whip
wick
wim
witold
wyborowa
zaire
zambian
zeb
đâ
żywiec
ỉa
☃☃
##2a
##44
##alo
##amic
##arin
##atsu
##bau
##bay
##bler
##bles
##borough
##bos
##bun
##cn
##corp
##cut
##cytes
##cze
##dp
##eka
##enburg
##eros
##estrol
##etic
##fin
##gall
##git
##hee
##hira
##hman
##iah
##ische
##isha
##ishi
##itch
##kali
##kaya
##kt
##lev
##lich
##lol
##lớn
##mai
##mart
##mol
##name
##ndra
##nion
##nói
##oids
##ondo
##ony
##osi
##pace
##page
##paul
##quita
##reich
##roid
##room
##run
##rów
##sone
##space
##sr
##ssy
##stream
##tain
##tation
##tee
##tide
##tim
##tonic
##tura
##udine
##urg
##xa
##xe
##xia
##yard
##yla
##ái
##ât
##ãn
##íc
##ław
##ści
##ũng
##ən
##̀m
##л
##د
##ập
##ặp
##ụp
##ữa
100km
1630
1643
1657
1769
20000
248
287
345
405
411
456
488
552
768
940
aba
adp
airport
aladeen
alisha
altmann
amal
amano
ami
ammonia
angelica
angélica
anilin
antacid
antiandrogens
any
aqua
arbor
aripiprazole
atorvastatin
autodesk
axis
ayatollah
aziza
badger
ballon
balthazar
balti
banshee
barbosa
bartholomew
basilicata
bed
belfast
belmont
benzocaine
berenice
birkut
birth
bkav
bl
bm
bms
bogumił
boko
boog
boongke
borax
botulism
bph
browne
btđn
burbank
burdette
butadien
byrde
cadmium
caliphate
camara
camargo
capsid
captcha
cck
centimetres
chamber
chiu
chlorpromazine
christoph
chutney
ciprofloxacin
cladribine
comment
conroy
converse
crump
cyanide
cyp2d6
cập
danvers
dax
dcf
desipramine
destra
details
devi
dirac
disopyramide
dobrzany
dodgers
dodo
dory
dravet
duluth
dungeon
dunham
dụ
dx
encore
enugu
escape
esx
excelsior
exynos
fao
fat32
feature
fez
finish
fitch
florentine
fmri
formoterol
fresh
fun
furious
galilee
garzooka
ged
genentech
gianni
gibraltar
gino
giâm
glacier
goebel
goldwater
gomułka
gregorio
gross
guard
gơ
hadid
hamish
hangout
haram
haute
hawks
heathrow
herzegovina
hikaru
hina
hirotsugu
histone
hordenine
hours
howe
hu
huckleberry
huli
igg
iib
ile
ilo
imo
inman
inu
isaacs
ińsko
jadwiga
jaws
jizera
joseon
julien
kamienna
kayla
kea
kemp
khadija
kunai
kít
kưng
lannisters
latif
layla
leng
lepton
lesbian
levinson
limpopo
lj
lmc
lolita
lpl
làs
lơn
maduro
maestro
mak
malena
mambo
manor
manson
maryam
marzanna
mckinsey
mendez
methemoglobin
microphone
mid
miracle
mirando
monado
montoya
morty
moshav
muluzi
nac
nell
ness
ngoạm
ngoằn
nhướng
nhứng
nicola
noam
nori
nyc
nysa
ních
nết
odisha
ondo
orestes
ornithine
padilla
palađi
palestin
panda
pathfinder
pdb
penguin
persian
phãi
phờ
pines
pitcairn
plasmid
playing
powerpc
prednison
primo
pszczyna
pyrophosphate
quaker
radcliffe
ramirez
rapid
ref
reggina
resources
rest
rev
reverend
ribose
rosalind
rtgs
rules
russia
saba
salman
same
samuels
sanaa
sasaki
shamrock
sharqiyah
shiga
ship
sisyphus
sobre
solly
solutions
soundbar
spal
sprint
stepan
sticker
stranger
strickland
stylus
sunderland
sutton
swansea
sướt
sột
t2
takamatsu
telithromycin
terence
theft
thuật
thuơng
thày
thố
tính
token
tone
tournament
treviso
trạc
udon
undp
uqayribat
vcr
vercelli
vicuña
vishnu
voxeljet
vât
vẹm
walcott
webm
wedding
whit
wierzno
wk
writing
yad
yung
zira
zorin
zyrtec
đại
đăk
##75
##92
##95
##99
##ados
##amo
##apa
##ares
##bum
##burgh
##bà
##c1
##cain
##cie
##ciones
##cock
##cum
##czek
##cơ
##eaux
##elia
##emer
##emi
##enic
##etan
##ged
##gers
##hah
##hea
##hh
##hold
##hop
##icum
##idi
##ili
##ind
##iss
##kō
##lack
##lal
##lec
##lein
##linux
##mac
##mania
##maru
##máy
##ndi
##nit
##ovsky
##oxide
##pos
##press
##rew
##rim
##rod
##sawa
##say
##sche
##shō
##sini
##sit
##tani
##thể
##tit
##top
##ust
##utu
##vale
##wind
##ylate
##yle
##zio
##³
##ás
##éo
##õi
##đơn
##đều
##đối
##ńsko
##ża
##́nh
##ός
##ằn
##ẹt
##ọng
006
010
025
050
1637
1644
1653
200m
231
274
276
296
304
324
347
388
435
438
445
533
605
880
acd
acevedo
adiz
affleck
afl
akçe
alcatraz
alphonse
amadeo
amineptine
amir
ananke
andie
annan
ant
antiandrogen
aomori
aquinas
ascorbic
asuka
audi
aura
aurelia
automatic
avermectin
azithromycin
b3
babi
babia
bachelet
baggins
bayou
benfica
bernardino
bette
biennial
bilbo
biodynamic
bismuth
boehringer
boldin
boots
borges
boyer
bra
branicki
brimonidine
bằng
cable
campionato
caproate
caps
carbetocin
carrera
carvalho
castiglione
cauca
ccs
chameleon
chet
chełm
chiang
chief
chlordiazepoxide
chomsky
clermont
cli
comcast
corvinus
cosmetics
costello
crescent
cụ
cỏn
dahomey
dama
darya
davian
debra
deon
diol
doaa
dolphin
donnell
donner
dry
dynamic
ecosia
edmondson
egypt
ek
enid
eos
erasmus
erp
español
esports
esta
esteban
etyl
eureka
faulkner
fb
fellow
fff
finafloxacin
flucloxacillin
folk
fraunhofer
ftc
fulton
funimation
g3
garrick
gcc
genie
ghent
giới
goehring
goldstein
goodnight
goya
gpk
grain
grau
gí
günther
hachi
hannassey
hartford
hawa
hdtv
healthcare
hel
hippy
hiđro
hoạtđộng
hq
hua
huara
hundred
hutchinson
huých
hwang
hảy
hắng
icarus
iliad
imidazole
instituto
jarosław
jawor
jimbo
joss
judah
katz
keiko
kellerman
khaled
kharkov
khua
kilar
kurisu
kłodzko
lamont
laramie
leary
lecuona
leed
lemmon
leopard
libăng
lino
lorazepam
lover
lra
lupin
lusatia
láp
lép
lìn
maison
maltese
mance
masson
mauro
mckenzie
mclaren
merino
methodist
mets
michiko
millennial
misselthwaite
mitsuda
mitsuki
modise
mojave
mombasa
mozzarella
mugabe
muggles
nafta
narew
nessus
nest
nitta
nome
nãm
obor
od
ogun
olson
orkney
osce
osiris
oxybate
oxybenzone
palatine
partido
patin
phloroglucinol
phở
pilot
points
popper
porn
portia
priestley
primetime
protection
przemsza
puyo
quality
quác
rabbi
rally
ramesses
ravi
república
reveal
revenge
roubaix
round
roxy
rubella
rumba
ruthenia
rỉa
rựa
sama
samson
santana
scala
scale
scc
sch
screenshot
sense
serotonergic
servetus
shogun
sistine
smitty
songdo
sosa
soạt
spectrum
src
ssr
stander
sungwoon
suran
swazi
sylvester
sạp
tabei
tangier
tarot
tati
tạo
teatr
telescope
teschen
thiều
thoai
thủ
thược
tink
toulon
tourbillon
triti
trzcińsko
turbay
twh
tyramine
vanderbilt
vieira
voodoo
vt
vỏn
wajda
whoo
woa
wook
wutip
xỉnh
xốc
xửng
yan
yellowstone
yuuta
zaragoza
zeno
đồng
β2
##26
##93
##94
##adi
##ads
##aldo
##ape
##ates
##ator
##bble
##bwe
##cent
##chia
##cles
##czyński
##df
##dog
##down
##dowo
##eca
##eke
##els
##encia
##eras
##eter
##eti
##fied
##gene
##gian
##gr
##gra
##graph
##hime
##hm
##hoàng
##icka
##ient
##iff
##igi
##iol
##iq
##ismo
##itan
##jung
##lat
##lda
##lers
##lex
##lier
##lini
##loid
##long
##matsu
##mino
##nat
##neri
##nib
##nier
##nina
##oic
##ool
##phương
##ptic
##pu
##rba
##rca
##relli
##rga
##rial
##rika
##rino
##sina
##sla
##sterone
##stra
##style
##sumi
##sản
##tah
##tc
##tian
##towo
##tsi
##tây
##udo
##uet
##ush
##uth
##uti
##von
##vệ
##word
##zil
##zolam
##zuka
##zzy
##ích
##ï
##ún
##ưng
##ία
##ا
##ới
##ỵ
048
1640
1642
1720
1725
1764
279
289
30s
316
402
427
465
468
506
5km
acetonide
actin
acuña
adrenalin
afganistan
ahmadinejad
ailee
akuffo
americano
ancrod
androstenedione
apd
argo
arima
armas
arryn
asmara
assassin
assyrian
avon
ay
background
balkans
bartlett
beats
bec
been
belly
benzodiazepines
berkshire
bethesda
bethlehem
blum
boltzmann
bomb
bracken
brasheranotide
brenner
bridges
brush
buttermilk
buṭain
bặt
cab
calcitonin
calendar
candela
capsicum
carbonic
carole
carr
carrington
caspian
chaldea
charlton
chartres
chaucer
christell
christi
cissé
ck
clarissa
climate
colby
concepts
coney
conners
copley
cordon
cossa
coumarin
cpc
cracker
cromat
crono
cullen
cummings
cùm
dad
daniella
daughter
diogo
dios
dobby
dobzhansky
dodd
door
douglass
drax
drogo
drospirenone
eat
effexor
eight
emery
ender
environment
episode
epoxide
erwin
etienne
eurus
ewa
extensions
faa
fargo
fbc
flow
fluconazole
forte
frascati
friuli
fundación
gage
galatasaray
gangnam
garth
gaspar
gbc
gefitinib
geisha
ghrelin
gilchrist
gisaburo
giéc
giập
glycogen
goebbels
gombe
gq
grams
grave
greenville
greer
guardia
gulp
gỏi
haden
hala
hanako
helm
hitti
hrt
huston
huề
hwi
hyaluronidase
hôichi
ieee
iie
imatinib
inkigayo
insider
isomerase
ivanov
iveco
jagger
jansen
jl
jocelyn
jt
kabila
kano
karim
karluk
katia
kaylee
kelsey
khodorkovsky
khảnh
kilobyte
kinect
kirkpatrick
kirov
knoxville
korra
kołbaskowo
kris
kross
kwh
kệch
lash
layers
leda
legends
letters
lib
lilith
lions
liệng
login
lollipop
lonely
lusatian
lymphocytic
lạn
lặc
lức
mahabharata
manbij
marburg
marcia
mardon
marquez
marry
micron
mig
milano
mixen
miz
mocha
montaner
mossi
movies
muon
museveni
mysql
môtô
mún
mưng
mủi
nakło
narita
nazi
nào
netherlands
nfc
nhoài
niklaus
nur
nép
nẫu
nều
oc
ogura
oled
oo
orbital
organization
osborn
osorio
oxalic
paddy
palais
palau
palaung
palmitate
palmyra
pang
paredes
pca
pde
pelagia
perot
peroxid
pf
phenacetin
philipp
phượt
pilica
polka
polski
poncelet
powązki
prc
pregabalin
progressive
providence
psycho
puk
pączki
qq
queer
quánh
rabia
rare
recuva
retinoids
rhesus
rhino
riddick
rinaldi
robots
rocco
rokossovsky
roku
roussel
roya
rub
ryder
rạ
sabbath
salomon
saraqib
sarasota
saurashtra
schubert
seon
sheet
sheryl
shibuya
shinji
smetana
société
soldier
solitaire
somerville
soran
sous
ssh
staff
sterol
stiles
subject
sudoplatov
suga
sumac
superoxide
szlachta
sạo
tabasco
tani
tartrate
tenoch
ternana
tetris
them
thứ
thộn
thửa
ticlopidine
tite
tohru
topo
torpedo
toẹt
tracey
transistor
transylvania
trash
trey
trish
troll
tsai
tubman
tweets
tới
tậu
ulrich
urashima
using
uyun
uông
valentin
valjean
vasudha
viagra
vis
vostok
vía
wen
whitmore
wincenty
wo
womack
words
yamaguchi
yup
zamoyski
zì
ôxít
đén
đước
ər
##47
##52
##abi
##ais
##aji
##american
##americana
##asia
##azole
##bad
##bell
##bur
##but
##bệnh
##cape
##care
##cast
##cice
##city
##cks
##code
##cyclic
##dione
##dm
##eal
##ear
##edia
##enza
##eron
##eson
##gang
##gat
##hide
##ilda
##ines
##irus
##jah
##jian
##jk
##jou
##jutsu
##kra
##ký
##lang
##lima
##lles
##lmer
##nard
##none
##ode
##pha
##phosphate
##phía
##pon
##rda
##rita
##rna
##shed
##stadt
##tab
##tien
##tima
##tino
##trường
##ues
##vet
##vey
##wei
##wich
##wka
##yme
##zka
##zol
##ày
##áp
##ện
##íp
##úa
##điều
##đá
##я
##ن
##ải
##ẳn
##ộc
##ờng
##ứa
##ực
030
10cm
1607
1667
1680
1689
1704
1742
25000
261
309
337
343
454
475
485
50m
524
675
690
820
abl
administration
aeon
agree
aimee
aja
albion
alden
allnut
alta
altai
amiens
aminobutyric
anabolic
angier
ansi
appalachian
apt
argos
armanaz
arunachal
astaire
aída
b5
bamako
baniyas
banner
bashar
bassano
batch
beatbox
belov
bergman
biko
birkenau
bitdefender
blackburn
bocas
boombayah
bottom
braj
brezhnev
bronson
bubba
buchanan
bugsy
bugzilla
bx
bytedance
bárbara
bắng
bẹt
c17β
cactus
calculator
carat
carboxylic
carfentanil
castile
cathinone
ces
chacón
chairman
chama
chemokine
chiền
claritin
clavulanic
clonazepam
clough
cnbc
comt
concordia
connolly
coon
corbin
cove
crimson
croce
crusoe
cygnus
cárdenas
cáy
cóp
cứu
dada
daf
daly
darling
darnell
dekker
deuteri
dexmedetomidine
dhaka
dictionary
dioxin
dogg
domitia
dram
dynasty
dát
dʒ
dẽ
dửng
eaton
ebook
edf
edi
eeg
effect
eject
ephedrine
erase
estes
esxi
everything
ewing
executive
ext
fai
filippo
fillory
flan
flex
flowers
foxtrot
fushimi
fyodor
gambrelli
garros
garô
giong
gonçalves
gościno
grupo
guest
guillain
gumi
haddad
harps
headley
heerenveen
hennessy
hertha
hicks
historia
hiđroxit
hoạt
hogarth
hpa
husserl
hđh
hừ
iain
idris
iglesias
ikeda
ing
interregionale
ivanovich
jeanine
jena
jor
jos
josiah
josie
k2
kata
kermit
khalaj
khufu
kita
koroma
lakshmi
lange
lassa
lazlo
levin
limousine
linares
lipophilic
llb
lund
macbeth
machina
macron
maha
malaya
malcom
manufacturing
mardikh
marj
marth
masako
mathbb
matrix
matsudaira
mała
meiko
melanotan
mep
meze
microkernel
micronesia
midtown
minotaur
missy
miyazaki
mizuno
moderna
moleskin
moose
muerte
museo
musical
myriam
myspace
mới
nadal
naver
ndt
ngưi
nhem
nhiêm
nhéo
nhẩy
niamey
nis
nitroglycerin
noc
noradrenaline
noura
nói
nuckelavee
nuova
nxt
ohm
ombre
ondimba
opioids
oren
osina
pahar
palacio
palomar
paralympics
parsecs
pavilion
phileas
phin
phảng
pieter
pioglitazone
plateau
playback
plebiscite
pleistocene
plug
plutarch
pml
pn
polgar
polyurethane
pop3
poppins
portuguese
prachaya
primer
promise
puebla
put
pyrimidine
qa
quarter
queo
quở
rar
raza
reality
remus
rhône
riff
rima
rin
riverrun
rms
rodrigues
rsv
rúng
rảy
s3
sac
sadie
sage
saleem
sampdoria
sbt
schloss
sears
sendai
seventeen
señoritas
sharif
sheriff
shooter
shuffle
sibley
sids
siegfried
skinny
soa
somatostatin
soprano
soundcloud
stafford
stig
string
sts
studies
subašić
sunfuric
sunset
sweat
sòm
tamir
tarantula
taurus
techno
telenigsas
tetsuya
thanos
these
thief
thpt
tigris
tkm
toms
topalov
toyoji
translate
tretinoin
triestina
trzaskowski
trẻo
trẽn
trệch
tsp
tubocurarine
tày
u19
urocortin
usajobs
uta
vashem
vecni
verónica
vibrio
vigo
vila
vorenus
vuơng
waka
wayland
weinberg
while
why
widget
winslow
winsor
worf
wwf
xylitol
xạc
yao
yondu
yuji
yummy
zaz
zelaya
zoey
điểm
đêli
đênh
đễnh
đủi
świdnica
##38
##ations
##bắc
##cca
##cell
##cic
##court
##ctor
##cách
##cộng
##dian
##dow
##emon
##ender
##gis
##gm
##guard
##gues
##gum
##hak
##hima
##hole
##horst
##học
##icia
##iecki
##iers
##ill
##inic
##itude
##jon
##kal
##khan
##kowa
##lao
##lene
##lewski
##lik
##lya
##masa
##mene
##ments
##mới
##nc
##nicza
##nski
##obin
##oda
##ogo
##oki
##ongo
##ovirus
##pass
##peptidase
##quette
##rana
##rano
##rator
##rden
##rdi
##reau
##rity
##ror
##rrell
##sbury
##sford
##shev
##skiy
##sor
##sov
##sune
##tag
##tháng
##tors
##tov
##tril
##truyền
##tạo
##uronium
##wana
##wane
##xuất
##yad
##yar
##yya
##zaki
##zek
##zhi
##zuki
##ành
##òng
##łka
##ście
##śl
##ɪ
##̉ng
##ấm
##ởng
020
14k
1530
1569
1625
1638
1715
1733
1752
219134
363
432
515
544
576
5778
627
801
acetaldehyde
adenovirus
adrenoreceptor
aed
akb48
akio
alade
alaoui
alisa
alive
alu
amadeus
amc
amira
amundsen
apu
aral
aratta
arnie
ars
ask
audu
azul
babadzhanian
barnett
barone
bayard
beaux
belorussia
biebrza
binding
bitmap
blackpool
blackwell
bmp
bohinj
botkin
bride
broadcasting
browning
buspirone
buwa
bôlivia
bươm
bỡn
bửa
carboplatin
cardenal
carmel
carmichael
catarina
cbd
cd20
centaur
cephaloridine
cfo
chdcnd
chick
chikungunya
chronicle
chớn
cio
civil
clarisse
clifton
cmn
coffey
coin
combo
congress
construction
copper
coronado
cosmos
crack
crh
crime
cro
crosby
cta
cyanamide
cyclic
cyclopentyl
cysteine
cần
davey
dawg
ddr
dec
declan
demodex
denim
desomorphine
diethylstilbestrol
dir
dma
dolny
douala
dougherty
doxorubicin
duffy
dánh
díu
dặc
eculizumab
ehrlich
elements
emilie
etanercept
everglades
exeter
fabian
fatou
ferrer
formaldehyde
forward
franko
frida
gaelic
gallic
gallipoli
ganymede
gaviria
gdanska
geforce
gekko
geoid
ghìm
gift
gisela
goodbye
goto
grenoble
groove
grosseto
groups
grunt
gz
hate
heaviside
henkel
hertz
hurtado
hydrochloric
hyperdimension
hế
hớn
illuminati
immunoglobulin
interface
internationale
irc
irkutsk
jableh
jailbreak
jana
jara
javert
jeanette
jelenia
jingim
jk
jordana
jtbc
kantmiss
katalon
keel
ketcham
khuvực
khựng
kibbutz
kilowatt
komeda
kono
kringle
kumamoto
l2
lap
lasker
laval
leh
levonorgestrel
lira
listerine
loprazolam
loyola
lsrael
lumumba
luyten
lysosome
lỉnh
lợm
lụn
mackenna
mallow
mana
manami
mande
mans
maori
mariadb
marin
maslow
maud
maury
mạnh
mbeki
mcclure
mcmurphy
med
meet
mein
merry
methyltestosterone
metolazone
metyl
michaela
microgam
middlesex
misthios
mình
mormon
mrp
msg
mtor
mukhtar
murakami
muzeum
mão
mém
narnia
nascar
neural
nghệ
nhiểu
nhl
nishi
norm
norte
nozomi
ntsc
nucleon
nutritionist
octavian
odra
oem
onedrive
ophiuchus
oppenheimer
orient
orontes
ossetia
otpor
palacios
parton
pci
pedialyte
peer
penryn
perindopril
perm
peterburg
pheromones
phosphat
phytic
phài
phèo
pinocchio
plains
planeta
plastics
polycarbonate
pont
presbyterian
proteoglycan
psg
qcd
quercetin
quẫy
quắc
quặn
qwerty
rad
rapids
rasm
rd
really
reef
rei
reverse
rifaat
rifamycin
rla
rockwell
romulan
ruangroj
rupi
rôma
s6
saan
sadler
sakamoto
salernitana
sanderson
sarge
sas
sata
scandinavi
schaeffer
scratch
scripps
seas
sertraline
señorita
sgr
shake
shakira
shih
shirakawa
shut
sidibé
sinaloa
sindh
siopis
sĩ
smc
soap
sonnet
split
stanag
stanislaw
stavka
steiner
strahm
sudoku
són
t3
tarly
tempest
tempo
terblanche
teszler
textedit
thoắt
thucydides
thảnh
thờilượng
tig
timmy
timo
tinker
titanfall
topper
toremifene
toyokuni
travel
treadstone
trees
tumblr
turkestan
twilight
tyrone
tâp
tịa
ubs
ulaanbaatar
ulysses
unagi
unhcr
uno
urokinase
ushahidi
valve
vans
veldt
veracruz
vf
vincenzo
voronezh
vulgaris
vọc
wadiya
waltz
wc
wear
weimar
weston
whitopia
whittaker
wish
ww
yoshiko
zhuz
ziegler
zur
£vào
ãn
ðiều
đét
đẫ
ẹc
##66
##adine
##ako
##anes
##ark
##away
##bai
##bed
##bina
##bium
##blue
##borne
##bty
##cale
##cial
##comb
##conazole
##ctic
##cá
##dance
##date
##dell
##derm
##dun
##dựa
##echi
##eira
##eres
##erium
##erman
##esi
##fene
##fera
##ffer
##fil
##gem
##genic
##gle
##gor
##hard
##hari
##has
##hiệp
##hoá
##inia
##itas
##itis
##iwa
##ière
##jiro
##js
##lana
##lberg
##lese
##lity
##lius
##mana
##mierz
##nath
##neh
##ngi
##nil
##omi
##ophobia
##oria
##orum
##otide
##par
##parin
##phụ
##pool
##pot
##pr
##quel
##quet
##rand
##real
##rero
##rius
##rma
##rno
##rose
##roup
##rsk
##rất
##saurus
##see
##sition
##stat
##sure
##szyn
##thì
##tom
##tore
##toxin
##tric
##try
##tế
##uja
##uy
##vik
##vine
##vre
##wah
##west
##xxx
##yd
##zam
##zation
##zawa
##zno
##àng
##ách
##âp
##ñez
##ùi
##ęcin
##́u
##̃i
##и
##о
##ẳng
##ẹo
##ểu
##ờn
008
1018
1024
10m
1225
1570
1573
1632
1701
1766
2026
2035
263
294
308
391
406
416
441
452
473
529
579
667
686
7500
790
824
830
833
860
990
aarav
abakumov
abdallah
adaline
ade
admm
adr
affairs
afrique
airplay
alamo
alanine
alawites
alo
amid
amis
ammoniac
andres
anthracycline
anticholinergic
antofagasta
anwar
aoi
apes
aramaic
aran
around
asin
assange
ativan
auger
baclofen
baelish
bardo
batov
bauhaus
bayda
becke
beecher
beijing
belladonna
bergapten
berners
betancourt
beto
bisphosphonate
biễu
blanchard
blythe
boardman
bolko
botha
brat
bremen
britain
bryant
bunch
bằm
canonical
carbohydrat
caribbe
carvajal
cedar
cedaw
ceftazidime
ceftolozane
ceylon
cgi
chain
chennai
chikorita
chiêc
chuckie
citalopram
clipboard
cochise
collective
colton
commander
conference
connors
consolidated
convert
converter
corelli
cortana
could
cranston
crest
crizotinib
cutepdf
cvs
cw
cyclase
còm
cạch
darío
deadshot
delacroix
denton
denys
dich
diêu
dk
domenico
donny
doodle
draconis
draft
drone
dubov
dunne
dust
dằng
dịnh
easton
ebenezer
ecmo
eichler
elbląg
elysium
error
espejo
etylen
eula
ever
ext3
ezetimibe
farms
father
fee
firestorm
fit
flick
fontana
fragilis
fries
frog
fsa
für
gables
gadolinium
galuska
geneve
geraldine
gerardo
getman
ghazi
giancarlo
gianh
giants
giulio
glycerol
glyphosate
gonzales
granny
grunwald
gtk
guadagnino
gulag
gông
hafez
hamawi
hanzo
hasbro
hedwig
held
heme
henshaw
hepa
herr
himalia
hippo
hish
histidine
holliday
humberto
hwa
hydrocacbon
ichiro
idea
ifnγ
imax
ipados
isaiah
ise
jacket
jacoby
jafar
jb
jiang
jm
junction
kaki
kama
kaoruko
karkonosze
karoo
kbit
keaton
kenshin
kerr
khal
khalid
khalifa
khalil
khotan
kiara
kibera
kieran
kilograms
klan
knowledge
koichi
kolkata
kondo
kr
kumaratunga
kurdistan
laba
lac
lakota
lansdale
larissa
larsen
later
leona
leviathan
liang
libertadores
lien
lilia
lipit
liv
liếng
loader
logistics
lovers
lte
lyceum
lía
lợi
malfoy
marietta
martyn
martí
massey
mastaba
matisse
mcgee
mclovin
meier
memnon
mephedrone
mercurio
mers
methandriol
methoxy
methoxyflurane
miconazole
minivan
minute
mls
mmo
mobifone
mom
moretti
mott
moóc
mrx
much
myriad
mặt
napalm
nerve
newt
nghiệp
ngấn
nie
nihon
nippur
nitrazepam
niña
nkosi
noh
nouvelle
npd
núc
nập
nịch
oddball
odo
oedipus
ofelia
ogooué
ordre
oscorp
ova
ovid
oxfam
oyama
oắt
oẹ
padrón
paine
pair
paliperidone
pde4
pegylated
peptidoglycan
phia
philo
phùn
pk
placebo
plain
platon
pollard
pond
pons
potts
pow
prayuth
premios
prilocaine
prim
primavera
procter
prulifloxacin
pumpur
pusheen
qada
quantum
quechua
quinoline
qủa
raaf
racibórz
rafer
rauch
rayna
rebel
regional
regnum
respawn
riccardo
rim
ritter
rivadeneira
roca
romo
roxanne
rutin
rằm
sacubitril
sahagún
salmeterol
salta
sankt
scorsese
sed
semyon
sham
sherwood
shiite
shō
singing
sinuessa
sj
skitter
smythe
snoop
soba
sokrates
solís
spark
ssi
stockfish
streets
strucker
study
sylvie
syndrome
szkoła
szydłów
sượt
sờn
tac
takagi
tankōbon
tashkent
tasmanian
tedtalk
tetany
thabo
thalia
thin
thingiverse
thionyl
thiết
thompkins
thorpe
thriller
tj
tma
toretto
trimegestone
trumpler
tục
tvp
tât
tổ
uninstall
universo
upland
urbana
utrecht
valery
vao
vasquez
vat
vedette
ver
versace
vigabatrin
virion
virtanen
visicalc
viviana
vonfram
wash
watkins
wies
workbook
xhosa
xinhgapo
xộc
yaoundé
yaqut
yuen
zakharov
zemus
zephyr
zu
ávila
étienne
ðây
đn
đìa
ɑːr
##04
##100
##42
##48
##62
##96
##alan
##ando
##bas
##beh
##bic
##bka
##blin
##bórz
##cacbon
##camp
##chan
##charles
##chem
##chow
##cis
##cky
##combe
##cp
##ded
##dov
##eak
##eff
##enda
##ettes
##fon
##foot
##force
##four
##fried
##giáo
##gnan
##hab
##hane
##hc
##hic
##hid
##hoạt
##hông
##hải
##icy
##idone
##ige
##ij
##ija
##ilo
##itic
##its
##iy
##ject
##kinase
##kker
##loma
##lp
##lter
##mobile
##mặt
##nata
##nero
##nhưng
##nius
##nori
##né
##ocin
##old
##oom
##ores
##own
##pamide
##phi
##phin
##prazole
##ql
##r1
##relin
##rge
##rh
##ridine
##rotein
##rry
##scher
##script
##sher
##show
##sic
##sted
##stock
##suk
##suko
##tad
##tail
##than
##thu
##tini
##tröm
##tsch
##tty
##tung
##tập
##urt
##vai
##vii
##vini
##vocaloid
##wit
##wolf
##xide
##zler
##zyme
##ần
##óc
##ód
##óng
##ùng
##đặt
##łowice
##ớc
##̣m
##η
##р
##т
##ảnh
##ẩy
##ệm
##ổi
##ỗ
##ớc
11h
1517
1520
1521
1560
1590
1610
1611
1707
1741
2028
272
284
306
338
342
362
376
3rd
414
428
444
455
4chan
537
561
575
622
635
703
726
888
981
a8
ach
achimota
agatha
agency
agustín
akopyan
albedo
alemanni
alfie
alhambra
allopregnanolone
allopurinol
alpine
also
amiodarone
aml
anhydrase
appa
aprile
arch
armia
ashoka
asma
atiso
atmos
augusta
autumn
babur
baff
bainbridge
baka
bakery
balto
bastia
battery
bcg
belicoff
benedictine
beowulf
beverley
bhakti
biomarin
bishnupriya
blakely
bluestacks
bonaire
bookmark
boomer
braf
branch
bravia
breed
brethren
broadcast
browser
bulldog
burrito
buột
byck
byrne
bõ
caav
calgary
called
cambulac
capote
carbapenem
carfilzomib
caro
carpathians
carton
castañeda
cento
cerivastatin
charts
chevalier
chevy
chạ
ciampino
cisatracurium
classics
clinafloxacin
clint
clooney
cmc
cml
cmv
cofell
combat
concept
connections
conner
corner
corticosterone
corto
cortés
cottage
cpi
cris
crt
cruchot
crunchyroll
créteil
cyrillic
czorsztyn
cúa
daewoo
daiso
darkush
dayton
deaminase
deet
deluge
denham
desire
didier
digitalis
dipeptidyl
dokolo
dona
dowling
dramamine
duhur
duval
dv
dwarf
dúng
dąbrowski
eef
eggs
elo
encyclopædia
eng
eplerenone
erdogan
ergot
espinoza
estrane
excellence
ezekiel
faber
fahrenheit
fanconi
fatuma
ferrara
ferry
fila
flonase
follow
foppa
forms
freebsd
frelimo
frisia
fsln
fumarate
gabi
galvez
gamora
gbagbo
gekkouga
georgie
ghiền
glamour
glock
glycosaminoglycan
gmo
gohan
golem
governor
graf
guderian
guild
gul
haha
halle
happiness
harbard
hauser
hawala
heidelberg
heine
helmut
her2
hera
hirbnafsah
hiroyuki
hmg
hobhouse
hongdae
hotspot
hoạc
hsiung
huerta
hunza
hyakunin
hõm
iccrom
ichon
ie
ina
inbox
incorporated
innocent
interscope
iota
isirika
isle
isshu
item
itraconazole
iàm
jacobus
jefe
jma
jolie
juniper
justo
jürgen
kabir
kagoshima
kala
kao
karamy
karat
kashubian
kentridge
keystone
khản
khều
kickboxing
kin
kobylanka
koda
kola
koopmans
kraft
krueger
kếch
lamborghini
lanagin
lathan
launch
leader
lesentine
leung
lidia
ligo
lingua
lobos
loren
luo
lềnh
lỳ
m4
m7
malamadre
malhação
manu
mariah
martine
masterchef
mayra
mayweather
mazur
mccullen
mcmahon
meca
menezes
merritt
mes
meyers
mh
midas
midazolam
miek
minkowski
mnh
moncada
monsters
month
montréal
monza
morello
mos
moussa
muddy
mueller
mukharram
mulligan
musgrave
naacp
nacho
natura
nauru
ndh
neapolis
nehru
nellie
nem
netball
nghê
ngáo
ngổn
nhac
nhặng
nida
nld
noire
nonbenzodiazepine
noodles
noomi
nor
normandie
northrop
ns5a
nuggets
nvdstt
nằng
oaks
oaxaca
obasanjo
octyl
oko
opt
organophosphate
ori
ossa
ostia
oxidase
oánh
pacheco
painting
palbociclib
panthers
parody
partition
paulie
pegasi
perl
photocopy
phẩm
pincus
pinyin
plutoni
pmt
polar
polonaise
polynésie
polyphenol
pontificia
posix
potomac
procaine
progynon
pulsar
pythagore
qudsaya
quit
quneitra
raja
rank
remember
repaglinide
rhaetia
roa
robles
ron95
roscoe
réo
rờ
s8
sail
salim
sangre
sarcoid
sarcoptic
sarin
satellite
satow
savoy
scaramanga
scheler
scoville
seiya
selection
seligman
semitic
sentry
shamash
shaughnessy
shea
sheep
sheridan
sherpa
shina
shinichi
sifton
signal
sikkim
silvana
snip
snipping
somaliland
soán
soạng
spínola
steroids
stillwater
stratemeyer
strzelce
sulli
survey
sx
symon
szymon
sổng
tadlock
talking
tama
tambo
tania
tannin
tarnów
tchaikovsky
techcrunch
teicoplanin
tele
thalidomide
their
thom
thàng
tiển
tocilizumab
together
tohoku
tomboy
tori
toriyama
toáng
trade
tran
tritak
trudeau
truyền
trybunalski
trợt
turnbull
tutu
twi
twitch
tằn
tỏng
ua
ubbe
ugarte
ukulele
ustronie
v2
vanađi
vanguard
varna
varsava
vas
vee
vito
vivax
vodafone
vẳng
vỹ
wanderers
whistle
whitey
wieluń
wiener
wilkerman
winn
winnipeg
wolverhampton
woocommerce
wyler
xenon
xùm
xị
yelena
youssef
yui
yuriko
zabel
zenith
ziggler
zofia
ðừng
đioxit
đủ
đếu
świat
αkg
ạch
ại
##23
##500
##91
##ake
##anne
##apple
##aq
##ault
##bari
##bius
##biểu
##bm
##boi
##brin
##buri
##bản
##chowo
##cini
##cot
##còn
##dahl
##dana
##dina
##dman
##dom
##dronate
##dzie
##dów
##edo
##enta
##erin
##eton
##fall
##ffin
##ffy
##fir
##fontein
##garh
##gliptin
##hd
##hene
##hey
##hk
##hotep
##hydrate
##hàn
##icon
##idase
##ienne
##iji
##illin
##imi
##imidazole
##inh
##isi
##itel
##itor
##itos
##ivo
##ières
##jska
##kyo
##kyō
##lard
##lette
##lford
##linger
##mans
##market
##mber
##mou
##nai
##naka
##nces
##ned
##nej
##ngôn
##nhận
##note
##nts
##ocha
##olin
##oside
##pam
##phic
##phine
##phon
##pm
##pre
##rki
##rms
##rock
##ronate
##rowo
##ród
##sea
##seo
##sti
##sworth
##tall
##thay
##thiên
##thuỷ
##tya
##tzer
##uche
##ugi
##unga
##uric
##vana
##vật
##wica
##xol
##yen
##yth
##áng
##áo
##ầm
##ä
##î
##ăc
##đóng
##đưa
##định
##īn
##ǐ
##̉a
##ο
##й
##ين
##ội
##ừng
##ル
1370
1450
1654
1683
1kg
269
2700
2m
2x2
30000
352
359
361
398
407
413
417
477
50000
509
545
547
665
abloh
abrams
abubakar
abwehr
agi
agnès
aibileen
albani
albrighton
aleksey
amazing
amazonas
ampa
animalia
antiochus
anya
anyadike
apk
aragonit
aristophanes
armani
array
artists
asher
ashes
asociación
asp
asphalt
ast
ath
australian
ave
avenger
awakening
bakuto
balan
baltistan
banco
banir
barrier
bartender
bartok
bbq
belo
benoit
beri
bernoulli
billion
birthday
bk
boeuf
bola
bold
bona
bonny
booking
boost
bop
boyka
bradshaw
brando
brda
brilliant
brit
brockhart
bronisław
buena
buffy
bulgari
cacbonic
cake
calcium
canaima
cang
carboxylate
cargill
carlin
cars
cedric
cedynia
cellular
cempaka
cftr
challenger
chloramphenicol
chloroform
cholinesterase
chõ
chịch
cielo
cim
cine
circus
clerk
clock
clostebol
clouseau
cobra
coleues
collier
collingwood
comeback
compa
confirm
constable
coop
cordero
cpt
craft
cristiano
custer
cyanua
cyber
cyp1a2
cẫng
dalio
debrecen
decarboxylase
dial
dietyl
disorder
displays
dole
dolne
drag
dynamics
echelon
echeverría
ehrmantraut
ekman
elliptical
elma
emp
encyclopedia
endo
enmerkar
erikson
esmeraldas
espinosa
esr
etta
everdeen
fabiola
falciparum
fallen
farah
farben
fathia
fibrate
fifi
fighting
flair
flamenco
flipkart
flushing
fpt
frozen
fs
fv
g2
gakushuin
gallardo
gamal
garifuna
gayaza
gender
genève
giardia
gióng
giớ
giụa
glutamine
glycosid
goldilocks
goody
gothenburg
gottlieb
gradien
gravity
grumman
guadalajara
gượm
gấm
hacking
halifax
handbrake
hattie
hayflick
hellas
hem
herro
hertzsprung
hessen
het
hinkley
hoodie
however
hoyos
hui
hummel
hussite
hydroxychloroquine
hydroxyprogesterone
hừng
ibbetson
ik
imbrium
include
inoue
iotua
ipatiev
ips
irvine
isakov
ivorian
jackal
jagiellonian
jaramillo
javiera
jeffries
jenn
jiwon
johnnie
johor
jolly
jongno
jubilee
jungle
jurassic
kachin
kenichi
kew
kfc
khuyếch
khỏa
khựa
klerk
koizumi
koji
korczak
kosher
kp
kpa
krug
krystyna
kudai
kufuor
kurkotkin
kyūshū
kế
ladder
lanolin
larson
laszlo
leela
legnica
lelyushenko
libreville
licinia
linear
lomax
loratadine
loud
louisville
loving
lqg
luciano
lucien
lucilla
ludlow
lundbeck
lungu
lussier
luzon
lập
lắt
lữa
madjozi
magneto
magnum
mahathir
mahlangu
mahmud
mahé
maksim
malherbe
mamluk
mansfield
marge
marguerite
marisol
markus
marseilles
mazzone
mcintosh
melon
mennonite
messiah
mikoto
mineralocorticoid
miri
missingno
mitra
mob
molise
monga
mousse
muhambal
mulheres
must
müntze
nación
nair
ngỗ
nhiện
niagara
nita
nitrile
nix
nobunaga
nomura
norbert
nouakchott
npv
nyquist
néstor
nếu
obra
ojo
olanzapine
olympiad
ons
oppo
ox
palawan
palette
pampinea
paramaribo
paraíso
parry
passenger
pauli
pax
paxton
pellegrini
pepes
peregrine
pid
piece
pierogi
pinot
pipe
playlist
plough
pomnik
poprad
prewitt
printing
progress
propranolol
propylene
prosper
prowse
puente
puerta
pull
pullo
purcell
pure
puławy
qc
quattro
queso
rafi
raid
rance
rani
rasmussen
rađa
renard
repair
request
rille
ruben
ruỗng
rùi
rẳng
rống
sabburah
sabina
saeki
saints
salah
salhab
salma
sandro
sangpotirat
saratov
saskatchewan
satoshi
satsuma
sciences
scout
seppala
severus
señora
sga
shabu
sheri
shonen
showbiz
sikes
silas
sirleaf
sirolimus
ski
sle
slytherin
snr
sonja
ssid
stańczyk
stratton
stuff
synth
sống
tamanah
tangles
tanox
tanto
taste
telnet
tembo
tempel
tensor
ter
thebes
thị
thuồng
thè
thức
thỉ
tiny
tiếm
tolkien
trading
tramp
transferase
trastevere
trazodone
trọng
trêngaon
trẹo
tsakonia
turkish
tylosin
tyrocidine
tôkyô
tậm
ugh
umar
valkyrie
valproic
vance
varys
velasco
vigilante
vinashin
virgilio
ví
voivodship
vonnegut
vote
vsphere
vấn
warp
weasley
weir
welcome
westwood
wheel
working
wrestling
wwdc
xuxa
xàm
yamamoto
yoda
yogi
yokoween
yoshihime
yue
ý
zac
zanza
zardana
zoo
ẳm
##2o
##39
##63
##71
##87
##aan
##acetate
##alin
##anat
##app
##asy
##axit
##bashi
##bile
##biến
##boa
##bong
##bots
##bsd
##burst
##cake
##cation
##cji
##corn
##cup
##cycline
##dler
##dz
##elman
##ener
##feldt
##flower
##flozin
##fre
##fx
##gau
##gner
##group
##gura
##gów
##hae
##hani
##hardt
##hita
##hle
##hz
##hợp
##ibe
##iche
##idge
##idis
##inda
##iones
##istic
##isu
##iyya
##izer
##jean
##jna
##kaku
##khoảng
##kill
##kind
##kor
##lani
##leigh
##lion
##litz
##llah
##lman
##lorua
##lson
##matic
##methane
##metric
##michael
##mite
##mmer
##national
##nay
##nek
##nich
##nner
##nước
##obu
##och
##oir
##oire
##ombe
##omo
##ophile
##oth
##owsky
##phen
##pháp
##pis
##psin
##quỹ
##raq
##rase
##retin
##rgic
##rska
##ryl
##rằng
##shu
##sier
##sio
##sna
##ssen
##syl
##syn
##tada
##text
##theus
##tp
##trang
##tream
##tropic
##tương
##udi
##urea
##usion
##ved
##vier
##vka
##vùng
##weed
##wyn
##xis
##yani
##yō
##zik
##zyna
##ół
##ơc
##̣u
##ạch
##ệp
1250
15000
1531
1595
1618
1633
1649
1652
1705
1718
1754
259
2y
313
336
3600
408
424
464
495
498
503
5100
521
531
538
546
5500
577
613
645
649
652
657
681
722
783
7z
804
890
945
9mm
acamprosate
acardo
acrylonitrile
adapalene
adb
addy
adelie
adenine
adsense
aedile
afrikaner
agh
ahem
airbender
akaky
akhenaten
akhtarin
alcaman
aldous
alia
alina
allmusic
althea
amenhotep
amh
amharic
amlodipine
amores
amour
amworks
androstenol
angkor
aoki
arak
arno
arusha
asen
assembly
astrid
aten
authority
axe
baile
balô
banm
barclays
barré
basham
basia
bea
beecham
belimumab
bellevue
bend
benue
benzylamine
bfa
biwa
blench
bleu
bnc
bohdan
bok
bomberman
border
bosco
bphone
brace
bravely
brca
brigham
bruges
bueno
buick
bungee
buzzer
byung
c6
cagliari
callo
calvert
cambri
cami
caras
carifta
carinae
carleton
carnosine
casale
casein
castilla
castries
catholic
catwalk
cenci
cetaphil
cetuximab
chaminade
chau
chernus
chilena
ching
chirus
chái
cisneros
citadel
cleo
closer
cmax
codogno
colum
comunale
condé
coolidge
counter
coventry
crew
croix
csp
cuentos
curcumin
curley
cyp2c19
cytosol
dac
daegu
daksha
damwon
daw
ddu
deanna
deccan
dede
degaton
derbyshire
desde
diabaté
dion
dipyridamole
discord
donal
drug
dsp
dubois
duchenne
duck
efl
ell
emirates
empress
eno
epi
eridu
erie
errol
esl
extension
factum
farris
fdc
fellowship
ferritin
ff
fielding
fiesta
figaro
filezilla
fix
floacetat
frankia
frei
frente
fubini
fyers
gabrielle
gagarin
garrix
gaynor
gebru
geigy
gente
gilmore
glam
glinda
glucocorticoids
godoy
goldie
granite
graphics
greenberg
grierson
gryffindor
guns
gú
główny
gạn
hajj
halaqim
halogenua
hausa
hayek
header
hemochromatosis
herat
hershel
hester
higher
highgarden
highland
hittite
hollis
hosni
howell
hsd
huey
huygens
hvat
hớ
icj
imp
indra
indy
intelligence
intelligent
iridium
ishii
jacq
jagan
jeffchang
kamara
kanto
kashubia
katarzyna
kaulder
kaya
kazakov
kelley
kenai
khutulun
khvalynsk
khõi
kipchak
koo
kosciuszko
krajowa
kras
krauss
kreyzer
kronos
krościenko
kumbh
kur
kwenthrith
laika
lamar
landers
larraín
leandro
lear
lebron
leia
lengua
less
liệu
loại
lofexidine
loreto
lose
loxley
lr
lưa
lực
lẩy
lốn
maiden
making
makrana
malibu
marcello
marianowo
marines
marlin
maroon
married
maryann
mather
maupin
mazurka
małopolska
mccormick
meadows
medicaid
medlineplus
melquiades
merriam
mesh
mesterolone
method
methylestradiol
mgqwetho
micky
mieczysław
mikael
mikasa
minds
mineral
minos
mirabal
mirta
miura
mojito
monk
monoamine
monogatari
moraes
mormont
mountains
msn
muggle
muji
mulhouse
murowana
musharraf
musician
muôi
mấp
mẽo
nacl
nadirah
nagano
naiman
nanopatch
nefazodone
neta
neumega
nghiễm
ngát
nhậy
nhẹm
nhẹp
nightcore
nik
nikola
nitrogen
njoku
noda
noise
novobiocin
num
nut
nơtron
obafemi
octavio
ohpa
oreo
orinase
orotate
orquesta
ors
orsini
osvaldo
outis
oxacillin
oxo
oằn
paco
pain
pali
pallas
papaverine
passport
pearce
perón
peta
phenylephrine
phillipines
pháthành
piaseczno
picchu
pinewood
pirate
pires
pivert
pleiades
pnp
posner
pran
primatech
printers
promotion
proof
proogenogen
provençal
push
pyogenes
pyrethrin
pyrex
qi
qian
qu
quart
quarterly
quesada
racemate
ranitidine
rapunzel
rayburn
realme
reanimation
recorder
ree
regio
region
reinhold
rennes
revie
ribeiro
rickon
rn
rolex
rone
rosatom
rosings
rota
rubens
rynek
ré
rả
rỏi
rỗ
saavik
sacred
saiyan
salbutamol
sale
salerno
salinas
samper
santino
sanín
sapporo
saraiki
sarajevo
sash
saunière
scopolamine
scorpius
scottish
selenium
seyfert
shadows
shai
shinhwa
shizuoka
sola
songhay
soóc
spooler
sportivo
stalag
sternberg
suit
sukhnah
sumitomo
swann
syed
synestia
szymanowski
sụm
takaichi
tally
tandy
tarō
tawan
technetium
technical
teodoro
thaddeus
thierry
thérèse
théâtre
thồ
tiapride
tick
tlc
toàn
tod
tokiwa
tokubei
tommen
tooms
townley
treblinka
trigun
trio
triptan
triển
tropez
trospium
trout
trê
tsukuba
tubbs
tyree
uav
uhura
unarchiver
ura
urate
uri
utopia
vakhsh
varenicline
variety
vash
venetian
vetvix
vir
virgo
vivienne
vm
vuitton
vược
vệc
wacław
wesson
witkiewicz
wits
xs
xuý
xyz
zodiac
île
ōi
śródmieście
ất
ẹp
ọp
##03
##08
##1a
##34
##56
##57
##59
##76
##79
##97
##abad
##acy
##aea
##als
##amer
##asi
##atin
##ating
##atum
##avi
##avia
##azi
##bbs
##bda
##bei
##bica
##bicki
##bno
##bri
##bóng
##bảo
##cano
##cd
##cept
##ceptor
##china
##chủ
##cide
##cott
##cuộc
##dant
##dao
##dase
##dek
##dmann
##dnik
##dock
##dot
##dze
##eia
##emaa
##ento
##erski
##eru
##esca
##esis
##estradiol
##fat
##father
##fford
##fina
##fra
##genes
##george
##gestone
##gno
##hel
##het
##hf
##hora
##hra
##hran
##hue
##họ
##iance
##ible
##ils
##iman
##inium
##ior
##ivity
##iên
##jaya
##jewo
##jski
##kana
##kb
##kei
##khu
##kki
##kley
##kman
##kone
##kong
##kula
##kết
##lak
##lines
##lkan
##lord
##lore
##lton
##lutide
##lí
##maa
##mand
##marine
##mh
##mics
##mira
##mot
##mua
##mô
##môn
##nac
##nae
##nch
##nge
##nguyên
##nish
##nowice
##nter
##ntina
##obarbital
##oche
##ough
##pah
##pdf
##pei
##peptide
##phổ
##plus
##pv
##quinoline
##rado
##razole
##rell
##rez
##rier
##rito
##rove
##rri
##rti
##rton
##score
##shou
##sik
##sima
##sity
##sive
##skey
##smann
##sphere
##sser
##stick
##stis
##suit
##szów
##sóng
##take
##tari
##tay
##tei
##thuỵ
##thy
##tico
##til
##tite
##toku
##trái
##tzig
##tổ
##uge
##uis
##uman
##upa
##uso
##v3
##vac
##vice
##vil
##vić
##wali
##wiecki
##wig
##william
##wiński
##woo
##yal
##yas
##ym
##zah
##àm
##ária
##élia
##ówek
##ôm
##ôt
##ü
##đông
##đạo
##đặc
##ę
##ũ
##ợc
##ưới
##ướng
##ʊ
##̉y
##ạm
##ạt
##ắp
##ẹ
##ộng
##ớm
##ス
100000
1001
1408
1539
1580
1582
1636
1645
1666
1668
1675
1681
1751
1km
278
292
30m
329
349
354
356
377
399
421
442
462
517
523
536
553
565
587
632
638
656
672
678
748
755
758
826
99m
a12
aaliyah
abrasax
abydos
aceh
acetic
acscn
aerosol
aflibercept
agave
ago
aim
alchemy
alder
aline
alirocumab
alprazolam
amador
amu
anambra
anastasio
androstane
annecy
annuum
answer
aphrodite
applet
aquarii
arachidonic
arenas
arpent
arsb
asante
assistant
aswan
audacity
augustin
aus
autobots
autocad
avandia
avant
awolowo
bakr
balt
barkley
baudelaires
being
belli
belt
bengali
berman
betancur
bevacizumab
bionis
birr
bits
bizarre
bliss
boogie
borgo
borja
brasília
brill
bronya
broxton
bundy
bungari
burr
busulfan
butterfield
c17α
caetano
camilo
campinas
campylobacter
canaletto
cancel
caravaggio
carbs
cardinal
cartier
cashmere
cassius
castrol
catalaza
catelyn
cd44
cdo
cetirizine
cfr
chaka
champ
champloo
champs
chappelle
chapple
chelate
cheung
chitty
chloramine
choe
chorzów
christchurch
chromebook
chảng
cll
clu
cmp
cnpc
cobo
cod
colors
contemporary
contigo
coulibaly
cpm
cremli
crimean
criminal
crisis
cristian
cuc
cue
cumbia
cyclooxygenase
cyclops
cytisine
czapski
dag
dalbavancin
decca
deepwater
degas
delphine
dem
demethylation
denisovich
dhcp
diatomite
dicloxacillin
dimer
dinoponera
diphosphate
disease
divine
diệc
djokovic
doripenem
drod
duchy
duggan
duma
dxm
días
ebitda
edmond
edouard
effects
eichstätt
ergotamine
erick
eros
etynodiol
eustachian
example
exit
falkland
fibrinogen
figueroa
firefly
flumequine
fonts
foxit
francavilla
franciscan
fruit
fukuzawa
fusoya
féminine
g8
gaffney
galeria
gando
ganirelix
gannicus
garland
garrison
gascon
gehry
gf
giga
girolamo
giụi
glaxo
glf
goering
goethit
going
gonna
government
gọi
gramicidin
granville
greenwood
grenadines
grs
gueugnon
guk
guộc
gồm
habilis
haeundae
hagan
hagen
hailey
hamza
haruka
hawai
hba1c
hcc
heidegger
heimlich
heizei
herod
hijos
hiêu
hobart
hoffa
holika
hombre
hons
hospital
housen
humbaba
hungari
hurwitz
hyper
hyperlink
híp
hến
ichi
indigo
ingelheim
integrin
iop
ivermectin
iz
jaipur
jano
jed
jeune
jian
jpy
kaduna
kalinske
kam
kamieniec
kanagawa
kanzi
karla
kassel
kava
keats
kefir
kenshiro
kershaw
khariboli
kib
kilimanjaro
kilogam
kinsey
kitt
kiềng
koala
korda
koshevoy
kovu
książ
kubelik
kumaon
kurono
kutuzov
kwa
kōken
lace
lakes
laplace
laroche
lavigne
lazer
leche
ledipasvir
leech
lehman
leonhard
leonor
letras
letter
lipiny
lister
lithuanian
livestream
llosa
loire
lopinavir
lubelski
lucha
lutheran
luís
lv
lử
m8
macaron
maddison
madeira
madhya
magus
maho
makerbot
male
mamma
mandarin
many
maple
marais
marbury
marcy
mardi
marijuana
marike
maritza
markinson
marsala
mash
masterson
maximum
mayor
maysles
mazovia
mazowiecka
małysz
mcat
mccann
mccourt
medea
merit
meryton
methane
methysergide
mielno
milli
millican
milligram
milner
mirko
mishima
misrin
moana
modrić
mogami
molière
moravian
municipal
mutual
myra
mômen
mở
nadine
nadph
naranjo
ncap
ndc
ngh
ngoài
ngoèo
nguesso
nguyen
nhuốc
nimrod
nmr
noa
nobuko
ntsb
nuớc
nyarroh
obote
oca
ohh
oiran
oligosacarit
orf
ostródzki
osun
ouattara
pamir
pancuronium
panitumumab
panorama
paraná
parish
parkin
passion
past
pazzi
pentazocine
perawat
petrovich
pfeiffer
pfs
phango
phase
pháp
phelps
philipin
phraya
phylum
piotrkowska
piscium
pisco
pixie
pmr
poesía
poetry
pony
ponzi
ppo
prakrit
prensa
problem
progeria
prô
pulse
puppy
puromycin
qardaha
quicktime
quạu
radha
radziwiłł
ramelteon
rami
raster
rat
reginald
regionalliga
reiden
renee
ressler
retinoic
returns
rhys
riddle
ride
robo
roc
rocks
rofecoxib
rolando
romulus
roper
roulette
rpf
rudd
ruslan
ryusei
rạo
saarland
sadness
salqin
sampson
sanborn
sandler
sangro
santal
saralegui
sarmiento
sauvignon
savoia
sayer
schott
scooter
secure
sem
senhime
serb
serm
seta
shackleton
shapeways
shimbun
shinagawa
shorty
showcase
showtime
sinatra
sinmun
sion
skipper
solarwinds
soleil
somos
soones
sowerby
spix
sq
ssris
staffordshire
staphylococci
stato
stitcher
suchań
superoxit
swabia
sweetwater
syfy
sykes
sí
sú
tabitha
taftanaz
teamspeak
teeses
telex
tenor
teramo
terre
thadeous
thanou
thawornwong
thebe
therese
thiol
thuôc
thú
thy
thèn
thống
thẩy
tirana
titans
tiến
tnx
toraja
townsend
trackpad
trentino
triazole
trombone
tuba
turkic
twenty20
tytus
tém
tōhoku
tọng
tụm
ugly
undecylenate
unlimited
urethane
urrutia
utnapishtim
uyuni
uzbek
valera
vander
vc
verapamil
vintage
viết
vì
waggoman
wakefield
walloon
warfare
watford
wbc
weight
westbrook
westchester
wonderland
xiao
xuông
xầm
xẩu
xừ
yekaterinburg
yesterday
ying
yoshi
zamani
zamparini
zane
zeppelin
zootopia
zopiclone
zuko
zulia
zậy
£1
ém
##2000
##31
##49
##81
##88
##98
##abo
##ache
##ago
##aje
##akov
##aldehyd
##ally
##amate
##ande
##anov
##aris
##atic
##atics
##ative
##atus
##azide
##bamate
##bera
##bey
##bha
##bli
##block
##bork
##bran
##burger
##bō
##ccio
##celli
##center
##cid
##cino
##cius
##cl2
##cture
##cular
##czak
##czyk
##danh
##dene
##det
##diamine
##did
##dive
##dna
##door
##dowa
##drome
##dur
##dza
##dé
##eller
##eya
##fine
##front
##gai
##gee
##gger
##ggins
##giữa
##gō
##gần
##hoo
##hya
##hō
##iate
##ied
##ield
##iensis
##igh
##inka
##inkel
##ité
##iye
##jeon
##jie
##kamp
##kazu
##kernel
##kinh
##kura
##lach
##last
##laya
##league
##lisa
##load
##lung
##lá
##lô
##machi
##mad
##mali
##metic
##mian
##mons
##nazole
##nelli
##nhiễm
##nism
##noid
##nomy
##nyi
##obi
##obo
##ography
##onal
##osh
##oslav
##osome
##oun
##p2
##pai
##pene
##philia
##pium
##pore
##psis
##ptin
##quine
##rap
##ridin
##riviroc
##riz
##rney
##rot
##rrow
##rsa
##rth
##rty
##sius
##ssia
##stoma
##tane
##tea
##tera
##tical
##tice
##tn
##toin
##tomy
##triptan
##tyl
##tze
##tàu
##udin
##udio
##ull
##umomab
##urine
##uska
##usz
##vati
##verde
##version
##visión
##vita
##vity
##voy
##vành
##weather
##wehr
##weight
##wr
##xie
##xton
##yca
##yin
##yong
##ysin
##yuan
##zec
##zeh
##zepine
##zou
##zur
##zō
##¹
##ße
##ám
##ár
##å
##èle
##ìn
##ắng
##điểm
##ńsk
##ởng
##̣ng
##δ
##ка
##ان
##ت
##ản
##ắng
##ẽs
##ịch
##ỏng
##ứu
009
1368
1492
1516
1578
1587
1598
1615
1616
1656
1671
1686
1697
1703
1709
1717
1734
1746
1748
1762
2029
291
2nd
353
366
373
378
394
403
409
418
467
482
541
556
602
618
642
664
6m
725
741
759
776
996
a6
abilene
abruzzi
acharya
ado
aegean
agent
akathisia
akita
albee
alcala
alcaloid
aldurazyme
alienware
allergan
allied
ally
amado
amerindian
amici
amma
amorós
anoxic
ansatsuken
anten
antonina
apfs
arequipa
arlene
artboard
artie
asada
astro
athabasca
autoplay
avc
avogadro
axeton
azevedo
azure
ảnh
bac
bachelor
backspace
barn
barra
barreto
baseball
basketball
basutoland
batna
beauvoir
because
beetle
beginning
belgium
belén
bent
beryl
bess
bianco
biesiekierz
bieszczady
bip
bissessar
biến
bleh
blochmannia
bouroncle
bowser
boyz
braavos
braithwaite
brandenburger
brivaracetam
bromberg
brotherhood
bucky
burnett
busia
butanone
bụng
bấu
bẳng
bụa
cabezas
callisto
calvera
canaveral
capella
caputo
carré
cái
cáo
ceftriaxone
celeron
centaurus
charon
chats
chee
chełmno
chieti
chiêng
chol
christophilou
christy
chrzanów
chơ
chặc
chịt
chọ
ciclosporin
circassia
cities
clovis
coffe
cognitive
colchicine
coming
communication
condor
count
creedy
crespo
cumez
cyprus
cytomegalovirus
czarna
daimyō
danquah
darrow
daytona
deloitte
deloris
denmark
desert
dessalines
dihydrocodeine
dimenhydrinate
dimethandrolone
disable
dolce
dope
doradus
dorothea
doss
dovator
downtown
dts
dungeons
dunning
ear
eastman
ecstasy
egil
eiji
eloy
else
eltit
elvitegravir
endless
ent
eris
ervin
erythropoietin
estado
estela
eurogamer
euros
evening
everywhere
exon
exxonmobil
faire
fairfax
farida
fawqani
fcc
fei
fernandes
ferro
fleur
fluoro
fluorouracil
folders
foligno
fordham
fps
francia
frombork
fulvestrant
fölkersam
gaborone
galveston
gandhara
ganga
garret
gazette
genius
gigante
given
giử
glade
gmp
goa
gokenin
gotland
greenspan
grit
guacamole
guaifenesin
guingamp
guntur
hadrian
hanks
harald
hardcore
hawsh
haynes
hear
herbig
heritage
hertzfeld
hh
hideki
hideo
hiram
hirohito
hisashi
hispanoamericana
histoire
hiđrô
hiễu
hobb
hobbs
hobby
hollande
holman
hopps
hunters
hydrogel
hyperforin
hây
hó
hōtō
ici
ingram
inh
instruments
interest
internapoli
iskcon
items
itō
iván
ixion
izhmash
iại
jagiellon
jak
jakobson
janie
jeez
jeongjo
join
jordy
junos
justinianus
kabbah
kakigōri
kamil
kandahar
karaage
kassite
katakana
keanu
keratan
khách
khem
kingsley
kiowa
kkk
kodak
kodansha
kojima
kol
kombu
komura
koszaliński
kpop
kratos
kray
kristi
kusanagi
kushan
lahnda
lamia
lancia
lander
lapd
leezar
legging
legionella
lemon
lestrade
leszczyński
letitia
letterman
lew
lich
ligand
lilian
limbic
liège
logue
lua
luciana
lucila
lucio
ludendorff
lugo
lukashenko
lumia
lyrae
lyudmila
láy
lìm
lườn
maccabi
machete
machu
madero
madrigal
maeda
magda
mahal
maizuru
makeba
malayalam
malonic
marsha
martel
masa
matese
mathematica
mathison
maurya
maxi
mcgowan
mcivers
mcmurdo
mcnally
medium
meera
megabit
megasis
megumi
mello
mendy
methylphenidate
miazga
mistral
mitt
moa
mobutu
modi
moor
mootoo
mosaic
movember
mulher
mutharika
mvd
mycoplasma
myo
myron
mérida
măt
mả
nagold
naima
nanna
napa
neiman
nemzeti
netherfield
nghiã
ngườ
nhò
njala
nn
nocera
noif
nootropic
northmoor
nougat
novak
npb
nye
nưa
nấn
nẫng
nọt
odi
odio
okavango
oriental
oriente
orton
osborne
otf
othello
oxazepam
pale
pancho
paragraph
pari
parque
partridge
passage
pau
pavlichenko
pcb
pds
pea
peláez
peralta
person
phản
piazzi
pied
pietermaritzburg
pignato
pinker
pixantrone
plate
platin
pliny
pollo
polyethylene
polyvinyl
portrait
potato
prism
promegestone
propoxyphen
pskov
puskás
py
quingestrone
quinoa
quién
qusayr
racemic
raczyński
rapamycin
rashley
rasmus
realtek
reaper
recent
reliant
reng
renée
reporter
restrictions
retigabine
reyna
ribbentrop
rigg
rime
ripper
risd
rng
rochelle
rodong
roque
rosalie
routh
rowling
roxithromycin
rule
ràm
rộng
rảo
rục
saab
saas
salyut
sanford
sargon
sarkozy
sassou
sayaka
schweikart
scots
seltzer
señor
shack
shakti
shaq
sharia
shazam
sheela
sheraton
shore
shoten
shou
shueisha
sial
siege
sieradz
sig
siggy
simms
singto
skorzeny
slalom
sly
snacks
sokka
solithromycin
spear
spinner
splinter
ssrna
starck
stolar
stoney
strawberry
suisse
sulfonylureas
sulpiride
summary
sure
surround
surveyor
swedish
südtirol
sảnxuất
sữ
sựu
tacitus
taek
tahoe
tanabe
tanganyika
tanka
tarnowski
telangana
tenerife
tesco
tesler
tetrahydrobiopterin
tetrazepam
theron
thia
thitipoom
thoã
thúc
thấy
thỏm
thụng
tirthankara
todai
tonkatsu
tons
tory
traffic
translator
treece
trichomoniasis
trimoxazole
tris
trouble
trzebnica
tsuna
tsushima
tube
tuk
tổng
tạiđại
ugarit
ulster
ups
uranus
uusimaa
v6
vanh
vanity
viewer
voices
volhynia
voucher
vystrel
vásquez
vót
vợi
wada
warder
warnice
westmoreland
wet
whymper
willard
withers
września
xandar
xie
xoạc
xseed
yar
yee
yggdrasil
yin
ymc
ymca
yoshitaka
yoweri
yuehua
yupik
zaius
zayn
zille
zio
zk
zoloft
zumba
àm
đia
đúng
đàu
đưng
đồm
ươn
α3
α5
##07
##54
##act
##ail
##aldi
##amba
##ardo
##arte
##atan
##aut
##bacter
##benzoic
##black
##bling
##bond
##bound
##bourg
##bowski
##bro
##bên
##cade
##chenko
##chuyên
##cillin
##cken
##ckman
##cr
##cula
##ców
##dara
##dation
##david
##dn
##dry
##eek
##egui
##erra
##essa
##ety
##eve
##evsky
##fax
##ffa
##fta
##gam
##gami
##gari
##gge
##giờ
##gler
##gni
##gol
##good
##gott
##gre
##guardians
##gut
##hammer
##haven
##haw
##heart
##hie
##hit
##hka
##hà
##hütte
##idin
##ieri
##ilic
##insky
##iter
##ińska
##jam
##jay
##kine
##kinetic
##lad
##lava
##lito
##lonia
##lox
##loxacin
##lta
##lur
##mab
##mail
##mers
##mulin
##nton
##nào
##núi
##office
##ofo
##olit
##onie
##onka
##ots
##oud
##oux
##pac
##perone
##pho
##pion
##platz
##pod
##pong
##ppy
##pra
##pride
##print
##pter
##ptor
##put
##pyrimidine
##qo
##quần
##raj
##rane
##revir
##riol
##rok
##ropic
##rost
##rox
##rta
##rín
##saku
##sani
##school
##sfield
##slaw
##slin
##sport
##tak
##tama
##tase
##tata
##taw
##thiết
##tidine
##tiva
##tler
##tour
##trum
##tua
##tón
##tự
##uca
##ucan
##uff
##umer
##unes
##uq
##usi
##vio
##visor
##vite
##viết
##vos
##vé
##văn
##wala
##wale
##wari
##ways
##woman
##writer
##wt
##xime
##yam
##zhou
##zid
##zm
##zos
##zowa
##ất
##ến
##ís
##ños
##ống
##ö
##ük
##ąż
##č
##ęcino
##łki
##ńskie
##że
##żne
##ơn
##ưởng
##̃ng
##̣nh
##π
##م
##ẫu
##ặm
##ếp
##ệc
##ọi
##ớn
##ợn
012
014
015
1061
10k
12h
1350
1525
1547
1588
1605
1629
1641
1647
1651
1658
1669
1670
1706
1755
1761
2027
30cm
327
358
412
426
429
431
448
466
494
497
4a
511
539
571
589
604
637
683
717
724
743
752
757
775
787
831
8406
915
929
932
969
abbe
abele
abia
above
acid2
adan
aeldari
afrika
afịch
aggie
ahca
aitken
akademia
akerele
ako
aldose
alemtuzumab
alvaro
amaro
americana
americans
aminata
aminopterin
amo
amon
amore
amygdala
anatole
andalucia
anzû
apigenin
aragorn
arb
arbenz
argon
argüello
aristide
armitage
arrest
arsene
arsinoe
ashkenazi
ashorkor
atrazine
attention
avignon
ayaka
azkaban
b4
bah
bahamian
bahá
bajnokság
bakuman
bala
bandura
bangui
bangura
banning
barret
barri
bayt
bedoya
bellagio
benigno
bergamot
berliner
bessel
bethel
bezukhov
bielice
bixby
boggs
bonica
boron
bos
boz
bray
breda
brie
broomhilda
brzeżno
bsa
btob
bunko
burgess
butcher
bìu
bío
bụp
caballeros
caf
cajamarca
came
campeonato
campobasso
captopril
cards
carlsbad
carta
casanova
catharina
cathepsin
caucus
causeway
cbe
cdk
cemp
cerci
charity
chestnut
chiron
chmp
choo
chromophore
chuyện
chuỗi
château
chọt
cinobufagin
cism
citic
cjc
cleanup
clocortolone
cmnd
cob
cochabamba
colbert
colter
column
connelly
convent
copacabana
cord
corinne
cork
cornwell
corsica
corvette
coumadin
cremonese
crowe
cruces
cấp
củathe
daclizumab
daiichi
darryl
dathan
dawkins
dbs
decatur
decima
deeds
delancey
democracia
dentaa
dermatan
deutsch
deva
didi
dionysus
dior
dip
discover
displayport
dmca
dmv
doi
dolna
dominion
dottie
dragonfly
dryden
dslr
dua
dunia
dunlap
duo
dwg
dyer
dô
easter
ebony
echoes
economic
eea
electro
emea
emmanuelle
emory
err
eslicarbazepine
estrella
etanol
eternal
evey
exemestane
expert
fanning
fantastic
faraway
farhan
faroe
fasttrack
federov
feedback
feldman
femenino
femme
fest
fierro
finals
fiora
flnomasone
flood
forget
found
frans
frederico
fredro
freeze
frinovsky
frou
function
furosemide
gaap
garza
gato
gatsby
gerasim
ghouta
ghệ
giambi
giampaolo
giosuè
gis
glatiramer
glcnac
glendale
glutamic
godric
gordo
goro
gosh
grabowski
greenpeace
gretzky
grignolino
grodno
groupon
groß
grzegorz
guerrera
gulama
gulu
gutenberg
górna
hadith
hattori
haut
hb
hbv
helmsley
henrique
herbarium
hinton
hkey
holstein
hrw
hsbc
htlv
hvitserk
hyatt
hydrazine
hydroxapseoid
hyo
hẫng
hẳng
ichikawa
idi
iia
ili
impossible
iori
ippon
isla
ismaili
ithaca
izhevsk
izumo
jaffe
jagiełło
jammu
jango
jep
jimenez
jjigae
jonh
joong
jović
juice
jumping
kambing
kanazawa
kaoru
katanga
katsudon
katya
kawashima
keenan
kellogg
kensei
kettering
kevlar
khama
khuỵu
khyber
khú
kiana
kmart
knee
knives
kohler
kolya
kora
kryptos
kuro
lakatos
lanie
lansing
lapre
lark
larsson
lavos
lck
leticia
letrozole
letty
liber
librae
libraries
libreoffice
licarbazepine
lieberman
lies
linguini
linton
litchfield
livingstone
livre
lorenz
lubin
lubusz
lucchese
luisi
lyase
lycopene
lászló
lảnh
lẽn
maastricht
mab
magnesia
maja
maleate
malic
malloy
mamp
manfred
manti
manual
margrave
maritime
marker
markup
marmolejo
mashta
mask
maten
mathis
mats
matto
maurine
mayadin
małachowski
mcgregor
mcneil
meclizine
meprobamate
merlotte
meryl
methylen
metz
mex
midwest
millennium
mims
minchin
minigame
mips
mirosławiec
mitzvah
mont
montaigne
montauk
moxifloxacin
mswati
mta
muir
mumu
muse
mushishi
musu
mya
mycobacterium
myr
myrcella
mên
nanogen
narciso
nazia
near
nepgear
newtown
nhướn
nhạnh
nhụa
nhừng
nio
nobu
node
northwestern
notebook
nsukka
nx
nyo
nyx
nzw
nái
nổi
nữưa
oberyn
obilade
ode
offset
ogden
oogway
opensuse
ops
ora
oran
orphan
ouroboros
owusu
oxygen
oïl
p1
palatin
palextin
palsy
pamyu
panem
paprika
parmenides
pasiphae
patriots
patti
pedersen
pele
penciclovir
penrose
pentobarbital
perampanel
percocet
persad
peseshet
petrie
petrograd
pga
pgf
phage
pham
phd
phosgene
phthalate
pic
piel
pilots
pimecrolimus
pinball
pkp
poincaré
polesie
poncho
pontic
portuondo
posen
precious
pressure
prothrombin
province
prpp
prądnik
puff
puppet
pyramid
qasr
quetzalcoatl
quyết
quít
quôc
radon
rage
raisuddin
rams
reboxetine
recoleta
regeneron
register
reims
remifentanil
renaissance
renzo
resorcinol
rincon
rios
risotto
roch
rodeo
rogaine
rogan
romidepsin
rousseff
roxana
ruparel
rắt
s0
s2
saber
saqqara
scorpions
scrooge
seconds
sector
semana
serpens
shanti
shelby
sheng
shifu
shilla
shine
shinkansen
shoes
shugo
sigcau
sio
sithole
ska
sociopath
songhai
sopa
souls
sparfloxacin
spec
specific
speedster
spinoza
splatoon
sprague
squirtle
stahl
standford
starship
streptomycin
strigoi
stubbs
styren
suellen
sulfa
superspeed
sura
szpilman
sã
sình
sącz
sẵng
sốtiền
taf
taiwan
taymur
tcd
techaapaikhun
telecommunications
telemachus
tema
temuco
tert
thawne
thessaloniki
thiểm
thoang
thorium
thromboxane
thule
thật
timeline
tineh
tintin
tissot
titov
toei
tokamak
tomaszów
torvalds
toshiba
toys
trafalgar
traynor
trifluridine
tritium
trấns
trận1
tsang
tserkvas
tttm
tumski
tutankhamun
tuttle
tuồng
ubaid
udo
uematsu
ueno
unfpa
unibeast
urbina
usedom
uwilingiyimana
vabiotech
vanger
vanilla
vela
veloso
venom
verbinski
vide
vihokratana
villegas
vimn
vitruvius
vives
viviane
void
vx
wagashi
wai
wald
warlock
wayward
wenceslaus
werther
which
whipple
whoville
widow
wieliczka
wife
wilno
winner
wnba
wordpad
woz
wyborcza
wyższa
x1
xà
xìu
xập
yaba
yamnaya
yingo
yomiuri
yucatán
yukon
yêmen
zahra
zeromus
ziehl
zinc
zorba
ên
đich
đổi
đơi
đệch
ứng
ỉm
##27
##41
##68
##73
##800
##82
##83
##84
##acho
##akis
##aler
##alt
##anese
##angi
##anna
##ational
##bacteria
##bant
##belle
##benzyl
##bility
##bital
##bla
##bly
##bou
##bov
##bras
##bright
##brooke
##cg
##chal
##chester
##chet
##chie
##ciński
##cliffe
##croft
##cần
##dall
##dea
##dit
##dred
##drick
##endi
##enstein
##enter
##erone
##ería
##esha
##eza
##fang
##fie
##fik
##fleet
##fret
##fuda
##furan
##fé
##gada
##gae
##gara
##gbo
##gei
##gent
##gha
##ghan
##giới
##gley
##goda
##gul
##gur
##gọi
##him
##his
##hma
##iac
##iewo
##ify
##ilis
##ilon
##inton
##isch
##ision
##isse
##itsu
##iwe
##jane
##jeong
##jno
##kata
##kou
##kur
##lant
##lau
##lder
##leton
##lett
##liano
##lish
##lka
##lner
##lno
##lów
##mane
##mazine
##mona
##mski
##mum
##mune
##mé
##mỹ
##nco
##nebti
##nella
##nny
##nodes
##ntia
##nty
##o3
##ographic
##ombo
##opa
##orio
##osz
##ouche
##oung
##phe
##phenone
##phản
##pirone
##plon
##propyl
##protein
##qg
##qiyah
##quản
##rada
##rar
##razine
##rei
##renergic
##rgi
##rida
##ropin
##rring
##rv
##sak
##saw
##sd
##sino
##stine
##swa
##sō
##talk
##teen
##tern
##terone
##testosterone
##tick
##tomo
##tori
##tsa
##tsky
##ube
##uce
##uela
##uille
##uko
##ulata
##uron
##uzi
##vex
##vian
##vina
##wai
##walde
##wear
##wether
##wno
##xone
##xác
##yakov
##yane
##ycline
##yka
##yên
##zcz
##zes
##zinger
##zków
##zmann
##zowice
##ário
##ína
##òm
##ônia
##ẳng
##đế
##đức
##ĩa
##ławski
##łowski
##ŋ
##ŏn
##ưc
##ường
##ʰ
##ва
##ل
##ّة
##ạng
##ảm
##ặt
##ト
0000
1140
1155
1327
1410
1510
1536
1572
1599
1602
1606
1609
1624
1712
1767
2c
2kg
346
369
371
389
458
461
478
492
504
50s
513
518
527
548
557
569
578
586
595
599
644
687
693
733
735
742
744
784
843
863
866
914
965
973
abaza
abeokuta
abercrombie
abominable
abv
acetaldehyd
acs
activate
acumen
adamów
adhikari
adige
adiponectin
adrienne
aethelwulf
aicha
ajayi
alcindor
aldrich
alegría
alexi
amel
amigos
anatomy
andalusia
andrée
animator
anken
anthology
appiah
arce
arctic
ardennes
arriba
asf
aslan
aspartame
asriel
atarib
atracurium
atv
auburn
audace
augustów
austria
aveeno
awadh
azrael
babita
baca
baht
baines
baird
bal
bandana
barada
baranski
barre
barrel
bayatyan
bảo
bbt
bears
beauvais
bells
bering
berk
bernese
bertinelli
beshraavi
bethany
bianchi
bible
bicacbonat
birdie
biết
blind
blonde
bluebell
bogue
bonilla
boone
borealis
bound
bourdon
bpf
brigitte
brixton
bsc
bunker
bvi
béng
bẽn
bủn
bứng
caliban
caligula
campus
candesartan
candie
capitan
cappuccino
capricorni
capsule
carbachol
carbonat
carnaval
carranza
carrier
cassandra
cassegrain
catalogue
category
cause
cavalier
cefquinome
centrum
cepeda
cera
cerberus
chanlder
chardonnay
cheka
cherevichenko
chinook
chí
chondroitin
chuẩn
chút
chế
chúm
cinoxacin
circassian
cites
clobazam
clone
clozapine
coeur
colette
colleferro
colour
comes
commission
computing
cor
cosin
cosmic
cossinius
covellit
cpp
cptpp
cq
crotone
croydon
csis
cto
cuchillo
cultural
cunha
cute
cyp3a
cystein
czartoryski
cầu
dapsone
darrell
dartmoor
dbe
decibel
demon
destin
dfm
dickson
dicloroetan
dima
dingo
distribution
diwan
dnepr
doku
dolokhov
domergue
doreen
downing
doãn
dołęga
dress
driscoll
drives
dum
dumbo
dunson
dutasteride
duterte
dweir
dzików
eas
eastenders
ebert
edwina
electropop
ellsworth
elmo
ely
ems
emtansine
enabled
enantome
ending
ene
enterobacter
enterobacteriaceae
equatorial
erectus
escaldes
estate
estrellas
ethynyl
etsy
euan
eugenol
everyone
exodus
farouk
favorite
fdi
fdr
features
feder
fehérvár
feisal
felder
fennigan
fenspat
ferrofluid
fhd
flumazenil
fluor
flutamide
fnc
fold
fon
fondo
foxo
frazier
freiburg
frosty
furikake
fw
g7
gaiman
galanin
galería
gama
gauge
gauguin
gentamicin
ghazal
gheg
ghosn
giacomo
gifty
gilak
ginnastica
giuliano
giữa
giạng
goat
gobbler
goni
goodspeed
gorzów
graupel
griffiths
grill
groudon
grójec
guedes
gujarati
guyot
gwizdo
găp
habyarimana
had
hajin
halep
hamid
handel
haraldson
hatch
hathaway
hec
heldens
heraclius
heron
hilfiger
hin
hornet
horvath
hotdog
humala
hwayi
hydroni
hélène
họi
ibrutinib
ichirō
icons
ijo
inner
internal
interzonal
invitational
iras
iroquois
jacobi
jaina
jetstar
jillian
jirakit
kadokawa
kaidō
kaluza
kanban
katsu
kc
keefe
keene
keio
kenin
kenton
khabur
khủng
khóe
khỉnh
killing
kip
kirito
kleist
knicks
kojic
kok
komorowski
korn
kottke
krosno
kui
kurmanji
kurome
kurpie
kuru
kyselo
kórnik
kều
laha
lamivudine
lamplugh
langue
largo
lasik
lauderdale
launcher
lelów
length
lenore
lenses
leonean
leopoldo
lettres
lidar
linden
lines
linezolid
loco
loretta
lps
lucario
lucrecia
lyonnais
lạo
lất
macauley
mademoiselle
maki
mala
malathion
malian
mallorca
maly
manet
manitoba
mannheim
mariel
marmarita
marne
marthe
maryamin
mathayus
mathews
maurizio
mauser
mazda
mccauley
mdp
meadow
melikdjanian
melvin
menzies
merlot
meter
microrna
middleton
mikami
millennials
mirza
miró
mis
mister
miui
mla
mohs
mole
monge
monowitz
monsanto
mosul
motogp
mov
muff
muhammed
muna
murasaki
muscat
musée
mutesi
mùa
myosin
myself
nasser
natty
nci
neelsen
negan
neurosteroid
neves
ngác
ngái
nhợ
nil
nilotinib
nito
noisy
nona
norov
novotná
novum
numb
nygaard
năm2011
nịu
octreotide
offline
okun
oleandomycin
olympian
olza
ombudsman
omer
omsk
opendns
opentype
orville
osiecka
oxime
oái
paderewski
paititi
panton
paolini
parafin
parp
partnership
pastel
patent
patience
paulot
pbp
penang
pencil
peronist
personality
phimthe
phudeviet
phục
phêrô
phụt
piaski
piemonte
pierson
pillsbury
pimp
piperacillin
piperidine
piñera
polime
polk
polyhedrus
polynya
pom
pongo
popeye
portillo
position
prairie
preah
prior
prt
pullman
pythagoras
qom
quazepam
quinestrol
qurqania
quắp
r1
racer
radford
radian
rahim
rajneesh
rambert
rashford
rda
redstone
reggiana
reu
rhonda
rimantadine
rituximab
roads
roblox
robyn
rogo
rok
rolf
rondo
roses
rosling
rsx
rubi
rumi
rusev
rutledge
rychagov
rớ
rởm
rợp
saattedra
sabine
sall
salle
samadova
sander
sanga
satraplatin
sauer
saved
sayid
scholar
schumann
scot
searle
semiconductor
serpent
sgi
shadowspire
shaka
shelton
shirt
shrieve
siedlce
sif
sildenafil
sima
sinop
sit
sixtus
sjögren
skarsgård
sméagol
soe
soueif
sparazza
spassky
spect
spinosaurus
squad
ssbn
starcraft
stardew
staszic
stephano
stroganoff
sueños
suicide
sumner
sussman
sverdlovsk
symphony
synthesizer
só
sồn
taiko
taw
tbn
terabyte
terminator
thuần
thymidine
thưở
thổng
tie
titilola
tiền
tks
tobin
toluidine
tombstone
toorop
torii
tosh
tramadol
transport
trh
tribute
trident
trimethoprim
trina
trocar
tso
tucumán
tufts
tullius
tuner
types
u23
ucb
uncle
unilever
upendi
uẩn
valor
varro
vasco
vaz
vcard
veda
vegeta
veil
vert
vichy
vicksburg
virtualbox
vittoria
vob
vooc
vrede
vsevolod
vw
waldo
walther
wat
wałbrzych
wennerström
westphalia
whig
wilbur
williamsburg
wilpharma
wilton
wodzisław
wps
wydział
wyspiański
xanthippe
xle
yahya
yankelewitz
yashida
yep
yevgeny
yoshino
youtuber
zalesie
zobrist
zonisamide
zwierzyniec
điu
đuơng
đăc
đọt
ạnh
ồh
##09
##2013
##53
##750
##aar
##acity
##aean
##aise
##ales
##alon
##ask
##athon
##atropine
##awi
##ayama
##bala
##bauer
##bena
##bender
##benzen
##berman
##bf
##bh
##billboard
##biển
##brand
##buco
##buenos
##bỉ
##caster
##cchio
##ced
##champ
##chlorophenol
##chner
##cke
##clean
##come
##cosis
##ctive
##cytosis
##czna
##cô
##dade
##ddy
##derson
##diễn
##dley
##dok
##dores
##dyne
##eel
##eland
##endan
##enone
##eok
##eser
##ever
##fah
##fier
##fm
##for
##fp
##fumi
##furt
##gil
##gli
##gny
##gou
##gowski
##gro
##hans
##hir
##hler
##hod
##hydro
##ichiro
##icillin
##ider
##iek
##ifer
##iii
##imide
##iner
##int
##isco
##iyat
##jak
##jara
##jes
##katsu
##kite
##kney
##l3
##laba
##ldi
##lean
##leen
##lei
##lgar
##liflozin
##lil
##llia
##lmann
##loni
##ltan
##lund
##lva
##lần
##mang
##mica
##mill
##mn
##mous
##mul
##natri
##ngs
##ngton
##nho
##nhật
##nika
##nique
##nix
##nola
##nolone
##oft
##ogram
##oides
##oin
##olia
##oline
##olus
##opol
##otin
##otropic
##ouch
##ouk
##oul
##ower
##oyl
##ozzi
##pens
##peter
##pico
##pn
##porn
##pramine
##pura
##quest
##quá
##rab
##race
##redo
##renone
##rens
##reta
##rilla
##rley
##robert
##ross
##roux
##rto
##santiago
##satō
##sec
##sem
##sheim
##sine
##sir
##skoye
##sou
##soul
##stand
##sui
##svà
##t3
##tese
##thrin
##tio
##tional
##tiếp
##tki
##tola
##toria
##tria
##trin
##trình
##ttes
##tun
##tx
##tzen
##uco
##uil
##uity
##uji
##uler
##ullah
##uly
##umu
##uria
##uski
##utin
##utt
##vitz
##vô
##vũ
##was
##werk
##wg
##wko
##xảy
##yers
##yska
##yta
##zama
##zare
##zei
##zip
##zoa
##zoline
##zow
##zzah
##º
##ệt
##ík
##ília
##ór
##āna
##āra
##ąd
##ątkowo
##ček
##đường
##độc
##ęty
##ʷ
##̀o
##́o
##̣y
##на
##ه
##ầ
##ếch
##ễu
##ỏi
##ỡi
047
1066
10km
1150
1214
1234
1260
1305
1380
1490
1522
1540
1589
1594
1617
1619
1646
1672
2166
2900
297
2α
341
367
3cm
423
434
457
472
476
489
542
558
5kg
6500
655
68000
712
788
855
939
944
992
995
abbasid
abm
accenture
accolade
acetazolamide
adenoma
admiral
adrenoceptor
aegis
aegon
against
agata
agora
agua
airwolf
akari
akt
akufo
alamos
aldebaran
alla
allegra
amaru
anaheim
analysis
anaplastic
andreu
andria
angelique
angers
angry
aniston
anode
antithrombin
antivirus
apex
apg
apobec3g
aprilia
arabella
arf
argus
argyll
aris
arlen
armenian
artemisinin
artesunate
arutyunian
aryl
assisi
astellas
astor
atatürk
atg
auda
avril
avt
awkwafina
ayah
ayako
ayla
aynsley
azole
azuki
babe
bacteroides
badr
baer
bagel
bahr
balance
bambara
barclay
barrioz
barrymore
bas
bassem
battosai
baya
bánh
bbtv
believe
beni
benning
beretta
bernhardt
bertram
betacam
betadine
beukes
bhasha
bialystok
bich
bida
bilal
bilia
blackgate
blaise
blart
bloomingdale
bohan
bolo
boni
bonn
boulevard
bram
brass
brennidon
brentwood
brewer
brienne
brindisi
buffay
buformin
builder
bulgar
bulgarian
bulletin
buna
bursztyn
butabarbital
c7
cade
cadogan
cady
cameo
caput
caracciolo
caravan
carlshof
carola
cathode
cảm
celestial
chaim
chaz
chelyabinsk
cher
chhu
chinatown
chkalov
chkdsk
chopper
chorley
choảng
chắng
chổng
cil
cimetidine
clarithromycin
clarín
climax
cline
coenzyme
coliform
colony
compuserve
conception
concord
consuela
contest
coração
cordelia
cornel
corte
cortland
cougar
couscous
cracovia
creatinin
creel
crispin
crossover
cubic
cuerpo
curiel
curran
cvc
cyclin
cyclobenzaprine
cytochrome
cố
cúper
dak
dakhini
danger
davidtz
deacetylase
delafloxacin
delano
delvecchio
dengeki
depo
deroceras
desflurane
designer
detective
dezocine
dietitian
diển
dnieper
domínguez
drostanolone
drude
duơng
dxdiag
dzb
däniken
dòi
dợt
eddard
editions
edu
effie
egan
egu
eidos
eikon
eindhoven
eisai
ela
eladio
elster
elías
emacs
emergency
emetine
emir
enriqueta
eph
epictetus
eq
erickson
escola
etcsl
ets
facto
faheen
fairbanks
fairfield
fairy
família
farage
farian
fea
feat
feinberg
fender
feo
feodorovna
feta
fiba
fireflies
flagship
flc
forks
fortran
fracking
freecell
fremont
friendship
fsf
fudge
funmi
fê
fútbol
g1
gamer
gamespy
garibaldi
gaya
gaziantep
gdr
gerwazy
ghẽ
gimbutas
giòng
giạt
glan
gleaner
glucosamine
goh
goldwyn
gon
gonggam
gopnik
gord
gower
goślina
gp120
grad
grandmaster
grass
grasse
gregorian
grenouille
gretel
greyhound
greystoke
grid
guardians
guelph
gummer
gunpei
gyeonggi
gyeongsang
gyu
gém
góry
hackus
hagel
halsey
hargrove
harlow
harrenhal
harv
hasim
hawley
helicobacter
henley
henriette
henuttawy
heracleo
heraclitus
hershey
hib
hiccup
hii
hiroko
hirudin
hisako
hoach
hoechst
hohenzollern
homes
honecker
horizonte
hotels
houten
hoằng
huffpost
huntley
hyades
hydri
hã
hường
hếch
ibáñez
icann
ifp
ikeji
ilya
incentive
incredible
indias
indira
infinite
insomnia
interview
investment
ionia
irt
isidora
isin
islamabad
ism
italiana
italo
iyo
jaffad
jens
jimi
jinx
joji
jorgensen
judea
kabardia
kahlan
kalabi
kalema
kami
kamiya
kaniel
kanza
katakura
katara
kawaguchi
kcal
kean
keane
kelabra
keylogger
khac
khoằm
kháu
khê
khơ
khấm
khẩm
khồng
kikuyu
kirponos
kiva
kiện
kms
knock
knot
komarovsky
konadu
koneser
korku
kossak
kragle
krill
kristin
kubbeh
kuki
kulagina
kumba
kumi
kuril
lacey
lajkonik
latham
lauryl
ledesma
lesko
lesterland
leszek
leucine
lexicon
lexus
licata
ligota
liner
linz
liquid
lithia
loai
loen
lomerizine
lpi
luang
lucie
lucinda
luck
ludmila
luminary
lêu
lời
lớn
lừ
mabuza
madman
mafic
magellanic
majdanek
mako
makonnen
malware
mano
mantua
mantšebo
manuka
mapuche
marika
marko
martial
masato
mashinini
masuria
matsumoto
matteo
maverick
mayfield
mayuri
mazibuko
mazurek
mañana
mcnish
mcquaid
medford
meeting
meetup
meissen
memnet
memoria
mende
menelaus
mestanolone
metadoxine
mi5
michal
microsystems
midland
milagros
mille
milnacipran
miner
minkow
mirabilis
mmorpg
mmr
mojang
mopr
moritz
moucheboume
moyo
msnbc
mtp
muammar
muromachi
mushi
musique
muzayrib
nagel
nails
nalbuphine
nalewka
nammu
nav
ndiaye
nelfinavir
netbook
neutrogena
nghiêp
nguni
nguyênnhân
ngợ
ngụp
nháo
nhổm
nhụi
nhữ
nicholson
niels
niigata
nijmegen
nikkei
niko
nmt
normale
norwich
notification
nrt
nuestro
nusra
nystatin
nứng
ochota
oddy
oe
ogre
okh
olivin
ones
ooid
orchestra
orm
orrego
osamu
oscy
osip
oti
otterton
ounces
oxfordshire
oxiclean
p2p
pace
paley
panbanisha
parrish
parvo
pashtun
pauling
pavlovich
pemberley
pemphigus
pendleton
pep
performing
perrin
petey
petronius
petrus
pharmaceutical
phaser
phenazopyridine
phenolic
phnôm
pholcodine
phrygia
phút
phún
piccolo
pina
pipa
piperazine
planitia
playa
podolsk
polaris
poli
ponatinib
pontiac
potassium
powder
powerbasic
ppa
ppar
prasad
priam
primeira
probenecid
produkey
professor
prospero
proteasome
providencia
proxima
prussia
pseudo
puppis
purdue
purin
pym
pênh
qd
quantic
quavo
question
radiohead
radium
railway
ramses
ranibizumab
recordings
refresh
reggaeton
reichstag
reinhard
relay
renan
reply
restauranttinib
rfq
rican
rina
ripstein
rizzo
rodin
rolapitant
românia
ron92
rookie
rosales
rovere
rtf
rts
rằn
safa
safita
sakhalin
saldua
sanctuary
sapienza
saskatoon
satō
savery
sawran
score
scuti
sdp
seatle
sefton
sei
seng
sethi
shades
shaivism
shathah
shay
shbg
sheen
shg
shima
shimazu
shinobi
sho
shotokan
shōnan
sight
sihanouk
silo
simons
sindika
sitagliptin
siu
sochi
socorro
sokolov
sordo
speedway
spence
splash
ssl
steampunk
steyn
stoddard
storycorps
straight
streisand
streptococci
stuxnet
subdistrict
succinylcholine
sucralfate
sudafed
sugiyama
surface
survival
survivor
susanna
suvorov
suzie
suê
swett
swf
sylvain
szlak
sznycer
sábado
tabu
tagalog
takharim
talmud
tannen
tchad
templar
template
tempura
tepe
terconazole
teriflunomide
tesofensine
tetryzoline
thelma
theobromine
thredson
thunberg
thuẩn
thểloại
thụi
tinidazole
titian
tmp
tomohito
tongariro
towers
township
tral
trance
transformers
transit
trả
trenton
trilogy
trna
trongthe
trova
trumbo
truân
trảm
trảng
trận0
tsa
tuareg
tun
tunzi
tuổi
tácphẩm
tōchi
tửng
ue
ultras
ulvz
umber
underdogs
unique
uniwersytet
upstart
ursodeoxycholic
uttarakhand
uzumaki
valence
valkyries
vardhaan
vasili
vecchio
verge
verwoerd
viacom
vick
vie
vietnamplus
viklau
ville
virilization
vitebsk
việ
vorapaxar
vorbis
vox
václav
waffle
wailers
waje
wakamiya
wallpaper
weakest
wellesley
weyland
whitby
wiley
williger
winmail
winthrop
wizards
wm
wolverine
worker
wubi
wyke
xia
xoà
xúc
xuể
xếp
yamna
yanis
yeats
zan
zarina
zaynab
zee
zenfone
zielonka
zloty
zohan
zorrilla
zud
zuse
związek
złoty
£2
đạo
đcsvn
đân
đãy
żubrówka
ực
⚙️
##05
##300
##58
##77
##a2
##ability
##adol
##agen
##agh
##agne
##aid
##ald
##alle
##amento
##anki
##anon
##anos
##anta
##arnia
##arra
##aye
##bahn
##bana
##bani
##bate
##bill
##bite
##biyah
##blatt
##blood
##blum
##borze
##bosch
##byte
##cans
##carbon
##cathinone
##cello
##chak
##chko
##chum
##chơi
##ckel
##clone
##cobalamin
##col
##cope
##cort
##czewo
##cổ
##ddie
##ddle
##dike
##dile
##dim
##dja
##dno
##dolo
##dore
##dorff
##drel
##drop
##drus
##dth
##dź
##eat
##ebe
##edy
##eeb
##ees
##efer
##eine
##emu
##endez
##ental
##eong
##erod
##erre
##fd
##florua
##fork
##fur
##geo
##gga
##giao
##gri
##gton
##hao
##haru
##hashi
##henry
##hes
##hing
##hiến
##hla
##holt
##hou
##hoàn
##hui
##human
##hung
##iam
##icle
##idia
##iewski
##ification
##ifolia
##ikowski
##ilio
##imer
##inal
##inase
##ination
##ingian
##ingue
##inha
##inn
##ires
##iska
##kas
##kham
##khov
##kku
##koff
##kuma
##ká
##ké
##lbert
##lea
##lek
##liese
##lita
##lithium
##lok
##lova
##lys
##lysis
##mara
##maria
##mei
##metal
##mit
##mitsu
##mpa
##mut
##mét
##nation
##nesia
##niewski
##nino
##ntas
##odon
##oga
##olem
##olic
##olol
##omics
##online
##ophil
##orium
##osoma
##osus
##otto
##ová
##ows
##pher
##phorus
##phylline
##pice
##polski
##post
##rang
##rard
##rath
##rax
##rds
##rese
##ribe
##rict
##rien
##rist
##rith
##roke
##rola
##root
##rous
##rung
##ruz
##sah
##scu
##sef
##shaw
##she
##sid
##siri
##slav
##smin
##sne
##station
##steroid
##sáng
##tamide
##tead
##tem
##tet
##tetsu
##thing
##thon
##ties
##tiến
##tiểu
##tley
##tne
##tno
##trom
##trope
##twa
##têin
##tā
##ubu
##unt
##ushi
##utz
##uń
##v1
##vania
##vd
##vent
##vention
##vez
##vs
##wm
##xt
##yde
##yman
##yneth
##ynia
##you
##yền
##zak
##zarro
##áy
##ãm
##ãng
##çon
##ées
##ắt
##đánh
##đây
##ōshi
##ờng
##ω
##ий
##ور
##ạp
##ẫm
##ẵng
##ặn
##ềm
##ềnh
##ん
016
090
1185
1274
1280
1290
1340
1347
1364
1420
1493
1533
1597
1604
1623
1696
16s
1721
1723
1735
1739
2200
348
368
393
3mm
446
449
453
45mm
463
479
487
493
502
514
522
543
582
588
603
608
623
634
647
659
662
669
674
694
698
6x
701
711
715
727
749
800m
808
821
835
852
862
869
879
881
910
966
aalto
abbot
abbvie
abernathy
abidin
abū
achaemenes
achaemenid
aciman
actors
adad
ademola
adenylate
adolph
adulkittiporn
advantage
afterlife
agyeman
ahfs
aimms
aix
alessandra
algol
allegro
altos
alyson
amadou
amba
ambroxol
amico
amobarbital
anas
anchorage
anglia
anhchristensen
anhydrid
antônio
apocalypse
archangel
ard
arne
asahiko
asha
ashigaru
así
atakapa
atenolol
atosiban
atrahasis
atticus
aurangzeb
aurelio
author
auvergne
aventine
aviation
avibactam
azelaic
azteca
babbitt
bactrian
bahadur
balder
baldini
bamburgh
baobab
barbecue
barium
barlow
barrientos
basquiat
beardsley
beefalo
belorussian
belvedere
beneke
benki
benzo
benzoic
bernice
bełchatów
bh
bien
biggie
billancourt
biology
bionic
bình
blackrock
blaine
blocker
bogusław
boisei
bokashi
bokassa
bolaños
bolzano
bonita
bosque
bosra
bounce
boynton
brae
brainiac
brentuximab
brin
brinkley
bromazepam
bromwich
broome
brotizolam
buckminster
buganda
bulls
butriptyline
buối
bw
bân
bép
bóbr
bệch
caballero
cadet
cajun
campaign
campero
canción
candyland
cannabinoids
capone
carbonhydrate
career
carpi
cart
cary
cas9
caspar
caspase
casper
causa
cava
ccpd
celta
cesaro
chak
cham
chasma
cheikh
chemistry
chenodeoxycholic
childs
chiquititas
chk
cholecystokinin
chou
chrissie
chromium
chuôi
chất
cimarron
clank
clegane
clonic
clover
cme
cm³
commerce
commercial
committee
communicator
comte
conceição
concorde
consortium
consulting
contras
cooh
cooley
corina
cornwallis
cosimo
cowan
cradle
creator
cristián
cristo
crécy
cso
cuatro
cuenca
currea
cyprian
cytosine
czarny
czesław
cộp
d4
daemon
dairy
daisuke
damascius
deah
deimos
deitch
deli
delos
demeter
demethyl
denosumab
denuvo
desonide
deus
devlin
dg
dhoti
diddy
didn
digan
digest
dihydromorphin
dilettante
dime
dinamo
dinar
diogenes
diphenoxylate
diện
dnase
dnn
dod
does
dogon
domitien
dpi
drift
droid
duchamp
duhok
dulova
dun
dundee
durkheim
dziady
dõng
dạc
dẫy
dợ
ecb
ecowas
edie
eisenheim
eiss
eliana
elliptic
elmer
enver
eperisone
epimetheus
esg
esterase
ethambutol
eugeniusz
exner
fabrizio
faces
falk
famciclovir
farnese
fayetteville
feeling
ferrat
filmfare
finlay
fitness
flanagan
flapper
fleet
focker
fogell
fondi
forces
formic
formula
forrester
forza
foxconn
frankel
frieda
frimpong
frye
fuad
fujitsu
funny
furius
fuwa
g5
galahad
gall
garcinia
gee
genet
geordi
germaine
geta
ghab
giordano
gitmo
giữ
glaber
glenelg
godwin
gogol
gogolak
goki
goode
goodluck
gorky
goth
gotring
governorate
grange
grazoprevir
griko
grip
grissom
grossman
grosso
gryff
guilty
gundam
guterres
habanero
hacienda
hallelujah
haller
harbour
harith
harra
harran
hatshepsut
hausdorff
hco
hectares
hela
helu
hemlock
hentai
hetepheres
heyns
higashikuni
historii
hisyah
hitomi
hitoshi
hmong
hokuriku
homecoming
homegroup
hondo
hopewell
hotchkiss
hoy
hpd
hras
humble
hungarian
hurri
hurst
hurt
hyang
hypochlorite
hác
hùn
hể
hỗng
hỷ
iaea
iban
icm
ifab
ihsim
iiia
ilithyia
imd
indapamide
indole
ini
intercontinental
inventory
inzaghi
iodua
ipkiss
ipr
iqiyi
irag
iroha
isernia
istria
itf
its
ixazomib
jaha
jami
jarocin
jka
jn
joffre
journaled
jumpol
juárez
kaffee
kalmar
kanae
kanna
kaos
karakalpak
karolinska
karstark
kasim
kerchak
khasi
khoải
khắng
kilda
kimi
kipling
kissel
kito
kivu
kiếu
kiển
kn
knockout
knowsley
koa
kodava
konin
kostrzyn
kotick
krasnodar
kryptonite
ktv
kunegunda
kupa
kurzweil
kwara
lade
lagash
lakh
lamson
landau
laos
larose
lasowiacy
latimer
lbs
lce
leads
lebesgue
leighton
leishmania
lenovo
lerner
leukotriene
libe
liberation
libro
lick
lins
lips
lng
loci
locus
lodz
lomé
lothar
lourenço
lumezzane
luv
lymphoblastic
lynx
lysosomal
lần
lói
ląska
lườm
m9
madness
magenta
magnesium
magnifier
magritte
maguire
mahoney
maid
majesty
makes
malika
mam
mamá
manche
mandolin
marcellus
margherita
margie
maricruz
mariner
marle
marnix
masika
matancera
material
matheson
mathurin
matlab
matloff
mazovian
mbk
mbr
mccartney
mcgrath
mcguire
mclean
megami
meglumine
menem
mercado
meson
methaqualone
methone
mib
michonne
middlesbrough
mighty
military
millimetres
milosevic
minion
mio
miron
mitanni
mithras
mizore
models
moexipril
mokotów
molderos
mondo
monika
montaño
montego
montessori
montichiari
mooc
moroi
moskalenko
mothers
movimiento
mpumalanga
mrc
mssa
mtn
mugen
mullen
murad
murmansk
musashi
mutter
mùi
mwale
méc
mần
mồn
nadh
nadie
nahuatl
naka
nakatomi
nalfurafine
nantucket
naoki
naphthalene
nasak
nasir
natalegawa
nawa
negga
negi
nejim
netanyahu
nghỉm
ngiệm
ngoằng
nguồn
nhong
nhri
niall
nightlinger
nitrite
noguera
nombre
northumbria
noscapine
novodevichy
nra
nyah
nền
nîmes
nệ
oboe
octopus
ogle
oku
olkusz
omeprazole
ono
onye
operating
orava
orb
osage
osgood
osha
osman
ospina
others
otomo
otra
p2
pallet
papain
parabens
paragon
paraldehyd
parent
partner
paxil
pegaptanib
peng
persei
persephone
peshawar
phenotrans
photorec
phytate
pigeon
pimento
pint
pistoiese
plath
plein
plerixafor
pluto
poké
pokéball
pollux
polylactic
polynyas
polysaccharide
ponte
pops
posada
potage
prakash
prati
princes
probiotics
prokhorov
prontosil
propyphenazone
ps2
psilocybe
ptt
punjabi
qaly
quesadilla
quetiapine
quiche
qut
quì
quẻ
radiant
rafaela
ragusa
rana
ranavalona
rangoon
ratched
raï
reek
reference
regent
remake
rems
rent
ribbleddale
ribociclib
riboflavin
rickettsia
ricotta
rifaximin
rightarrow
rigoletto
rings
rit
riyadh
rllc
rmw
rockies
román
rosas
rostock
rostrum
roswell
rotavirus
rua
rubaiyat
rudi
ruhr
rupaul
ryzen
ríu
saddle
sadiq
sahnaya
saito
salam
salkhad
samburu
sandrine
saori
sauce
schroeder
scottsdale
scream
seamus
seko
sesame
shani
shephard
shik
shikoku
shins
shinya
shogakukan
shoot
should
showdown
silence
silicôn
silverman
silvina
simpsons
skies
skorsky
skywalker
smithfield
smtp
snell
sodom
solec
solina
sounds
sov
sparky
speedy
spirits
spokane
sportif
spratlys
stagg
stardust
stellarium
steward
stinger
straits
sturgeon
succinic
sudamericana
suffolk
sui
sulfoxide
sumida
sunaina
superwasp
sus
suyển
suý
svr
sye
szabo
szalinski
sịt
taka
talalikhin
talkalakh
talysh
tannic
tapentadol
tartous
taybah
teach
teishi
tellah
teller
teriparatide
thanks
thdq
theoden
theophilus
thirty
thoreau
threeding
thía
ticketmaster
tisch
tisdale
tình
tms
tonelli
topping
toropets
tourette
toác
trader
trani
trendelenburg
triazolam
trichomonas
trò
truờng
trẫm
tshabalala
tuberculosis
tucanae
turbine
turley
tuskegee
tuvalu
tweak
twenty
tếch
tờthe
ubnd
uci
uct
ueda
unger
upon
usgs
valdosta
valentín
vanda
varela
varga
vasari
vcg
vedotin
velcro
velásquez
velázquez
verdi
versus
vesuvius
vfs
vg
vivendi
viêng
vldl
voivode
voivodeships
vp8
wallonia
walpurga
warpno
waterbending
waves
wałęsa
weinstein
wh
whisper
whom
wight
wigilia
wilmer
winkler
wojcicki
wolfe
wounded
wái
xhp
xiang
xoi
xtanh
xuýt
xắp
yah
yahweh
yay
yell
yogyakarta
yom
zabadani
zagreb
zahir
zai
zakavkaz
zampella
zamperini
zap
zaria
zaya
zeaxanthin
zetas
ziggurat
zipcar
zoid
zolpidem
zombrex
zook
zotarolimus
áchentina
ángele
úi
điếng
đĩnh
đẵng
địnhdạng
świnoujście
ườn
ən
ẹt
ện
##2012
##abu
##adas
##ades
##amdi
##ams
##anide
##anus
##anów
##arch
##arus
##ater
##ats
##att
##azone
##b1
##bab
##barbital
##bby
##bello
##benazine
##bini
##bio
##blu
##bok
##bowo
##bsi
##bé
##cess
##chio
##ché
##cloud
##cra
##cura
##cysteine
##dali
##dder
##dehyd
##deka
##deo
##dere
##dero
##dhi
##dnica
##dox
##eady
##ecoxib
##eister
##eit
##eje
##eley
##enin
##enol
##enolone
##enson
##enthal
##eption
##eries
##ering
##erno
##erta
##escu
##esina
##ethane
##ethanol
##ether
##etin
##eto
##evna
##ezia
##fast
##fel
##fem
##ffle
##finger
##fonia
##fox
##fuku
##gaard
##gey
##ghur
##giảm
##gl
##gnon
##grove
##guel
##hang
##hant
##hida
##hini
##hiên
##hmi
##hna
##hner
##how
##hydric
##hū
##ibus
##icin
##icles
##ifloxacin
##iger
##iles
##illon
##inas
##inian
##isan
##isation
##isen
##ital
##itol
##iton
##izing
##izo
##ié
##jek
##jer
##jū
##kert
##koma
##kovich
##kowska
##kpo
##kun
##kówko
##kỷ
##lais
##lapse
##laria
##lase
##lata
##ldo
##leri
##lewo
##lied
##llen
##llon
##llos
##louis
##lska
##lun
##lên
##mak
##mead
##mena
##mente
##mera
##metrine
##mice
##mier
##mifene
##mil
##miya
##mumab
##nano
##nara
##nb
##nds
##nett
##nfeld
##ngular
##nhất
##nide
##nings
##nmi
##noson
##nổi
##ogenesis
##oia
##olis
##olite
##olon
##otic
##oua
##ovna
##pala
##part
##penthixol
##pert
##phem
##phetamine
##pian
##pid
##pina
##pius
##platin
##ples
##pov
##ppi
##project
##ptera
##puri
##quân
##rade
##rama
##ratese
##rce
##rella
##reus
##rgen
##rico
##rion
##riya
##rner
##rowski
##rro
##rsky
##rza
##rze
##rzyn
##rée
##rở
##saccharide
##sari
##schaft
##shka
##sies
##siêu
##skara
##spar
##sque
##stini
##stle
##sulfate
##sza
##szkowo
##sống
##table
##taria
##terol
##thiazide
##thie
##thixol
##thorn
##thus
##tial
##tier
##tik
##tillo
##times
##tiêu
##tka
##tke
##toid
##toma
##tons
##triệu
##tts
##ubi
##ubuntu
##uf
##ulum
##unia
##uola
##uridine
##uring
##usan
##uton
##uzo
##vera
##video
##vino
##vix
##viêm
##việc
##viện
##việt
##vna
##vor
##vp
##vr
##vụ
##waki
##wart
##wel
##wing
##xamine
##xanthine
##xes
##xil
##xine
##xing
##xolone
##xơ
##xương
##yag
##yanda
##ying
##yyah
##yńska
##yến
##zani
##zas
##zem
##zenil
##zero
##zione
##ztyn
##zulu
##zyk
##zyń
##zzano
##°
##ák
##ém
##éon
##ël
##ìm
##śnik
##̀nh
##̃n
##̉u
##м
##ểt
##ọt
##ụm
##ừa
##ク
##ド
032
046
067
075
1325
1333
1454
1466
1506
1509
1542
1556
1579
1592
1621
1664
1674
1694
1714
1716
1727
1728
1758
1cm
1d
2048
20m
2800
293
2m1207b
30km
339
344
374
437
459
491
496
519
5x
609
615
639
661
676
684
685
695
699
705
714
731
754
764
778
798
806
814
825
845
8574
865
872
934
948
987
aachen
abacha
abatacept
aca
accessories
acetat
acetophenone
acitretin
acquacotta
acutis
adem
adichie
adrenochrom
adriatic
aero
aglycone
ags
agut
ahmadu
aichi
aileen
akosua
alaa
alakija
alam
alby
alderaan
aldrin
aleut
alexey
allicin
alphazero
amagi
amiibo
amprenavir
amur
américas
analytics
androstenediol
androsterone
angolan
anima
aniplex
anka
annalise
anthocyanin
anz
apl
apples
aqrab
architects
argyle
arjun
armageddon
article
asafir
asderaki
asparukh
asu
asus
ataulfo
atlantique
atovaquone
atsushi
aum
autónoma
avi
aww
babes
babson
backgammon
baekho
bain
balenciaga
bannon
barco
barnum
barrie
bars
barthélemy
barzini
basf
basin
baskerville
bazooka
beacon
beaubrun
beech
beltrán
benelux
benevento
bento
benzamide
berne
bezos
bełżec
bf
bhojpur
bidama
bigelow
biloba
biogen
biosphere
biya
blackfoot
blacks
blast
blonanserin
bogdanka
boise
boleslaw
boleszkowice
bonjour
bormann
boromir
borough
boxall
boyeur
brazilian
bromat
brompheniramine
bronze
brun
brzeg
brześć
buda
budweiser
bugenhagen
burk
burkholderia
burlington
buzzfeed
béziers
bôn
bố
börte
bậu
bốtôi
ca2
cabot
cadimi
cadmus
caldera
calloway
caltex
camagüey
campion
capildeo
capuchin
carcinoid
carmack
carmona
carrigan
caruso
castaño
castlevania
catechol
caterpillar
cañas
cbcr
cd3
cd8
cena
cet
cetp
chandrika
charpentier
chartered
cheikha
chentouf
cheshire
cheswick
chica
chigorin
chileno
chips
chiral
chirwa
chrobry
chymotrypsin
chẹt
ciclopirox
clausius
clearwater
clorazepate
clube
cluster
clymenia
cohaagen
colle
columns
comma
connected
conservation
coronae
cost
coulter
cousteau
crafts
crandall
crisp
cuando
cubit
cumberland
cuong
curitiba
curzon
cyclophosphamide
cyclosporine
cyproterone
cystine
cấu
cõ
cồ
dahlia
daimler
daramy
dard
darolutamide
dayr
deakins
dealer
deer
defcon
degarelix
dejazmach
desi
desiree
dfam
dhs
didanosine
diethyl
dihydrofolate
dinah
dinoco
dioxygenase
diplomat
diseasesdb
dissidia
diviner
dix
diềm
dolina
donaldson
doric
dowd
dravidian
droga
drummond
duolingo
durotan
dutton
dy
dúi
dąbrówka
dộ
edta
eff
egg
egyptian
eiling
ekstraklasa
elba
elbe
elvish
emamectin
endocannabinoid
enhanced
epicor
epo
epperly
epristeride
eps
equal
eretria
ergosterol
erk
esseker
eswatini
etravirine
eugen
evelia
excalibur
exorrhiza
external
eyed
f8
faiza
falling
false
farmbot
farquaad
farther
fatma
fattah
federer
fenfluramine
fexofenadine
figueres
filgrastim
fimasartan
fk
flavia
flupirtine
français
frederator
fromm
fuchs
fulgencio
furukawa
gabbana
galactosidase
galt
gameplay
gamepro
garnet
gata
gautier
gcse
gelato
gerbino
germán
ghalib
ghandi
ghpgvntn
gigawatt
gilgit
gini
gita
giuộc
gloucester
glycopeptide
gnp
godzilla
goken
goose
gorkon
gorman
goshen
gossamer
grabowo
grachi
grat
grechko
grendel
griff
growth
grunge
gruppo
gruyère
gst
guillot
gustave
gwh
gía
gíc
gằng
habit
hagia
hakama
hammy
hanukkah
harbin
harrington
hawthorne
hạng
hcrkt
heads
heforshe
henríquez
hfs
hideko
highlands
hind
hirise
histidinemia
hodgson
hollander
hor
horner
hosenfeld
hotline
houghton
hps
humvee
hutch
hylton
hãngđĩa
hợi
identity
imagine
imdb
ind
independence
inf
influenzae
inga
inverness
inđônêxia
ionian
ipswich
ironman
ishigami
issoufou
ivacaftor
iắm
janey
janudiyah
jasna
jastrzębie
javelin
jcp
jeziorna
jibril
jit
jiu
joes
joubert
jozef
juarista
juba
judd
jugnauth
jørgen
kaasen
kaigun
kalinin
kalman
kampf
kanner
karman
karolina
katana
katsumoto
kawai
kelso
kenobi
kenpo
khabarovsk
khanty
khoeo
khumalo
kich
kievan
kilis
kilometers
kinesiology
kino
kiwano
klafter
km3
kmita
kolchak
konstancin
kotaku
kowalewski
koło
kraken
krakowska
krist
krkonoše
kruse
kuku
kuniyoshi
kuti
kuźnica
kyambogo
kępa
laan
lacoste
lamarque
landmark
lantern
laredo
lashley
latour
lawrenceville
lazo
lbv
lda
lecointe
legionowo
legon
leiden
lenz
leseria
lewin
leyla
lhs
liberator
ligase
limbo
limit
lindane
lindbergh
lipa
listeria
livia
lll
longbourn
longer
loptr
lorena
loughborough
louv
luce
lucknow
lucretia
lukaku
lumerman
luria
luton
lyuda
lúcia
lượng
macrocyclic
macworld
magaha
maggio
magyar
maharishi
maibara
malvern
maraviroc
marianela
mariinsky
marisa
markham
marlow
marnie
marriott
martell
martelly
marwar
marya
masala
masha
masry
massacre
mastercard
mattel
mayhew
mazza
mbete
mca
mcbride
mci
mech
mecklenburg
medellin
meerkat
mejor
mellor
melo
memmio
metamucil
methan
methylone
metoprolol
meuse
mexica
meza
microprose
miku
miley
misa
mitomycin
mkv
mms
mobility
modjadji
moines
molave
mollie
mondrian
monic
moniuszko
moo
morla
morrill
mouaz
msh
multiplayer
muslim
mutagen
mwanza
myshkin
m²
móp
mối
n2
nadir
nambu
nanny
napier
narrator
nasr
navas
neck
nefertkau
ngoại
nhóm
nhưvậy
nicocodeine
nightmare
nikolayevich
nimitz
nintedanib
niska
nissa
nordisk
noriega
northwest
norwid
noul
novela
nrti
nubl
nunez
nv
nyembe
nậm
oberschöneweide
obregón
occludin
ohph
olimpia
olof
omara
ongc
oops
opengl
operations
orphenadrine
osaterone
ossoliński
ots
ould
outer
oviedo
owlsley
oxendolone
oách
paclitaxel
padres
palonosetron
pami
pankiewicz
passepartout
patricio
pays
pct
peaches
pectin
peirce
penbutolol
penderecki
penthouse
pepto
percival
pesaro
pescara
petronas
phenothiazin
phenylpropionate
phoenician
phon
phọt
phởn
piccadilly
pidgeon
pil
pinehearst
piroxicam
pivalate
plasmin
pliyev
plot
pls
pluijm
pnm
pointe
pokal
politico
polyketide
porom
pounder
poznański
practice
pravastatin
prednisolone
prew
prl
processor
protoporphyrin
prus
przytyk
pts
ptv
puccini
purr
pyjama
pốt
qtc
query
quiero
quiet
quết
rabin
rachid
radial
rafa
rafał
ragtime
ragu
rajapaksa
rajasthani
rankine
ransom
rasheed
rawlins
rayon
recycle
reeve
regia
reine
remah
reniss
replace
results
rgyalrong
ricci
riesen
rikers
rocksteady
roda
roebuck
rog
rohypnol
rollins
ros1
rosary
rotary
rowan
rumsfeld
ruskov
russel
rusyn
rydia
ryong
ryukyu
sabeco
saccharomyces
sachiko
sade
safra
sahib
saipan
salas
salat
saleh
salicylate
salk
samari
samia
sanamayn
sangiuseppese
sannam
sanskrit
satsui
sayed
sách
scherbatsky
schwarzenegger
schwarzschild
scientific
scientist
screenwriter
sdl
securin
selasi
selden
selegiline
semolina
sengoku
sephiroth
session
setién
shaffer
shapley
shim
shinzon
shiro
shōgun
shōmu
siam
sibeko
sida
sidwell
siglo
sinti
sith
slash
slug
smiley
snowball
solace
soleimani
solórzano
somi
sono
soraya
sorrow
southwest
spearman
speck
specter
spell
spyder
ssa
stadia
stall
stallone
starosta
stasiuk
statement
stauffenberg
stockman
stoker
student
stupid
styrene
suda
sulfonamide
superstar
surimi
surya
suwon
suồng
swallow
sylwia
syr
sêri
sức
sủ
tagore
tajik
takako
takuya
tallahassee
talus
tammy
tanenbaum
taser
tasha
tat
tatsu
tatyana
taurine
tdp
tedglobal
tej
tekken
templates
tereza
tewkesbury
th2
thabane
tharu
theodosius
thimphu
thiophene
thioridazine
thought
thẫn
thừ
tiana
tilly
tilt
ting
tio
tìm
tiễu
tn
tobramycin
tokimasa
tongan
toon
torrance
tourcoing
tpu
trainor
travancore
triamterene
trimipramine
trubshaw
trzy
tréo
trôn
trĩnh
trược
trầu
ttnt
tudeski
tune
tylman
typhoon
tấn
từng
ubico
ucr
ucsf
udinese
unecanoate
unia
unisa
upa
uracil
urich
used
vadim
vaishnavism
valli
vallon
valse
vanadyl
vandetanib
vanishing
venlafaxine
venture
veo
vermiculite
viber
victorian
videoton
vientiane
vimeo
vinnie
vnpt
vortex
vũ
vậy
vệ
vực
w3c
waffen
wah
waldemar
walgreen
walid
warm
waworuntu
wazowski
wgorzyno
whelan
wicked
wieprz
wilmington
wiltshire
winehouse
woodward
wren
wylie
węgorzewski
xero
xit
xlsx
xvideos
yak
yamanaka
yamanashi
yamanote
yarra
yasin
yed
yl
yohannes
yoritomo
yoshiaki
yoshihisa
ypg
yuma
yuval
yvette
yō
yōkan
z80
zahraa
zamek
zeke
zet
zfc
zileuton
zo
zoho
zoster
zukertort
ăm
điện
đuờng
đều
đượm
đỏi
đụt
ōkubo
ưm
##46
##aal
##abra
##acher
##acki
##acus
##acz
##aker
##alpine
##aly
##america
##athan
##aus
##ave
##azar
##aël
##basa
##baugh
##bein
##bele
##beta
##bien
##bike
##bisa
##biya
##bjerg
##bola
##bonucleic
##boxylic
##br2
##brecht
##bud
##bug
##cad
##cane
##cena
##cetrapib
##cheon
##chini
##chip
##chloride
##chr
##chun
##chúng
##chō
##chống
##cit
##cj
##cla
##cone
##cong
##culum
##culus
##cun
##czno
##cả
##dades
##dazole
##dberg
##ddly
##ddu
##dias
##dick
##dida
##dier
##dmore
##doc
##donald
##dorus
##dres
##dria
##duy
##dzice
##día
##eae
##ease
##east
##ebi
##ector
##ega
##ehr
##eja
##eline
##endo
##enga
##enkel
##ents
##eny
##epa
##erma
##ester
##estriol
##etron
##etsu
##eña
##eño
##fab
##ferrat
##fic
##fix
##fungin
##fus
##fylline
##gaan
##garten
##ghe
##giana
##gius
##gliano
##gnane
##google
##got
##gowo
##grand
##guy
##gây
##hers
##hield
##hobia
##hoe
##hook
##hore
##hti
##hư
##hạt
##hồi
##iada
##iczna
##idas
##ieh
##iem
##iglucerase
##ild
##indi
##inet
##inis
##inol
##inta
##ipat
##irect
##iris
##iru
##issa
##iuk
##iximab
##ián
##jac
##jera
##jira
##jjar
##kaidō
##kare
##karia
##kau
##kke
##knight
##kot
##kum
##kế
##lchot
##leaner
##live
##lix
##llow
##loro
##lston
##luca
##lyov
##lyte
##lán
##lê
##lại
##mada
##mag
##mare
##maro
##marvel
##michi
##mis
##monia
##moor
##motion
##mson
##món
##mów
##naro
##nau
##naz
##neau
##niczka
##nnes
##nock
##nox
##nska
##ntial
##nội
##o4
##odnia
##oel
##ogan
##ologii
##olytic
##oman
##omycin
##onel
##ooth
##opolis
##oprofen
##opsis
##oq
##orin
##osarcoma
##ostat
##oti
##otta
##ours
##oush
##oğlu
##ość
##oặc
##pane
##pase
##pate
##penicillin
##percy
##perisone
##pet
##phor
##phs
##phua
##phus
##pkov
##planet
##plasty
##poli
##prim
##psy
##ptes
##ption
##pty
##pyeong
##pz
##pó
##qat
##query
##quí
##ranga
##raya
##rban
##retto
##richard
##risa
##ritz
##riêng
##rke
##roll
##rosis
##rossi
##rtha
##rtu
##rup
##rva
##ryn
##ryo
##ryu
##rzyna
##ría
##scan
##scha
##sed
##sim
##solar
##stant
##steron
##strel
##suki
##sze
##szek
##sân
##tadine
##taire
##tara
##tcn
##tent
##thia
##tho
##thos
##thuốc
##tika
##timo
##tip
##tnica
##tock
##tones
##tosa
##trap
##tronic
##truction
##tso
##tten
##tyn
##tín
##tăng
##tới
##uation
##uay
##uj
##ukin
##universal
##uny
##urn
##uve
##uwer
##uzzi
##vala
##valle
##vara
##vc
##vec
##villa
##vins
##viruses
##viên
##wanda
##washington
##with
##wniki
##words
##wskie
##xacin
##xazole
##xene
##xic
##yba
##ycki
##ydrate
##yles
##ylus
##yra
##yrat
##zal
##zira
##znik
##ật
##ãi
##ếm
##ển
##ílio
##ính
##ópolis
##öping
##đảo
##īfah
##ławice
##łota
##ōmei
##ūn
##żewo
##żyna
##żyński
##ưu
##́a
##̉o
##в
##ия
##та
##ы
##ь
##ی
##ảo
##ẩ
##ắ
##ẳm
##ẹn
##ẻo
##ểnh
##ễm
##ợi
##ủng
##♭
013
018
022
092
1241
1257
1512
1523
1535
1557
1585
1622
1628
1692
16o
1711
1737
1738
1743
1749
1753
1756
1759
1c
1g
20cm
2k
3300
381
396
3doodler
447
474
534
551
564
568
573
581
584
596
5m
614
616
617
624
636
648
696
723
763
767
769
774
811
815
832
842
867
868
875
877
896
918
919
962
993
a2a
aac
abdalla
abimbola
abzu
accumbens
ache
acids
actionscript
adderall
adina
adolphe
agf
agonist
agrippa
agüero
ajmaline
alameda
alana
albus
albuterol
alectinib
algerie
almotriptan
alphonso
alva
alvear
amad
amantadine
amaterasu
ambo
andaman
andretti
ange
angin
anhbasg
anni
antares
aop
apis
appalachia
aquitaine
arabber
arafat
aragón
arana
argentino
arkady
armor
armory
arnswalde
asharah
ashford
ashurbanipal
asimov
aster
asunción
asylum
ateneo
athlone
atreus
att
attila
augustinô
austerlitz
australis
aves
avex
avondale
azango
azdak
años
baa
badakhshan
baghuz
bagration
baiano
baidu
baran
barceló
baritone
bark
barrels
barrera
barroso
barsamian
barth
baskin
battlefield
bauxite
bav
bazhenov
beane
beano
beaver
bef
begum
behold
bela
bellotto
belong
bemba
bensalah
benzydamine
beryllium
beslan
beti
beveridge
beyonce
biblioteca
bismol
bisphenol
biwako
biểu
blackbeard
blackie
bland
blink
bluegrass
blunt
bode
bogart
boigny
bojack
bolkonsky
bourgogne
boye
bratislava
bread
breaker
breakfast
bring
brittain
brittle
brude
btk
buccaneer
budrus
burnley
burrell
busby
busko
butadiene
butan
butoranol
byrd
cabernet
calls
canine
cannabidiol
cannonball
carbonera
carlota
caroten
carrió
castell
casual
catanzaro
cavalli
cb1
cecchetti
cecily
cedella
celina
chakra
championships
chapter
charlize
chatelier
chaves
chawan
cheetos
cheewagaroon
chekhov
chelmsford
chemspider
cheol
cherie
chiangrai
chiapas
chic
chivilcoy
chloroacetic
cholerae
chordata
chuyn
chậc
ciołek
ciro
citizens
clapton
classical
clements
cmo
cmos
codd
collider
compound
concha
confession
connexon
cooking
copeland
cordoba
corinth
corticosteroids
cosplay
cotys
cramer
crepe
critic
croker
crophopper
crunch
crème
cub
cubana
cubs
cuneo
curcio
cure
curse
curve
cycle
cốm
dahoud
dali
dandenong
dani
daoud
daptomycin
darknet
darko
dashboard
dành
ddos
debora
degli
delilah
delisle
demegestone
dench
dennett
deroplatys
derrida
description
destination
diamela
diamonds
diatreme
dic
dicoumarol
dien
digg
dihydrochloride
dionne
diori
djawadi
docker
doja
dok
dolan
dongdaemun
dorsey
doughnut
douma
dpkg
dragonstone
dragovic
drain
dravida
dread
drucker
dsdna
duży
dziennik
dất
dịchː
dởm
eckert
edelman
effector
egerton
ehrhardt
ekaterinburg
eldon
electronica
elie
emba
emedastine
emla
emt
enterbrain
enterococcus
epitope
epley
erbitux
erebor
eridani
esp
está
etoperidone
eutelsat
ew
ewe
exp
exploit
f12
f40
falklands
fancy
farrah
fatal
faust
faustin
favela
fawcett
fay
febux
fendi
ferenc
fidelis
fifo
figure
filename
fiti
fitzpatrick
flake
fleischer
fluorescein
fluvastatin
fo
follies
following
folsom
foo
forbidden
fordon
fortitudo
fortress
foss
françoir
frederik
freespeech
furlong
furoate
fyodorov
gabab
gabriella
galactic
galerie
galilei
galla
gallen
gamestop
gantacurium
gapminder
gar
gartner
gator
genevieve
gentile
genuine
ghanaian
ghe
ghee
ghosts
giewont
gilroy
ginkgo
gladstone
glamorgan
glucan
glycyrrhetinic
goldratt
goma
gout
grade
grafenort
grosset
grp
grudziądz
grøn
guardiola
guillén
guinean
guo
gur
gustaf
guthrie
gới
h3n2
habeas
haffah
hail
haitian
hajar
halothane
hammam
hampstead
handle
hangbe
harit
harrier
hashtags
hasui
hattal
havij
haymitch
haïti
heading
heparan
heracles
hermanos
hermon
higuchi
hiller
hilts
hims
hindley
hispano
hola
hom
honoris
hopkinson
horie
hormones
hoshi
hoss
hove
hydroxide
hydroxyamphetamine
hydroxyzine
hén
hêt
họcngười
họcvà
ibf
ibiza
ica
idelalisib
ifc
iga
iggy
igsf
ihi
ill
imageshack
immanuel
inaba
ines
inia
inox
installed
intellij
ipragliflozin
ipt
isaad
isarel
ishmael
isoprenaline
ivor
izquierdo
jameson
jawlan
jegede
jell
jiaying
jing
jingles
johanknecht
johanson
johny
jolene
joni
josèphe
json
judi
judit
jumbo
juventude
kabanosy
kadir
kahr
kaidu
kailash
kalhu
kalnitsky
kalwaria
kamaboko
kanam
kantor
kantō
kanuri
kaseba
kashiwada
kaye
kcna
kefka
kenema
kenyan
kenyon
khotun
khệnh
kilgallen
kirdpan
kismet
kitkat
kl
klechkovsky
kleiner
knowing
koehler
koirala
koneru
kony
kooning
korapat
korchnoi
korg
kotobuki
kowalcyzl
kozlow
kryton
kujawski
kumalo
kurtzman
kyrgyz
kêt
köhler
köln
kōkū
labidi
lacton
lactone
lada
lagoon
laissez
landscape
lapis
larsa
latgale
lauder
lecithin
leclanché
leflunomide
legal
lemarc
lendl
lesley
leverkusen
levorphanol
levothyroxin
lewy
lifo
lije
limburg
limonene
linguaphone
[...]
